<s>
<pad>
</s>
<unk>
<mask>
!
"
#
$
%
&
'
(
)
*
+
,
-
.
/
0
1
2
3
4
5
6
7
8
9
:
;
<
>
?
@
[
\
]
^
`
a
b
c
d
e
f
g
h
i
j
k
l
m
n
o
p
q
r
s
t
u
v
w
x
y
z
|
~
¡
£
¥
§
°
±
²
³
µ
·
½
×
æ
ø
þ
đ
ł
ʻ
ʿ
α
β
γ
κ
μ
а
в
е
к
о
с
т
я
ا
ح
ص
ل
ن
ه
ก
ง
ณ
ต
ม
ย
ร
ล
า
გ
დ
ვ
ზ
ი
კ
ო
რ
ს
უ
ც
ძ
წ
ხ
ჯ
჻
‑
–
—
‘
’
“
”
„
†
…
′
″
⁄
₤
€
₹
⅓
⅔
→
−
≤
☉
♭
♯
〈
〉
の
ァ
ア
ウ
キ
ス
ッ
ト
フ
ュ
リ
ル
・
動
場
大
戦
攻
機
殻
火
礮
空
隊
～
##r
##e
##n
##d
##a
##l
##o
##w
##i
##c
##k
##t
##b
##u
##g
##h
##s
##y
##p
##m
##v
##q
##f
##6
##3
##x
##z
##2
##5
##0
##8
##4
##7
##1
##9
##j
##ʻ
##ø
##ł
##đ
##ʿ
##ل
##ه
##ص
##ن
##ล
##ย
##า
##ณ
##ม
##ต
##ร
##о
##в
##е
##т
##с
##к
##а
##я
##ウ
##ァ
##ル
##キ
##ュ
##リ
##ア
##ト
##ッ
##フ
##γ
th
the
##er
##in
##ed
##on
##nd
##es
##or
##at
##en
in
##ar
of
un
##an
unk
##al
##it
and
##ing
##as
##is
to
##ou
##ic
##ion
##re
##om
##el
##il
##ent
##ec
##th
##st
##am
on
##ur
was
##ad
##le
##ro
##ac
st
for
##ly
##et
wh
as
##ir
##ol
##iv
##ter
##id
##ith
##ig
re
be
##ow
al
##ay
with
that
##im
it
is
##ch
##ation
##ut
by
fr
con
##em
##ers
at
##ot
an
ch
he
##ce
##us
##ver
##ul
##est
##and
19
sh
##ain
##os
his
com
##av
##ag
##ere
##um
from
##od
se
pro
su
##ct
de
##ess
20
##op
##ies
##ted
ne
##ri
##ap
were
or
##igh
##un
##ts
##ld
##ill
##if
pl
##ich
##ong
ar
##all
ex
##ther
##ard
##ate
##ak
##ish
##pp
##gh
##oc
##ber
le
##ab
are
##ame
##ated
##ud
pr
tr
##ity
##ist
##se
sp
##ive
had
en
##ore
##ie
which
##ough
##ear
##art
##ack
##ge
not
##ect
##ov
##ort
##ound
##ant
af
##ell
##our
##ally
rec
##ian
##ord
##rit
##ast
##ment
##ost
##ave
##ine
her
comp
##ip
##oun
fir
this
##ia
##cc
##ary
##ue
cl
but
200
##ust
their
ad
wor
tw
first
inc
its
cont
##ight
##so
int
bo
ab
##ach
##out
##ous
##ould
##pt
after
man
one
they
sc
##ions
##ome
also
all
##ure
gr
##ial
res
##ical
am
##qu
##ath
per
ro
rel
##ater
two
tim
##ub
new
us
fe
comm
##ide
##ra
have
##per
##ok
##00
##og
##ign
##age
mar
##oll
##ire
has
##ass
been
##own
##ree
bec
who
ser
##ence
play
##orm
##ru
des
app
ag
18
##te
go
##uring
##ond
year
she
##ile
##land
ev
##ely
##ition
##lud
##ance
dis
part
##du
##ry
me
off
##ade
fin
##pl
car
##wn
##ans
we
im
201
over
##ory
##ations
br
##ff
other
up
during
when
out
includ
can
cent
co
nor
##ang
time
pre
##ite
dec
##pr
ind
##urn
##ric
##ember
##iz
inter
song
fl
##ens
##ib
##ice
##ke
##ace
into
ear
##nder
more
att
par
##ced
sec
po
##ents
##act
##ose
##ount
##we
##ult
would
char
form
act
##ward
te
sou
##ail
##one
##ied
##ks
him
##ason
most
##ited
##ased
jo
##amp
bet
bl
##rib
some
game
kn
high
no
##ild
while
##ces
##ix
##ase
mus
acc
them
##ings
may
##man
ass
only
rem
cons
##ious
there
##able
##ake
thr
##lish
how
##ates
##way
reg
##als
war
eng
##old
fil
record
three
##iss
##vel
##les
gen
##gan
##aus
##fer
under
##form
later
about
##ved
##ors
through
##ollow
north
pe
##ween
between
film
again
##reat
work
sa
follow
min
##ood
so
li
than
season
199
star
writ
##gr
##eld
day
bu
end
##ph
num
##ered
##eric
ac
au
em
##end
produ
##ual
el
bat
win
##ction
pos
rev
lar
mon
##ral
south
##fore
##ular
##ational
spec
##ict
##ision
mov
second
##hn
##ames
##iew
rele
##ft
col
rep
do
##ters
where
sy
made
def
##ey
four
##ick
ret
alb
ma
##ock
pub
##hip
##ons
city
such
##ning
bro
pres
americ
##ury
sub
gu
before
world
album
cap
sch
##ived
used
air
call
series
dr
sur
##ever
sever
##ery
ep
000
##tern
being
both
many
supp
these
la
##lic
sing
found
op
gener
ph
str
set
years
##ily
##ific
##ss
pop
##olog
##urch
however
loc
pol
stud
##ating
##ected
imp
add
count
sm
well
qu
dire
sim
will
##red
number
##ten
##ird
long
then
##ained
10
##ause
##orn
div
##ane
##tle
##igin
##int
several
##other
##ode
appear
##ince
epis
origin
trans
arm
including
bel
##ics
against
state
12
mill
##ities
known
brit
art
ter
became
##velop
main
back
##ife
##ement
inv
team
inst
##ised
cro
charac
music
##oup
##iver
perform
desc
##ale
##ines
16
##air
direct
nov
198
##ection
##led
##ve
show
united
##li
##though
although
develop
cre
oper
est
##ank
##ep
##its
##ron
hist
early
conc
mil
ob
##ures
century
##oy
john
##atch
##til
##ise
rece
##io
lead
following
##ower
old
##son
##iet
crit
met
near
port
inf
compan
though
##ield
##ton
##tal
dep
const
contin
sign
like
land
##ool
##elf
comple
run
194
##are
dist
##vern
began
along
open
down
church
dif
##ful
17
15
11
##ann
##ather
because
##0s
##ually
var
could
196
sl
##ork
govern
describ
##uch
##rop
197
##ative
##sp
called
episode
did
##der
peop
##ert
prov
ever
##ern
fam
##ains
ju
six
ed
king
##ued
##els
until
said
##emb
cr
area
feat
##une
ship
exp
##ccess
american
disc
states
ste
##ined
dam
ann
people
bar
group
##ivers
##lished
##ty
prev
##aking
##ins
lo
##ley
since
ger
##gest
hel
##ope
red
aust
you
each
any
west
resp
released
same
##ove
adv
##ession
##row
british
return
design
##yl
own
around
offic
##ured
##ided
##amed
##ments
pass
chr
##ange
national
##uc
##ized
head
##ially
##thern
km
million
wee
##yp
maj
pers
aug
##rol
occ
book
##enn
##oman
##ruct
use
five
success
##emp
##osed
august
best
small
mod
miss
major
##oot
road
eff
##up
##ently
##ull
##aph
company
##stem
##ele
command
school
another
##ible
town
##au
##az
##ium
id
##eng
camp
##ting
final
if
##ind
sept
##res
consid
serv
mag
195
##ouse
great
just
river
attack
september
eur
##ues
system
##eer
award
gre
##ists
##ah
character
line
med
large
##xt
##orted
what
public
games
##ony
##omin
##ident
ra
##aining
13
austral
lit
tit
fur
prot
class
due
193
##ms
storm
child
coll
my
arr
life
##ales
##ier
##oss
191
mid
##ject
conf
##ects
##anc
now
water
short
##ague
even
##ets
##ked
##ont
bre
june
##ired
##aving
rest
##aced
av
ii
black
east
name
ext
hum
late
way
##ient
det
##ution
german
##dom
reach
##ural
##ble
received
oct
build
island
government
##ute
review
home
##ina
partic
##ately
##ilt
accord
described
jan
turn
much
vers
within
arch
ent
giv
vide
##ored
incre
univers
##app
ge
christ
##uary
##ober
march
##iam
played
october
14
club
species
according
cor
cour
took
gun
ele
top
##rote
third
##ash
##aged
vis
times
capt
god
wrote
league
general
july
men
won
family
single
death
##over
hal
##ren
##ys
power
##aw
intern
apr
##aim
##ages
track
tec
gl
25
##side
based
##und
differ
##gin
##ified
typ
event
allow
april
##ody
mor
##ropical
##cept
control
included
poss
mo
ke
##eal
dem
last
tri
common
appro
progr
stre
dest
white
left
estab
division
##ball
those
##erv
##ively
video
named
soc
##ead
organ
very
story
january
addition
belie
hur
york
##ew
##iod
##by
##orts
##ven
ref
england
auth
previous
del
house
period
eas
30
##tend
support
original
##akes
##ital
ant
plan
##sc
##ology
expl
##ention
pat
##ism
##ility
month
november
enter
##ought
heav
bas
sol
##ament
vill
##cl
##ug
##par
place
foot
vict
prom
kill
bus
built
europe
har
##itions
sw
val
##ket
##ilar
commun
rout
december
##ature
among
##raft
songs
field
hand
192
##ives
champ
##ished
led
make
sent
real
conv
leg
stand
similar
further
som
init
##ians
##ner
##ience
milit
player
far
##ulation
sug
##ides
opp
still
repr
match
##ench
##ink
##itch
local
100
tropical
next
wind
##port
requ
##ger
##ances
present
person
##ogr
##med
youn
bill
##ense
law
view
##ards
##eder
##ling
tour
2009
2010
trad
came
exper
##ll
2008
role
light
##ats
every
moved
iss
##iation
##ime
brig
cal
histor
university
rock
often
repl
without
history
sk
##ham
##ps
##mer
recorded
low
squ
tele
##ically
few
love
band
say
side
hurric
##ences
##ograph
##gy
##ruction
considered
caus
##ison
##aken
military
pri
##ark
battal
army
memb
suggest
order
level
##ene
cur
less
##inc
##uss
##bs
##ival
##ength
see
assoc
deb
result
former
coun
contr
week
2007
import
french
sold
##ories
##isted
claim
cle
park
point
english
polit
beh
fre
##line
published
##que
written
continued
##min
repres
take
different
super
##aster
half
##ai
##thing
##wards
##ops
held
days
##thers
never
##ensive
author
##elt
##ady
##ross
##bert
##ae
##let
refer
frie
help
##aur
##ler
strong
##aff
forces
##iving
fun
##essed
##ister
force
roy
surv
##yle
##itar
##uted
defe
##ob
##ants
fire
##ior
spe
friend
feder
##ged
desp
having
##wh
find
cast
manag
good
international
tre
##ared
throughout
obs
sit
prof
rad
hurricane
post
sound
compet
##ission
21
##estern
##ico
##iment
become
##amb
members
##ves
nav
ang
county
champions
children
total
23
##vision
chang
cross
particular
jack
wal
2011
title
canad
##lu
lost
start
position
##ott
prop
release
2006
version
night
country
gold
##bru
despite
whe
comb
roman
route
popular
##ices
##rodu
press
production
##ars
gave
highway
produced
reported
cover
southern
little
program
eight
##ush
##ption
febru
represent
february
22
rich
dra
dyl
fle
lat
dylan
pet
##roy
##idge
26
cy
fac
mount
24
##ights
live
site
once
central
given
fem
ha
##ots
grand
geor
##self
critic
list
##na
##ailed
##sh
television
stat
fort
##erc
career
don
2012
##ended
##iety
president
free
jap
ord
afric
activ
japan
include
northern
battle
young
##ried
aff
guitar
signific
##ests
28
##enc
invol
human
cult
sum
hero
ground
writing
western
##day
region
age
cath
making
##arn
battalion
should
away
mich
coast
body
pa
vi
seven
eastern
royal
influ
##ret
pal
development
##ring
##omen
arg
##ize
mi
##bo
seen
pur
occur
modern
##ness
stated
too
look
lim
lab
2013
fif
mass
##ploy
instead
returned
ball
ir
across
established
ft
ham
earli
service
burn
hor
hour
dav
##xim
trav
using
destroy
right
##br
dou
ships
equ
##ising
conn
ill
noted
##anted
struct
population
announ
fact
full
##ither
##augh
reached
techn
ve
##sequ
america
thought
##ably
wood
developed
##ches
190
elect
ire
mix
introdu
various
building
championship
ten
brigade
50
##inted
significant
##fic
players
mean
ireland
##otion
project
miles
important
27
sun
himself
engine
lond
##ying
london
son
father
tor
prim
broad
william
##ese
mark
football
felt
##ech
read
performed
bird
civ
##ened
exc
##ama
##ape
kingdom
##iction
construction
net
##ades
areas
official
tro
went
##ument
feet
##aint
need
##idence
##ford
does
mm
pra
works
##play
died
##used
australia
cas
range
##rew
events
indust
successful
##iec
##ones
begin
decl
put
fig
others
##most
brown
originally
##atic
earth
poem
upon
fall
court
vir
civil
cup
##aces
relations
formed
##ief
##reek
started
bri
##craft
dev
know
performance
james
##gether
##ourn
base
get
relig
women
style
##empt
political
##itive
suff
novel
bow
born
let
front
caused
##ipp
##con
eventually
located
street
ins
center
##pression
director
cert
##aign
scient
characters
campaign
tur
vol
##antic
stars
created
critics
entire
able
tradition
hold
##ective
phil
##ological
bur
lang
wall
word
chart
vo
##ael
##get
hot
mat
##omb
189
produc
special
temp
##ints
##irc
2004
magaz
##ef
od
ol
proc
##earch
research
discover
hill
##unch
cer
##alth
together
##ements
2005
##ration
becom
meet
heavy
fav
##work
##ucle
ide
circ
attempt
##ample
remained
rh
##mp
atl
prote
##ges
##iness
##iting
##aves
##ogn
completed
ly
scored
diffic
difficult
grow
##fall
anim
hom
##mit
##ster
agre
guns
announced
sea
australian
gal
ru
pred
colle
##ination
almost
mer
##king
##ator
##ested
goal
peak
mother
nar
sel
least
indep
independ
##iers
##asing
##omp
behind
loss
ver
##ress
##co
##me
##ering
comment
damage
bi
##vers
fourth
added
followed
months
nucle
party
appeared
pen
wife
##ald
territ
killed
31
journ
##ivid
condom
bay
fight
voc
##lo
aud
stri
inn
cond
colon
ident
david
pitch
aver
cop
rail
##enced
bir
##iated
sex
##be
station
enc
aircraft
squad
29
round
##ax
inform
##enth
##ota
commit
taken
##ara
appo
features
relationship
ap
chap
individ
##arch
##ells
playing
185
counc
process
jew
wr
##tim
leading
fleet
40
infant
either
nat
insp
2003
served
estim
creat
lack
rank
##aper
flor
attemp
curr
hon
sour
##ray
towards
##emy
hall
##field
france
action
mach
san
trib
##osp
2015
subsequ
decided
saw
fund
##ully
close
ber
case
den
treat
##ream
reb
proble
recogn
soon
generally
believed
los
separ
magazine
robert
parli
quar
elements
hun
host
##ox
##ship
operations
ach
hy
mem
non
impro
langu
##ries
##mar
##cted
commission
female
hard
mater
wid
##anch
example
##elling
carey
draw
##ique
weeks
council
infantry
key
rather
sal
archae
card
hit
##yn
clos
##igned
interv
records
move
depart
parliament
fa
##cent
##omm
##ecut
##olution
flood
awards
du
rul
##ino
##osaur
meas
outside
opened
tem
tow
tom
prem
rose
mex
brought
points
regard
regular
business
manager
##gn
##pted
##utes
finished
recording
directed
approach
hen
mad
##dle
european
cost
##ceed
##ization
study
##spec
featured
earlier
bra
sil
yard
stop
saf
achie
der
domin
hol
member
past
sat
wales
188
##tended
que
victory
foc
##eum
##uit
teach
##ida
##ways
federer
sn
ul
##gar
commerc
provided
gir
viet
bey
expr
working
launch
village
association
ath
tal
wanted
##ole
ital
##ordan
blue
opening
stage
##oted
appearance
troops
35
cru
edu
##den
##ming
##ston
##imes
##rict
particularly
big
jordan
##ned
##asion
condu
indic
redu
##ency
cut
stru
beg
prob
deal
initially
winds
stay
priv
##ground
##medi
ur
##af
##my
##etic
##odes
186
secret
largest
girl
##ential
sequ
employ
fly
mc
##tain
##bit
##go
##ped
##oring
##orary
union
##oph
evidence
crew
qual
2014
tech
george
esc
reason
simp
length
yards
##oration
##read
come
possible
radio
summer
atlantic
##nes
##ki
##uter
##eler
above
room
minor
ey
##west
19th
depression
office
christian
500
##sel
##ouri
##ids
##ounted
feel
museum
mary
allowed
saying
ren
rain
pract
##ellow
invest
instit
somet
florida
educ
##ee
whom
regiment
construct
type
anti
clear
oliv
norm
##erm
##erous
inh
middle
material
creek
mac
exist
resul
poor
worked
observ
rap
wil
strength
police
designed
community
hours
mos
nec
nine
##east
##thod
respons
missouri
social
previously
kh
##iding
anc
seem
lower
forced
neg
prior
##board
race
##ana
cho
plat
horse
mcc
sus
##ze
remains
lik
quick
operation
society
pain
ven
##ators
princ
2001
increased
praised
food
must
nomin
wild
##esh
compos
specific
avail
indian
sym
er
##acy
##ript
##aps
paul
viol
commercial
kil
##to
threat
goals
interest
repub
studio
econ
fut
jud
##ania
##istic
surf
michael
quarter
econom
pot
##ago
##action
commander
replaced
fiction
mur
units
stone
parts
writer
effect
egy
taking
187
acad
interview
egypt
doc
mult
##ani
##ica
##vert
situ
face
hosp
test
##val
thom
##umb
scre
highest
capital
richard
republic
ho
pac
##gg
shot
##ributed
assist
discuss
liter
claimed
navy
industry
beginning
era
hous
mph
section
uk
##uel
##xas
##onst
coach
certain
bal
##ington
lines
##rated
##jects
##ata
joined
approxim
canada
estimated
henry
ny
##lin
proper
except
transport
japanese
involved
religious
average
fish
##round
placed
##ude
oldham
signed
##anned
establish
suggested
profession
travel
college
##ecutive
ban
happ
##ik
##ille
stories
increasing
sometimes
##erved
forest
##erson
change
##eston
##ronic
introduced
sem
theat
##ores
dead
training
itself
intens
scene
phys
break
olivier
rang
##oon
##for
inj
going
immedi
di
gar
lin
##ne
##wood
thus
today
##omet
tru
diss
assemb
transfer
complete
available
date
give
male
watch
touch
scen
prepar
hu
##ius
##ck
whose
##elled
nearly
reviews
additional
athlet
sam
zeal
##ving
arab
carol
respect
mexico
vietn
dom
our
pay
183
approximately
##ready
##olic
already
##oney
subst
term
cycl
irish
appointed
thomas
piec
##less
##band
told
##quar
damaged
occup
friends
mot
names
native
##ky
india
turned
issue
fifth
probably
woman
##bar
think
staff
remov
language
espec
mart
size
deep
grad
surround
shows
possib
##ography
contract
bod
might
##stand
##usion
mont
36
dut
ran
wat
##tered
##achel
flight
winning
students
complet
passed
captain
zealand
lord
##ties
chic
especially
##bor
##arily
withd
enough
twent
britain
network
pacific
cat
failed
pan
##off
chines
display
media
structure
mixed
chinese
00
##oth
##cast
forward
board
quest
##anna
45
admin
184
overall
better
cathed
limited
daugh
sen
space
running
particip
personal
debut
cou
dark
##ask
spent
includes
moving
arrived
angel
ordered
dig
mal
##iff
exam
##ector
bridge
slow
green
wheeler
fer
anal
usually
remaining
larger
visit
birds
lyric
department
aut
doll
hop
roll
##yer
##ume
2002
abs
required
changes
future
fail
lake
ot
ox
##eth
##down
##ulated
##ung
decision
canadian
latter
mountain
jin
lou
lay
upp
##oid
##reg
remain
natural
wide
##atory
##aries
reveal
iii
peter
africa
60
unc
##ita
##imin
##ula
##ulf
span
notes
boy
imm
mounted
nature
##fect
##ateg
groups
cathedral
upper
dub
mention
penn
##acing
##eter
2000
rob
virgin
territory
bab
dro
##head
##ference
ended
positive
critical
billboard
##gu
score
centre
poet
larg
schol
supported
feature
living
rachel
##bc
##ilities
##ada
news
finally
musical
pressure
##bers
ali
contemp
scott
provide
smaller
breed
voice
becoming
money
saint
##ker
##edy
always
shown
traff
films
prevent
headquar
discovered
cad
pu
##itz
anth
##ump
##ifa
##abit
science
related
flow
report
shortly
gods
birth
squadron
nin
tar
##ih
##aker
charles
syn
defeated
cm
iron
oly
oce
self
##ney
##inct
exh
##pped
ens
temple
subsequently
temper
private
##selves
olymp
cell
jer
##ste
hear
##ocks
books
frequ
surface
38
je
mr
nations
##rack
##back
health
minutes
experience
got
makes
tv
##uals
##riage
trade
1995
bord
fox
hair
mom
##onse
##iter
##uments
##ecting
greater
professional
cele
##rd
##gl
learn
intended
teams
idea
##mitted
largely
van
disp
mostly
themselves
##ending
conclud
metres
education
cred
pian
pair
##eas
##ote
percent
emp
batt
response
collection
captured
valley
haifa
bowl
scientology
yet
##agon
box
blood
numbers
favor
problems
likely
corn
dj
xen
##eign
##gen
unit
sev
##iforn
concert
keep
californ
referred
machine
queen
xenon
75
mort
##ios
##idents
whole
method
constant
entered
primary
broadcast
cause
tenn
##aut
guard
croat
greatest
arrang
square
ranked
constructed
headquarters
listed
your
##ners
##ites
adm
contains
amb
market
majority
morning
tower
coup
haw
russ
##orial
##acted
leaving
##ections
##rael
##oke
2016
airport
sett
starting
whether
##stein
##ises
frank
##ishop
batter
galv
jewish
ultim
traffic
##kan
##ples
consist
create
portug
officers
effects
fighting
information
ocean
fans
want
adop
companies
oppos
competition
purp
hus
##uing
##gian
##ining
chief
##apt
product
concern
changed
##ompan
cam
cric
jun
lived
pit
pun
takes
##ergy
israel
franc
newsp
color
publish
settle
episodes
soldiers
proposed
agreed
committe
celebr
galveston
bad
master
sov
##ville
##edic
tourn
##oles
emer
studies
standard
brief
journal
launched
fest
jam
##jected
##teen
forms
location
runs
increase
quickly
california
2nd
pow
wing
##lor
##ken
##ma
##change
plans
compared
meant
theme
minute
movement
terr
meaning
administ
lyrics
cra
jose
las
##rison
##under
##men
##zy
things
leave
bring
attr
assigned
1999
trees
occurred
dyn
##of
##tar
##atively
inside
##illery
appears
artillery
determ
defeat
catholic
destroyed
focus
screen
tons
beach
shoot
true
##ipal
intell
serious
impr
longer
corps
refl
double
independent
condoms
400
nix
##lim
##urity
asked
graph
##key
object
magn
villa
80
bound
##tained
##por
##aded
##ability
carried
cann
schools
awarded
culture
traditional
chicago
contemporary
ben
bomb
ca
done
hund
ross
##zz
##ett
##andon
brad
writers
election
artist
sixth
##onym
trip
proteins
conducted
daughter
hundred
33
here
log
lady
care
something
ending
singles
district
annual
services
initial
associated
latin
investig
hospital
liver
pil
##pool
##mas
##outh
##iva
spir
##ortun
revolution
complex
consider
buildings
current
source
aer
unable
##isions
alice
scot
married
sched
constit
commented
twenty
300
ast
dum
kick
##ds
##ban
asp
beat
finish
access
numerous
brother
counter
burns
##osaurus
rapid
ancient
empire
32
purch
##nel
##ga
alkan
conference
##essions
image
1998
polish
victor
castle
african
producer
nixon
bud
dail
fow
ll
row
ray
albums
scenes
husband
1st
ale
##hou
##anced
##ription
minister
tracks
speed
influence
inspired
cyclone
gall
os
path
##well
thick
##eless
##umn
env
earned
accompan
fit
fant
tay
##oor
chann
##ander
acqu
issued
mosley
piano
70
ign
via
##ault
##iny
chall
##ria
##ounts
marked
marriage
texas
account
1996
1993
##gress
positions
crown
variety
edge
occasion
giving
busch
immediately
ott
committee
daily
ga
yellow
unli
##ases
spring
##ails
directly
status
begins
aw
camb
dedic
lif
##ands
planned
actor
portray
helped
safe
withdra
bank
horn
mel
ple
und
##ca
throw
##ams
##erset
##umed
imag
terms
attacks
christmas
somerset
experi
combat
figure
suffered
spanish
liverpool
fowler
fear
##itor
rein
20th
nearby
##aught
individual
document
waters
taylor
cand
ess
rom
##ease
closed
abandon
defense
polic
leaders
presented
historical
management
cold
##bed
##uf
##itude
really
search
plot
presence
drum
slight
raised
bid
ow
wound
##iant
##room
concept
recover
financ
weap
metal
continue
advent
##ylv
nuclear
vocals
fol
jane
perfect
disapp
below
covered
attempts
baby
soviet
kind
##iser
##alled
composed
paris
##ification
mission
archit
organization
hands
sky
figures
rhy
roseber
nation
rif
##ging
##erve
##once
##ari
##itation
##urs
stad
shar
extended
##anta
##athan
relief
uses
higher
peace
officer
beyonce
susp
fell
pict
##kel
##ba
##joy
##icted
chem
enjoy
compr
compar
germany
casual
selected
carolina
virginia
90
rat
ut
##mon
##isc
##anded
suc
incor
##ously
##iami
powerful
needed
rule
39
mile
sand
##pre
thir
thunder
##ening
che
comedy
##essa
promin
highly
conserv
countries
crow
attacked
federal
situation
assembly
##standing
festival
##ylvania
bond
diam
paper
##wor
##ental
rear
fruit
##apo
meyer
offensive
advance
confir
course
##chester
bodies
penns
mas
miami
##anas
##uries
places
recent
northwest
1997
movie
singer
transl
allowing
necess
kilomet
multip
rush
##rical
##osph
deg
compl
dism
offered
##ension
emper
subject
levels
peaked
widely
removed
42
bed
bass
fill
nico
pick
##mium
foreign
##olf
attend
##cepted
182
##lands
means
active
opera
distance
typically
veh
meeting
protein
vocal
copies
cadmium
scotland
bul
pul
ris
tax
##ev
##vement
prince
scoring
resc
text
performances
model
extre
window
combined
sexual
attempted
responsible
academy
respectively
cricket
gard
##ii
##track
##pole
##imony
china
sport
energy
branch
canc
block
genus
describes
edition
##uck
somal
soundtrack
purs
touchdown
swe
thous
anderson
wash
##cend
chris
protest
islands
jackson
houses
question
pennsylvania
ram
rate
##rovers
altern
controvers
prec
accept
doct
sets
governor
entertain
heavily
promotion
opportun
observed
braath
reduced
alex
stadium
47
bol
kak
mol
rough
rights
sir
##ding
heart
parents
northeast
1991
phot
armed
##aha
matches
audience
resulted
symb
theatre
concluded
kakapo
lock
wear
##com
##aped
arts
1992
defence
maxim
appearances
looking
silver
quality
completely
jim
lot
link
sister
stating
bob
managed
peron
appar
carry
minnes
reports
calling
featuring
advant
labor
revealed
envir
vehic
minnesota
3rd
bon
kr
##lict
scr
script
1994
smith
artists
refused
cultural
declared
conditions
separate
candid
gro
om
sac
sav
sales
ton
##rate
##ex
shr
##send
residents
remix
therefore
##ologist
townsend
entr
activity
spirit
channel
rosebery
gh
lie
wave
uns
coming
seasons
specim
dress
famil
naval
walpole
italian
lu
mech
tessa
##awn
##beer
##pts
##ify
##ocr
##overs
amount
finals
formation
actions
colour
instr
expected
efforts
europ
eye
domest
analys
hawai
meyerbeer
44
habit
reign
reform
chronic
sports
##athus
plays
weaken
attention
mainly
respond
activities
words
becomes
emperor
nicole
environ
37
76
mun
yue
##gal
##ican
##ems
shiva
offer
security
winter
1970
fast
sense
##iate
##inal
##aging
##abor
scale
webs
actually
glob
primarily
express
border
ultimately
reinfor
architect
braathens
hors
plant
actress
liber
write
titles
demonst
progress
communic
legal
issues
achieved
strugg
struck
practice
cannot
ottoman
casualties
bene
##isl
sust
##ovic
recomm
manuf
grass
finkel
job
accepted
johnson
legisl
viewers
authority
survey
hait
excav
tournament
manufact
finkelstein
51
core
categ
fully
lis
nest
roles
tree
##onents
neigh
clim
weather
charl
musc
workers
alongside
elev
authorities
illust
flooding
rainfall
domestic
48
lb
push
##ils
alone
spread
advert
elected
broken
termin
background
owned
types
antimony
illino
hotel
independence
newspaper
entertainment
cab
dang
fair
jul
males
nes
sr
tan
##enue
inches
##anes
##ado
##aven
##essor
perman
181
inters
foundation
1986
concent
distinct
150
standing
expressed
khan
vietnam
intellig
slightly
folk
34
52
hers
mess
##ny
stra
##ift
prison
spain
clar
twice
##ibility
colony
columb
defensive
##uese
affected
officials
measure
##ceeded
sequence
louis
moment
battery
portuguese
aid
dream
mog
ridge
##oo
##bury
toward
stan
##ulations
computer
contrib
ability
fey
180
showed
letters
##ipped
apart
murder
battles
bishop
ce
pound
rug
tel
tun
tint
wels
zhou
##her
##ented
##road
alle
direction
##ledge
varanas
exped
titled
mechan
tintin
welsh
varanasi
data
nick
overs
##bur
##uk
##ingu
chair
scul
apple
disease
produce
artic
continues
conflict
##apped
planet
says
earliest
journey
encour
individuals
flying
##bitt
angeles
mentioned
##onymous
nesbitt
fat
sides
##hood
##house
andrew
seat
emb
surre
founded
barrow
deliv
historic
resulting
sites
influenced
torped
cerem
financial
torpedo
et
sle
sarn
##aen
##pa
##enant
step
alab
cong
##eller
eva
themes
1990
singing
officially
basis
farm
skin
##while
engineer
odaen
ceres
physical
adopted
dedicated
sarnia
odaenathus
bor
dur
lives
##atives
ash
##emic
##uled
##rial
executive
else
doing
studios
lands
contrast
propos
represented
surrounding
digital
faced
oil
vess
##bird
##hold
##yr
##alty
manchester
relatively
acting
assault
delay
doub
potential
exhib
olympic
dumont
withdraw
thunderbird
maximum
advantage
environment
mogad
cities
ka
wa
##onna
##aly
fred
attended
contain
appeal
18th
campus
tried
organized
females
narrow
losing
hyd
transferred
scholars
admir
illinois
dog
lib
wed
##hel
##osen
proved
spot
drive
1988
effort
capture
freeway
meanwhile
sources
beyond
wilhel
piece
unlike
incorpor
jump
##gs
insc
##ires
sha
charge
emph
extr
extra
believe
pattern
require
equip
target
alabama
kg
##iber
##utions
follows
opin
student
older
designated
medical
animal
intensity
possibly
washington
omaha
49
dance
draft
eat
unkn
##adel
shape
##ishu
prime
note
boat
poly
tend
divided
arms
1960s
helms
supporting
solo
historian
paid
simply
institute
determined
fantas
mogadishu
die
hope
kent
##rane
##lied
##hl
##mond
onto
bear
chor
spect
agric
impact
portion
1940
edward
returning
element
kept
function
letter
growing
economic
dissip
couple
camer
entrance
emphas
agricult
65
dv
rare
##bour
##ols
react
neut
##rie
content
images
underground
repe
1980s
corp
behav
argued
innis
archaeological
joseph
dun
md
mouth
rih
sis
##een
##lers
##kare
##ims
feed
flag
depth
grew
suggests
weekly
##where
golden
structures
technology
knowledge
buried
favour
railway
##timore
secretary
mccall
rugby
wilhelm
rihanna
fix
gained
kore
paint
##station
##aine
##ogue
playstation
weak
cook
belong
landing
1964
advanced
mob
causing
reference
criticized
orders
argent
volume
currently
treaty
website
5th
cit
gang
lane
mic
##lies
##atops
##oms
##acement
##ults
##oper
##rian
##istics
compound
containing
guest
jup
reaching
convers
debuted
palest
hamels
baseball
homes
results
horses
equipment
64
bott
eag
les
rar
wit
##lings
##writ
##wide
theory
##edkare
conver
chosen
share
projects
deploy
enemy
1947
restaur
clean
djedkare
ahead
bull
luc
##rative
##cing
##sen
ingr
##lement
##acts
rejected
beaut
lew
##asty
granted
newly
consecutive
miner
column
leader
importance
claims
label
torres
cases
escape
seems
baltimore
property
abandoned
prominent
dismiss
analysis
sculpt
unknown
sor
vic
##wise
##iations
##enge
inch
##oud
##umes
##prise
visited
democr
commonly
encoun
increasingly
settlement
multiple
jupiter
hib
outer
rid
##rid
##tv
##stone
deities
lege
##ella
coal
defend
broke
1941
passing
##white
condition
chapter
faith
scottish
breeding
administration
crazy
wounded
molec
applewhite
legend
haven
pine
rise
tact
##orter
##use
shel
adj
regions
mind
##phia
seconds
secondary
creation
distrib
systems
##ancy
promoted
killing
request
volun
identified
nominated
senior
risk
##adelphia
bbc
din
dar
iv
selling
##ris
##met
thing
##edar
##att
unique
##iven
##igan
frag
anonymous
height
train
spl
##iana
aired
120
1989
famous
visual
religion
egyptian
literature
francis
53
9th
pag
save
##uous
stations
##ills
##astic
fired
nothing
1985
operated
1970s
avoid
opposed
growth
animals
agreement
strike
chapel
premier
temperature
fantasy
4th
cells
greek
##ugh
##illa
boats
serve
filmed
writes
defin
drama
1984
1972
youth
explained
ideas
problem
snow
choice
truth
poetry
croatia
confirmed
dvd
cust
cub
rod
##mes
##mosph
##ety
atmosph
##osoph
excl
try
trou
trust
adult
interchange
consisted
register
invasion
1987
glass
controlled
mike
philosoph
regarded
cougar
weapons
herself
55
bc
fame
jon
##hed
reaction
notable
##ached
actors
repair
towns
gives
swed
battalions
philadelphia
cardiff
pieces
aspects
families
math
oh
##icient
##rect
##ros
stock
##otes
reserv
joint
highl
maintained
landfall
1944
keats
ode
pitched
dutch
rapidly
600
ib
none
sens
vert
##yc
##ero
##odon
extend
##istry
gray
resemb
carl
southwest
retired
phase
steve
km2
roads
extensive
versions
fung
speak
biograph
subsequent
urban
failure
dropped
seventh
crowd
sustained
43
bru
gain
gulf
hms
kings
rit
tell
##dh
##bon
##hroom
##ano
andy
##stream
##ura
##urb
congress
chains
##umber
maria
weight
bright
##rick
mushroom
filming
1990s
southeast
transit
slam
passes
finding
connected
significantly
virt
creating
recognized
premi
italy
injury
prepared
straight
fash
sought
##nest
##bre
##haps
##mun
why
chose
##ighth
plum
abu
perhaps
cool
emotion
bats
supply
concer
1960
province
publication
value
walls
matter
penins
memorial
semi
scheduled
necessary
46
56
catch
drop
ec
eth
kar
mig
##ena
unus
##theless
comic
send
##ieval
recently
flank
starts
monument
max
americans
laid
medieval
raid
belief
champion
popularity
producers
jeff
surrender
bell
dated
fought
hart
wish
wolf
##isation
##rete
stones
reun
orch
##ordin
grant
imper
indu
##izing
distingu
humans
basket
calc
nucleus
employed
gradually
synth
lieut
bost
motion
nathan
rating
rival
##more
##isy
fresh
consequ
##ulate
comes
reconst
contained
applic
ends
##amese
protection
myth
trial
facilities
michigan
regarding
vietnamese
frequently
##eastern
powers
budget
cambod
thunderbirds
700
cited
ice
igu
rub
##lines
##yan
##vin
##inity
##iced
trail
contributed
worldwide
severe
generation
1942
17th
serving
collected
allows
household
convention
finds
treatment
negative
athletes
martin
gradu
oxford
intelligence
bottom
peninsula
41
cin
dial
dani
naz
ring
##uff
##jo
thin
##onent
##itable
##aming
##irt
##olved
altar
shaped
sund
neither
arc
exec
attorn
join
minim
dram
pho
crash
entirely
improved
commissioned
safety
constitution
policy
degree
lieutenant
attorney
gas
gord
vul
vice
##lam
##iday
shell
sud
##illo
gram
muslim
1981
concrete
depend
1950s
130
1918
turner
priest
williams
losses
honor
simple
slowly
mortal
dynasty
pilot
kilometres
lewis
57
ai
dry
egg
lov
##aust
##lusion
##iro
leon
mario
canal
decade
crus
expanded
effective
1939
programs
drawn
criticism
electric
reasons
russian
lisa
expedition
chorus
boston
800
bit
bern
fellow
nba
tail
##kin
##bl
##ych
##yson
##mission
##rey
##thur
stages
##iring
##iments
items
seg
evita
##ansas
upd
centuries
parall
wars
pope
12th
179
1965
1969
evening
##apping
laws
surviv
championships
earthqu
eyes
macle
occasionally
roughly
volunte
fashion
bes
dw
dates
dota
ps
##ez
chel
plate
##berg
allied
cooper
decades
floor
1975
editor
##ancing
additionally
authors
sentence
speaking
massive
successfully
conduct
girls
normal
negot
violence
fictional
occupied
astron
experienced
europium
aston
bh
eld
gully
jurch
mand
rac
rivers
wides
##ads
frame
conce
firm
incident
boise
aml
cole
engaged
quite
portra
1968
didn
##resp
deaths
patrol
dollar
purchased
libr
gordon
54
drew
hell
jain
kir
ni
ron
rome
tall
##ees
##icipal
##eck
contact
prefer
remn
setting
churches
juan
passeng
avenue
declined
turk
begun
platform
learned
tennyson
briefly
jamal
challeng
municipal
category
permanent
khanh
wedding
73
bart
cart
gross
hin
nc
sector
zone
##ek
##fl
##erted
##icks
store
isab
##sea
worth
applied
guide
adding
164
protagon
brian
princip
composition
motor
purpose
terror
exclus
imperial
96
95
hired
jos
kits
nich
##iences
##esis
##aria
##lyss
##lywood
alf
##ersey
adap
adapt
##oked
marine
liu
acres
elimin
moves
simon
1974
crime
##azz
greg
arrival
organiz
planning
basin
fields
billion
experiment
wrest
exception
possibility
participated
settlers
accompanied
disappear
enjoyed
thirty
conservation
sweet
unsu
responded
paintings
micro
97
fan
gab
kang
mist
##ror
##eals
##iqu
##set
##asure
##acu
heard
##apes
marl
##izes
formula
soft
brothers
simone
longest
performing
developing
oldest
177
##anny
1966
owners
heads
stret
solid
industrial
happy
##borough
dublin
iguan
fal
loy
rot
sie
sail
wick
##oir
##pread
##iled
ones
##ayer
##erse
reserve
marsh
goes
flu
flat
accident
consists
wins
1950
justice
reviewers
typical
younger
speech
combination
dominated
existence
holy
literary
anthony
lasted
chemical
thousands
earthquake
macleod
widespread
61
fuel
hip
mu
ros
ulyss
##ta
##he
##fit
##fort
stal
isol
chance
arsen
##ocated
interior
charter
guy
calls
populations
##ccessful
steph
anything
missing
1952
1936
1919
details
clubs
routes
initi
everything
competitions
mountains
coastal
dougl
funding
cardinal
closely
braz
stopped
existing
painting
weakened
unsuccessful
ulysses
62
ari
bin
caught
fount
map
tells
vision
##come
##isers
tot
##elet
##adow
##otyp
cham
##usal
lear
spons
enl
##ips
roof
usa
##ffman
decre
submar
capable
##oys
1946
110
provides
serves
greatly
grey
reality
similarly
freed
##shire
engineering
creator
derived
economy
assistant
transportation
attract
opportunity
ceremony
85
bought
gil
hind
jazz
tas
task
wis
witch
##eda
albert
##opes
##istan
descend
carib
brid
soul
noisy
brook
supposed
phill
belt
invited
receiving
1967
1973
headed
magic
1930s
turning
moon
storyline
technical
holding
innings
##bean
neck
rolling
pupp
filled
vehicles
dissipated
orchest
sunday
turkish
caribbean
6th
cry
jersey
lic
mine
sap
ye
##rum
##don
##sw
##pass
##lete
recre
grade
resident
interact
monarch
door
receive
describing
1971
stew
classic
classified
1930
1914
ways
courts
viewed
survived
affair
hills
colonel
hornung
instrument
battleship
douglas
71
aim
jes
kenn
ml
mtv
pack
rural
von
##rig
##rence
##win
##hu
##ato
inner
##ompl
##amy
asia
##uli
shared
##unk
trying
abb
grav
perry
evil
bron
flights
accompl
assass
acid
whereas
locations
1945
downlo
destiny
georg
palace
reading
falls
railroad
alien
constantine
acquired
boliv
symbol
repeated
restaurant
hibari
iguanodon
cd
es
fine
kur
qedar
sin
##ridge
##laim
##hire
##entially
supre
##aked
##iston
boys
##pty
evacu
maeda
160
1982
depict
depicted
1976
expos
stev
entry
demand
entering
romani
regional
electronic
engineers
colonial
rules
focused
teaching
principal
establishment
watched
substant
arranged
oslo
succeeded
opinion
eagle
converted
atmosphere
library
59
72
8th
jones
mir
rio
sort
sara
##can
##acity
##utz
##utation
franch
exact
exerc
resist
##rupt
agent
partners
decline
attached
knew
##issance
address
1943
providing
barb
lover
township
corresp
moz
##ographic
prize
technique
poems
honour
cruiser
assistance
credited
opposition
rhyth
rescue
article
frederic
daniel
astronom
correspond
bath
dock
dating
eighth
han
hang
hits
il
mut
merc
poll
tied
##eed
##ela
##ette
lev
spacing
resour
##okes
desire
outstanding
pregn
charts
supplies
10th
novels
175
112
evergl
1916
deter
explos
professor
georgian
declar
holds
penalty
rebu
separated
renamed
venus
banks
examples
methods
haiti
delivered
rarely
cinem
chelsea
hindu
adapted
everglades
gate
hyp
jay
kit
lenn
mul
table
##jam
##isf
##estone
##agre
allah
amate
prey
secure
joy
remar
defined
1980
1963
crimin
commanded
camps
protect
classes
250
morrison
communist
certified
colonies
indicate
remainder
immig
puzz
consisting
utc
alexander
split
basketball
phoen
sudden
brazil
stevens
77
81
94
cav
dru
pav
tests
##cle
##zac
##asc
##outs
##rel
##anda
plun
##athers
gameplay
accounts
regime
mah
##ologists
16th
reception
1978
expans
1956
1953
australians
protected
turns
politics
facing
occurs
discovery
inspir
specifically
threatened
athletic
montana
uncle
columbia
chairman
siege
cul
dan
ech
pup
ta
##rang
##rons
##iot
##bled
##jillo
##itan
##aments
online
##apers
##ighter
leaves
##iance
undert
divine
appearing
leads
11th
successor
views
walter
statement
wooden
introduction
civilian
producing
appoint
denied
hollywood
feeling
feelings
maryland
trujillo
##aska
hearts
favorite
croatian
shooting
portrayed
romantic
masters
charlie
citiz
fountain
kel
##ture
##bles
##body
##ule
##ya
unf
##ilton
##adh
alan
##usc
##agues
##rier
arthur
lee
##sey
recru
worst
intention
roxas
flash
acts
consc
warri
##issipp
soil
reputation
studied
maintain
176
discip
moder
mississipp
1913
1915
reviewer
basic
seeing
getting
memory
archaeology
tomb
samuel
lords
finishing
rifles
picture
alternative
message
agricultural
dismissed
supreme
mississippi
7th
rand
##kn
unn
##rec
anzac
##ules
##oses
print
noting
worship
interested
attributed
knots
howard
capacity
strand
strateg
depos
steel
passage
opponents
replace
activision
labour
connection
scientific
drawing
##riptions
discussed
rangers
dinosaur
custom
66
69
98
ble
cens
dna
danny
nbc
session
vary
##eu
##ni
##oz
##town
##taining
##uan
##ati
inland
##ador
exchange
##ardo
offers
charges
warm
eliz
continuing
stef
1917
communities
personnel
calvert
##oba
##iece
homer
predec
biography
wrong
ruled
holiday
bradford
challenge
specimens
habitat
global
isabella
plunket
jac
ty
yank
##ruli
##ike
##kins
##ha
##han
##mans
theater
##itors
##ading
forests
anton
chess
proh
##ripts
##iful
plain
##ube
someone
##phy
divisions
instruct
signing
plants
enterprise
standards
changing
involvement
equal
difficulty
tribes
duke
towers
hugh
dollars
scholar
ninth
guardian
considerable
adventure
##works
dangerous
emotional
kitsune
arsenal
bolivar
yankovic
cos
gri
mode
taught
##egr
##gency
##jev
##orters
##itage
##elve
##ivity
##ighted
##ifying
exit
heritage
twelve
marc
offense
indig
##kson
##graded
##ocked
landed
1948
1961
brigades
historians
rocky
superior
crossing
faces
sevent
victoria
candidate
clarkson
distribution
ritual
psych
stephen
sarajev
frederick
sarajevo
dod
hem
opt
races
##ients
##born
ther
##erog
##orer
conqu
##ersed
pros
proceed
adults
manner
marks
agency
wealth
secured
accur
transform
description
estate
##ropri
1979
missions
1937
breaking
believes
replacement
destroyers
teacher
wilde
bringing
documentary
picked
somali
bono
ghost
recommended
intersection
fungus
stretch
mozamb
87
cot
da
gone
jif
sections
santa
voy
##rations
##eenth
##mely
##inj
##itled
##ingale
##aser
##idden
##eme
shore
nether
##pping
##berts
roberts
releg
infr
steam
missed
1954
moral
sword
legs
##ivalent
nevertheless
surviving
nightingale
territories
observations
nomination
jerusal
concerns
leadership
skye
extremely
windows
photograph
learning
amateur
jifna
jerusalem
ba
bure
cory
gather
kat
lad
sell
tank
##aire
##och
##water
##eds
##rected
##uma
tra
tries
spin
clay
cloud
marines
parties
partial
brand
pole
##wealth
##ultane
teeth
joe
consum
simps
simultane
showing
distributed
detailed
correct
demol
commonwealth
listen
hamilton
approached
rooms
academic
multi
substit
surrounded
autom
absor
emerged
rifle
ratings
diameter
extreme
controversy
encouraged
##ranean
argentina
francisco
organizations
chamber
simpsons
dim
giant
lamb
nas
option
page
rum
sang
sons
wants
##rab
##oint
##ici
##acent
sty
stem
##imet
##eman
##avia
existed
##istol
cloth
adams
carter
1949
1977
campb
1955
1958
1951
characteristics
classical
myc
##awa
heaven
crossed
brien
suffering
attempting
relationships
regularly
talk
banai
immediate
hoped
olympics
arrangement
watershed
apparent
lbw
admiral
witness
unusual
isolated
3d
79
ax
hoc
hud
ori
ryan
sessions
util
wy
yan
##hi
##asions
##elle
##entions
##ider
##ays
##emia
##abeth
herge
firing
adam
admitted
relative
indeed
songwrit
pointed
assumed
counties
121
annivers
gerard
owner
##ructure
13th
protests
verse
visible
possession
footage
strongly
treated
veget
##ombat
identity
sequel
institutions
triple
hundreds
parallel
initiative
franchise
lennon
anniversary
bce
craft
ecc
mis
nap
sad
ts
tales
##gas
##mark
##fri
##inn
##inals
##rets
##oting
shop
##ava
##umst
##ctions
orn
roger
aged
goffman
fled
blocks
winner
retire
airline
armor
1983
confron
detail
approved
streets
easily
##ugu
references
circumst
improve
languages
indicated
norman
ancest
kilmer
duties
concerned
attracted
dynam
gallery
janeiro
wearing
tunnel
hydro
camera
fixed
concerts
reunion
eggs
crusad
protagonist
freedom
saprang
dip
lap
rated
tig
tie
##de
##orous
##ala
##oming
reag
reconna
##pton
serial
pool
blow
accused
genre
ministry
ackn
retreat
imposs
willing
musicians
designation
collect
archb
videos
godd
mole
trials
1920
convoy
lawton
debate
looked
falling
##ipping
recognition
practices
composer
effectively
richardson
traveled
completion
jean
settled
publishing
somalia
specimen
terminus
cabin
doubt
incorporated
korean
adjacent
reconstruction
portrait
remnants
download
georgia
resources
reconnaissance
acknow
91
99
kombat
lanc
sid
vent
wings
##gie
##yon
##ona
alg
aniston
heat
shakes
shots
orbit
leuk
recalled
##iants
afterwards
partly
meets
preced
decor
earl
somewh
starling
driving
operating
obtained
medal
##aws
solar
stands
rhodes
pitcher
ruler
institution
seemed
painted
purchase
cambridge
pleasure
recovered
dramatic
expansion
somewhat
88
fern
pion
pure
tone
wond
##cia
##ports
##zer
##anz
##isis
##iles
##cher
fraser
anek
shif
##aints
prerog
spend
spaces
##ogen
mega
carbon
web
poland
implement
transition
122
crisis
germans
1935
1931
1910
aviation
internal
keamy
destruction
victims
bush
harv
convin
representing
cycle
researchers
meetings
funds
hosted
measures
queens
reduce
normally
inhabit
choir
garcia
linked
owen
doctor
##break
caval
inspiration
pupils
prohib
bos
cake
fel
hat
wic
##ooth
##err
##aling
##itals
sher
dean
##abled
income
grace
aggress
displ
overwh
cob
flo
parish
parks
forming
mayor
defended
generals
armour
artific
johnston
##ropol
expensive
persp
attacking
medium
1932
1912
##tendo
trading
crosses
covering
destroyer
equipped
1909
ceratops
circulation
strip
hunting
stayed
##going
judge
nintendo
opposite
cancer
controversial
vessel
sisters
compounds
distinguished
bridges
puppet
jesus
rhythm
plunketts
goddess
overwhel
63
93
fia
tick
tailed
voted
wim
##rest
##wich
##how
##pear
inau
##oul
##icts
alph
islam
1900
##avada
proport
##allow
##achus
##raf
ages
disaster
otherwise
accomm
embar
subs
##eera
waterfall
restoration
eleven
patrick
promote
1921
1929
##inking
lawrence
lowest
programme
insur
rebels
renew
responsibility
junior
throwing
legislation
pushed
elsewhere
beautiful
sculpture
elder
passengers
marlborough
##bledon
hockey
shakespear
wimbledon
inaug
accommod
shakespeare
citing
gates
wine
##no
##nell
##dal
##yard
##6th
##atures
##any
##itated
##thosaurus
##eton
##ivals
comments
##umps
##oven
conte
mans
manusc
fei
##oking
desert
##anger
interaction
acclaim
understand
monuments
retained
162
directors
objects
advis
occasions
raise
1938
collabor
arrested
1911
internet
##ews
patron
walk
involving
palmy
equivalent
praise
difficulties
tribute
intensified
arabic
panel
absol
exhaust
essential
carrying
fatal
vessels
mobile
batsman
cambodia
criminal
elizabeth
stefani
netherlands
corythosaurus
impossible
82
bert
boss
cave
cbs
covers
dag
gw
ira
oak
pir
pip
pink
si
sulf
##iary
##cement
##tw
##attered
##aren
##adu
##olay
##terbury
answ
##uls
sees
spr
notably
recur
integr
canterbury
recordings
understanding
ell
reveals
defences
preserved
supporters
metall
1962
helmet
returns
mediter
collaps
confeder
geoff
##ception
streak
periods
villages
defeating
limit
burning
needs
voiced
narrative
selection
veron
committed
satur
observatory
princess
pitman
diamond
doctr
saved
stanley
overseas
palestine
biographer
ethn
survivors
preferred
citizens
prerogative
artificial
mediterranean
07
dc
eric
fold
mant
sed
tale
##rant
##ns
##ias
##iable
##ping
##mel
thro
##ingly
##illy
##etime
ready
##imate
##using
shut
shipping
##illing
##aboration
##uda
##elli
usd
agree
canyon
flower
charity
formally
warning
followers
elabor
transc
161
slide
considers
1959
##ahl
storms
collaboration
latex
##aware
refers
suggesting
represents
representative
criticised
doesn
fallen
atlanta
closer
satisf
platoon
diag
##ometric
visitors
products
colorado
journalist
aerith
thousand
apparently
sleep
congreg
proposal
behavior
deployed
democratic
dialogue
phillies
resistance
bureau
fernand
06
ace
bone
bapt
cec
cem
fate
gi
gib
hull
mental
nom
ust
##tado
##bie
##graf
##sch
##ym
##vis
##arf
##stood
##etery
##agu
deem
##essive
##apy
amino
##rupted
##ffles
param
##ribed
remember
thereaf
surpr
divor
musician
166
depending
##annah
crush
##roll
raffles
furtado
extent
universal
1920s
convection
skull
jackrab
horiz
markgraf
stationed
tribut
temples
dominican
poorly
ranges
catech
displays
absence
ensure
moments
ambass
imagine
drums
sharp
##coming
laboratory
vehicle
sacred
climate
nickn
behavi
exposure
##inje
archbishop
context
cemetery
thereafter
05
74
diet
gust
lith
lose
lists
mam
nhl
sale
saves
tong
u2
ward
##ram
##eper
##iar
##vada
##fare
##za
##zen
##ola
alter
sholay
##umin
##odies
intense
appropri
coins
attrib
teen
throne
1940s
15th
113
expand
annually
useful
models
modified
##ullen
avo
extension
entitled
causes
posted
##encies
influential
fifa
verte
mexican
talking
situated
housing
injuries
withdrew
corner
purposes
productions
publisher
aware
##worth
garden
opportunities
krak
spiritual
communications
muscaria
advertising
##burg
environmental
trouble
reservoir
##iques
submarine
infrast
simultaneously
dipl
saturday
baker
cater
dens
fing
hi
hok
hob
jenn
nur
nurs
rates
tight
##rates
##rator
##cements
##vements
andre
##isms
##icop
##real
stable
##otic
seas
orb
plane
##aka
spoke
clock
manga
ammun
ago
norway
actual
##mann
engines
cape
driver
driven
severely
generated
originated
installed
helicop
blacks
easy
historically
supern
representatives
influences
burned
readers
networks
matt
informed
##garian
materials
republican
happened
watching
credits
israeli
caes
excavation
grammy
circumstances
ammunition
900
bore
hamp
mail
pier
##la
##vn
##vati
##onom
##ester
##organ
##elin
##eland
##ilst
forb
whilst
frig
anime
shark
shells
##ishment
##ables
##ears
##antavada
twin
relie
partially
carp
carved
weigh
deck
interests
parvati
format
tex
remark
starlings
movements
subspec
operate
stead
barker
lob
anyone
restrict
victories
switch
1928
sugar
everyone
survive
##shore
grounds
factors
mixture
merch
audio
biggest
inher
wilson
athletics
robin
portugal
emergency
bombard
adventures
instruments
bulls
swedish
nichol
substantial
ille
anekantavada
gwen
ustase
behaviour
subspecies
dawn
gary
kann
pull
ports
sic
##lec
##ook
##pret
##ician
##eline
wasn
##acle
forty
##etts
asc
##igation
##andoba
shear
suic
degr
##aku
spores
enfor
abund
resigned
marry
agents
##teenth
##ricted
interpret
formal
howe
writings
phr
123
instance
disturb
downtown
loan
persu
raf
restored
glad
deliver
patty
amongst
1927
hurricanes
radiation
compete
propag
richmond
looks
fifteen
massachus
techniques
sung
predators
innov
departure
sequences
khandoba
interesting
establishing
garrison
thinking
layer
bearing
corporation
premiered
plateau
stewart
veronica
kannada
massachusetts
89
cu
dele
eu
gle
jr
lam
pale
rising
yug
##life
##western
##kh
##har
##erry
##esco
##atus
##itt
##ication
forcing
##ithic
##chang
##osl
##aga
prol
prove
##rif
price
##oster
twins
residence
resolution
commem
marque
##kend
paras
sole
armored
miller
continental
loose
##ucing
weekend
maggie
1933
myst
midge
sounds
ordin
scientists
predomin
wright
recognised
salv
achieve
inhg
##itzer
experiences
recovery
reinforcements
struggle
neighbor
illustrated
eaton
pagan
application
minimum
jurchen
terrorist
affairs
mulder
phoenix
moderate
mozambique
yanke
##friend
acknowled
catechism
deleg
yugosl
marquez
68
caves
mbar
nad
rect
sar
sight
vast
wet
wag
wives
##cy
##ja
##ora
##rell
##amer
##uri
##uses
##osa
##osom
##ishing
trained
##antly
##iped
contest
scully
resign
cars
poison
engage
starred
scheme
drain
founder
obst
depicts
barry
westward
designs
1957
##onto
universe
christoph
kevin
harsh
skelet
formerly
cleared
funer
federation
toronto
sufficient
creative
archaeologist
costs
simpson
documents
huge
boxing
russia
objective
revolutionary
weapon
pictures
tanks
delayed
tactics
coleman
gilbert
remarked
cotton
hudson
convinced
67
benn
bald
celt
fro
gor
giants
kid
kim
kansas
mood
osc
pig
ride
rib
sans
tu
tide
va
vote
wel
yo
zomb
zoo
##right
##bing
##uable
##eratops
##esc
unp
##asts
##owiec
frust
##akota
trick
spur
herald
incomp
abd
perce
roth
feathers
partner
impl
brick
coff
decides
blues
regiments
crops
metropol
##atherine
designer
passion
raaf
childhood
arriving
140
differences
moore
harm
valuable
opponent
skills
claiming
frelim
21st
draf
hamlet
factory
turb
burial
audiences
striking
fundament
closest
clearly
ranging
occupation
martial
duty
displayed
battlec
determine
impressed
graphics
communication
benefit
excavations
mechanical
inscription
cubs
wrestling
##heim
wisni
cryst
predecessor
styles
wonder
cavalry
wicca
mamm
infrastructure
hokies
texts
oscar
##owiecki
frelimo
battlecru
wisniowiecki
84
bang
tiss
##rating
##eit
##kes
##bn
##mouth
theor
##enz
##aled
toll
##oux
##rees
##iling
##rot
##roit
render
isbn
chanc
##ulted
shadow
##osis
##iform
plus
##ategy
enth
clin
commons
margin
cargo
centers
attained
jobs
##amps
reprodu
defending
surg
strategy
teamm
install
163
describe
crake
offices
considering
magdal
characterized
arrive
restricted
detroit
promised
prompted
harbour
expert
peters
argues
elections
turks
select
ranking
machines
measured
err
quarterback
properties
loud
mrs
newspapers
badly
imprison
magnitude
aspect
victorian
degrees
protestant
grown
alleged
waiting
philosophy
jonathan
updated
exclusively
residential
kelly
voyage
perspective
ambassador
diplom
58
78
bones
erected
mitch
tenth
uef
vac
##rich
##rants
##lie
##oe
##boy
##put
##piece
##alu
##icit
##thy
##state
aside
##owa
chag
deity
##ishn
##abil
enh
clark
boom
allen
resumed
amounts
roots
playoff
outbreak
pret
interpre
earn
charged
warren
northward
northeastern
surge
##ifications
divers
artwork
178
variation
##yline
explains
valky
handled
1926
furthermore
presentation
tourist
bands
heroes
fifty
1905
temporary
ruling
cruise
strengthened
injured
preparation
personality
malley
analy
anthem
frequent
batteries
celebrated
magnetic
boundary
bulk
globe
architecture
liberal
leslie
##iveness
mathews
highlight
brooks
cinema
drug
deemed
uefa
chagas
valkyria
ah
banned
cov
code
dave
jet
lies
mcl
ns
nash
pap
tack
zinc
##night
##uge
##vant
##eries
##lets
stores
##olen
rend
##emies
chain
depr
##illed
##ifies
exists
##akum
enters
abby
scattered
amid
relation
brill
upset
decay
paraly
peach
peaking
emmy
revival
southeastern
supplement
millenn
artistic
165
metre
landings
##elsen
exposed
persian
magadh
publications
difference
triang
refuge
patri
1925
seek
referring
##aurus
trek
jackets
highways
##book
structural
turrets
circle
condem
dominant
talent
testing
prevented
schedule
cheval
pursue
chronicles
demonstrated
manufactur
distinctive
executed
dwarf
nielsen
adaptation
disappeared
##otype
substitute
pioneer
inhabitants
proportion
bertin
ethnic
nurse
paralymp
magadheera
08
86
aster
bible
bind
dies
esh
hou
holl
icon
ky
kong
sab
##nal
##noon
##ka
##tles
##burn
##gro
##gers
##gov
##icia
##reh
##ecraft
stood
forg
altered
shield
comics
##agement
sure
nebr
##apse
ark
herze
afternoon
fee
feels
##okovic
##ignment
coin
##weight
assisted
consult
liked
buy
acre
subjects
smooth
runway
##ertain
sixteen
edges
expect
commandos
possess
demands
approval
##scop
basement
harold
valve
1924
initiated
trend
profile
davis
sunk
magazines
jews
satell
indicating
crews
uncertain
djokovic
settlements
tournaments
investigation
buddh
suspended
succeed
pounds
defenders
definition
premiere
alfred
false
warrior
suicide
commemor
yankees
houston
##govina
nebraska
herzegovina
03
cant
cous
dor
dual
denn
gill
gift
ken
ndh
rag
sb
sas
tast
ww
wu
##ois
##tav
##greg
##yce
##inery
##inder
##isters
toured
##ilation
##ilty
stu
congo
anch
chron
##unction
##ifer
pryce
##sex
##ellar
recip
weir
prep
prefect
paran
genetic
##endar
guilty
laugh
string
origins
belg
conclusion
receives
deput
##fully
reducing
respective
##aham
1934
organisation
deliber
explo
swiss
realized
1000
requested
anglo
walking
##encing
1908
reader
trophy
philip
1890
tempor
colleagues
berlin
rebell
hostile
madison
violent
murray
certainly
keeping
adopt
melody
conservative
translation
recommend
advertis
##burgh
delivery
inscriptions
eliminated
orchestra
kurt
rebuilt
##borne
retirement
iraq
celtic
pretty
02
92
bom
dakota
gets
lud
pf
riding
tip
yield
##ressed
##aver
##oes
##ware
##cake
##kon
##gars
##hang
##ses
##vious
uniform
ontar
wasp
##adier
stav
strict
##lying
asian
asks
chest
##odr
##essee
tracy
enzy
complic
components
clint
boot
abc
abol
amaz
mariana
evans
impression
charm
noble
consp
underne
releases
##ologies
101
operates
obvious
runners
155
anne
helium
conflic
eleph
visiting
organised
harrison
sentences
shoulder
rounds
madrid
employees
venues
potentially
chicks
cougars
autumn
tennessee
intellect
benjam
hawaiian
architectural
measurements
withdrawal
feeding
molecules
mathem
assassination
partnership
culmin
collapsed
elaborate
diagn
paramount
carpent
wagner
chevaliers
ontario
underneath
benjamin
dict
gent
gamb
lakes
linc
lanes
omar
oreg
pace
wander
##rad
##rus
##eor
##inum
##inian
##atropical
##arted
##anag
##aski
##reet
##acecraft
sting
asking
##oln
##ulu
suitable
spar
spacecraft
##arte
clust
usage
##ogy
disband
offs
carre
canon
coordin
earning
parade
parody
assess
remove
starring
acute
acids
armament
##ieties
meteor
peoples
##ernon
dams
advancing
##ucks
##ontin
14th
corb
believing
kills
sentiment
youngest
ordering
seeking
programming
putting
voices
circuit
animation
ruth
wrapped
wider
renov
inhab
platinum
theatrical
drove
boundaries
documented
bidd
rhyme
comparison
translated
compliment
pulaski
hawaii
neighbour
contribution
borough
extratropical
columns
##imetres
queensland
doctrine
propaganda
christopher
brilliant
eshmun
lincoln
oregon
09
bou
cass
fasc
gap
hans
jason
ped
sample
##dney
##bal
##hol
##mus
##vised
##onia
infer
topped
##acru
forth
##iders
bears
isot
chase
##odore
prosp
neil
##apore
expression
leigh
spending
notice
##iney
inclusion
scar
##raia
disagre
carmel
overl
##osex
##kshire
##graph
produces
revised
presby
submitted
airlines
singapore
continu
signs
completing
christine
##rene
demon
explain
bases
prompt
1923
personally
friendly
romanian
africaine
factor
woodhouse
industries
devotion
matth
rhys
veracru
biological
territorial
innoc
honorary
keys
parliamentary
wildlife
fishing
semif
removal
questions
birthday
dispute
favorable
ultimate
powered
reflected
louisiana
telugu
sisler
ingres
beauty
sorraia
encountered
molecular
pagod
vertical
segment
negotiations
battleships
gravity
suddenly
islamic
surgery
millennium
satellite
prepare
belgium
temporarily
presbyter
veracruz
aa
cash
cullen
foss
fulf
hay
hidden
jard
jury
lights
mg
nl
nu
nic
nave
rav
sack
sant
sony
sailed
soph
ump
##ract
##oom
##went
##krit
##gam
##gets
##hm
##xic
##nda
##atural
##arian
##itively
##icate
##omtav
##eled
##urally
asomtav
##tering
##uting
atom
shorter
##esswell
neves
##udes
grave
goat
sheff
brain
brack
upgraded
coinc
##enses
charted
joining
underwent
liqu
symp
phen
armies
mainland
meters
signal
likewise
couldn
crab
cresswell
ideal
collapse
##inaw
universities
swim
valid
1922
traded
briggs
casting
radical
representation
ballad
volumes
commenting
memories
approaches
escort
choose
ernest
discussion
assembled
bodyline
ninet
punt
administrative
objectives
fitted
shares
pulled
shrine
766th
struggled
prisoners
steps
emphasis
neutral
korea
sculptures
wishes
consequently
strategic
demolished
cabinet
illegal
degrom
phrase
sanskrit
fundamental
clinton
jardine
asomtavruli
nevesinje
sheffield
az
dad
ders
dud
dust
fis
ian
jur
kiss
liv
nam
pp
pic
pec
pages
racing
sect
sult
sings
tony
##nc
##nels
##kely
##hem
thor
threw
##orable
##anita
##inge
##acre
##acles
##etown
##ira
##ivated
beth
beings
beats
##vereign
##estyle
shift
##agogue
suit
arvn
##ieth
abilities
allies
resol
amanita
aggreg
finale
carries
brut
pref
flies
pohl
sovereign
##phoon
##enden
subt
guerr
drivers
quant
mainstream
developers
obl
##atched
170
provinc
westmin
advice
idah
classification
reviewed
eventual
controller
keith
easter
switzer
prix
lesser
profit
facility
presidential
connect
electron
nettles
merely
achievement
snake
360
daughters
synagogue
temperatures
credit
percentage
logic
pilots
unlikely
chronicle
danger
agriculture
corpus
argentine
conversation
sweden
kirk
rotation
abbey
accomplish
appointment
unnamed
jacob
typhoon
campbell
##howitz
sioux
horizon
caesar
pattycake
neighborhood
bennett
enthus
wwf
wanderers
biddenden
dershowitz
dudley
provincial
westminster
idaho
switzerland
83
dahl
fib
gosp
mk
pad
ri
sq
tub
telling
veter
xii
yout
zanz
##rat
##wer
##mont
##father
##atically
##oust
##icial
ongoing
stun
stellar
##olithic
##empl
##otte
chan
##opl
##ishops
preston
enemies
##artney
herd
##iao
scand
gran
##rae
##oko
offering
upr
canning
dece
decisions
indones
##ensions
gene
revol
guid
genera
belgian
backed
117
crest
advoc
commandment
christians
controls
stream
soci
antic
lessing
contrad
helping
speaker
walker
facil
vii
tooth
travelled
excell
devast
duo
measuring
madero
teachers
350
investment
observation
mccartney
sympt
traveling
senator
immort
junction
punishment
aerial
accompanying
lifetime
gardens
sporting
charlotte
elevation
columbus
ceremon
duration
ibis
synthes
nazi
130th
alberta
depicting
pregnancy
clothes
aggressive
fernandez
metropolitan
deputy
conflicts
##music
gospel
youtube
zanzib
cel
fusion
jaw
kate
nel
ok
pyr
rig
tut
tape
vel
##dles
##lus
##cer
##pe
##ji
##inations
##esi
toy
##amil
onwards
reh
##imeter
isle
isesi
shirt
##ager
##riages
printed
trig
trapped
trunk
spots
encl
recall
adela
manor
permission
usher
eve
evolution
disli
offshore
outl
blu
knights
themed
mines
revenue
dover
sydney
##ternal
strange
wells
juven
commands
commanders
raising
myster
bread
restore
trio
harbor
harmon
values
farming
requires
##itarian
statistics
donated
connecting
illness
1902
1907
exclud
matters
1895
hung
##ships
closing
indicates
reduction
1861
preparing
ferry
dubbed
pairs
terrain
policies
searching
gardner
cancelled
tonina
reforms
concentrated
seattle
farmers
patterns
reactions
beliefs
cooperation
aimed
bronze
exactly
census
accurate
##iciently
confront
crusaders
tigers
decorated
armoured
embarked
manuscripts
recurring
nadal
stuart
stavanger
carpenter
##osexual
sympath
phenomen
pyram
adelaide
01
dense
hub
hpa
hnc
jen
jar
kos
lion
lig
pin
pak
rick
rocks
sket
vand
veer
wore
waves
##lock
##ti
##bound
##sis
##ʻi
##inction
inning
toky
##star
stap
fore
whate
##olid
##olia
reop
beating
alive
##otions
chord
##osing
seats
trails
##iang
abroad
scout
alliance
rook
##oken
mars
serbs
apprec
evolved
evalu
##pled
flesh
earnest
poets
consolid
positively
monster
movies
fourteen
retal
maur
preserv
caps
airports
epic
transmission
125
maintaining
backing
operas
steep
chrom
characteristic
myself
detected
reaches
internation
morgan
harry
fewer
membrane
soldier
stronger
strongest
22nd
donald
significance
tenure
broadway
civilians
animated
pitching
lacking
widow
draws
archaeologists
closure
madonna
qualified
antiqu
mccar
compositions
hoover
ranks
watson
twentieth
panzer
angelou
failing
flowers
ensemb
jeremy
withdrawn
thirteen
rushing
pursuit
hawaiʻi
ashore
execution
leonard
volunteers
wickets
witchcraft
determin
hypoth
unclear
cosm
wealthy
wyoming
vegetation
eccl
dynamic
hydrogen
vertex
arkansas
cousin
whatever
cards
gaining
hence
kody
liz
lumber
m3
mack
oz
sib
tag
##equ
##dream
##oard
##ci
##ygen
##power
##jan
##erce
##esters
##isle
##rose
stakes
##oli
fried
conj
chen
##essors
arena
compens
compilation
allosaurus
allmusic
amph
##athered
permitted
commerce
##raid
evident
overlo
intermedi
acted
joh
maya
mint
starter
daydream
acyc
acoust
monkey
retrie
presents
airfield
surprise
singers
phone
numbered
105
168
operational
obtain
landsc
governments
everton
barbar
barrack
successive
idol
protesters
arrest
extinct
increases
christi
mothers
solely
solution
handed
functions
goods
romania
cyt
cyrus
grandfather
affil
summ
occurring
bowling
philipp
identify
machinery
hunt
hungarian
cruisers
cutting
##thodon
negl
coaching
physics
arabs
fertil
oxygen
targets
consistent
seriously
aerodr
precip
candidates
reinforced
opinions
conversion
sora
virtually
loved
jurchens
ownership
pregnant
joyful
relegated
photographs
leukemia
pirates
##schild
appropriate
hampshire
rothschild
interpreted
taste
chrono
gentle
sultan
anticip
acyclic
eg
gael
ioc
kau
mud
na
nut
puma
rains
sized
votes
##rain
##mad
##inth
##enous
##aret
touring
##elg
##ecution
##street
forever
reper
##utch
conform
heir
seized
leeds
trains
recon
abuse
manip
sciences
timber
feud
margar
megal
brun
##ffling
##ensis
attitude
##ilding
engagement
files
understood
sax
revived
retail
guine
guild
laud
wellington
concession
##oyd
infection
depiction
departed
continuous
downstream
114
varied
barrier
helps
confession
gender
capturing
trium
delaware
explicit
bills
tours
telegraph
authorized
defender
sitting
##issioned
fortune
balls
irreg
hamper
announcement
1903
audition
copy
hunter
flooded
derffling
1889
nominations
hospitals
housed
balance
breaks
1849
participate
examination
bradstreet
constitu
utah
kilometers
bedell
blocked
questioned
promotional
savage
habitats
etty
neutr
palestinian
registered
resemble
experimental
tasked
mlb
immigration
puzzles
dinosaurs
indigenous
rhodesian
displaced
subsid
renewed
mantell
divorce
perceived
tissue
stingray
pyramid
gaelic
margaret
irregular
derfflinger
dd
fi
gaming
iowa
mall
mason
nice
nca
wik
yor
zero
##nie
##othing
##pan
##xe
##era
##ori
##orious
##asm
tod
toler
##roph
stim
heb
deer
orange
trond
tristan
component
fires
clothing
manual
manuel
scorer
graves
resur
resid
##ormal
interstate
parent
nob
accum
acceler
warn
##orship
preserve
quiet
##tenance
127
maintenance
distances
edited
succession
raik
confusion
halo
heavier
victim
replied
funny
survival
230
reportedly
flew
horror
vegas
excess
salmon
cruz
linear
arrangements
reflecting
graphic
kickoff
rays
coldrum
comprised
rescued
touchdowns
fastest
haitian
pounder
alleg
skinner
vicinity
ohio
dependent
volunteer
interactions
puzzle
undertaken
absorbed
bosn
tickets
palmyrene
disturbance
mystery
drainage
crystal
dennis
##konen
mathemat
xiii
uprising
tokyo
ecclestone
ncaa
trondheim
raikkonen
bib
cod
dot
dancing
esp
ful
hast
hollow
hannah
jag
kids
mask
ost
pam
pistol
ss
vital
yd
##low
##wan
##cover
##inness
##alf
##thren
stern
##terior
##aya
fru
atop
cha
##ulous
##unes
##arded
trough
clocks
worn
aboard
##achute
relatives
uss
carn
norwe
##ricts
parachute
highland
consent
##alsa
##veland
genu
mini
miners
##phone
drinking
singh
locally
smoke
creutz
concur
metro
districts
174
slayer
##erto
redes
persons
##azer
collections
brethren
refere
exploration
curved
cleveland
behalf
##eltown
radar
angle
coverage
statements
battlefield
arguing
1906
1901
electrical
##ficial
praising
penet
birming
squadrons
denomin
hitting
derby
liner
roller
hearing
tennis
marketing
consistently
opposing
craf
essentially
disappoint
##exp
legislature
borrow
exhibition
wait
extending
bruce
batsmen
sending
rubber
grammar
##blazer
concepts
hellblazer
exclusive
gregory
software
staley
kennedy
loverboy
hughes
restrictions
rebellion
corbet
complimented
matthew
tubes
zanzibar
ensemble
conjunction
barbarian
barracks
norwegian
birmingham
cow
dat
fits
faster
garn
hong
ion
kyle
lind
liao
mit
mature
naked
orib
rice
saving
tested
vig
wake
zagre
##rous
##light
##oh
##iac
##kets
##tic
##yers
##ported
##fast
##zona
thak
##inated
##orage
##arm
tools
##urst
##uration
stick
##olin
##olence
beam
##ched
bypass
shim
##osity
deals
oral
plains
exceed
prest
spawn
enorm
##ourse
compreh
intr
allocated
grain
amyl
users
usual
commenced
marie
marge
serb
apply
sheep
overt
centimetres
decomm
##ensively
##aceous
assum
ministers
##phrey
doyle
subur
quiney
simpl
transported
recept
rede
advised
##rows
heading
persist
justin
extensively
humphrey
courses
tracked
explore
swamp
convict
convey
militia
freakum
competitive
mixing
device
1897
tempo
predicted
chapters
lacked
commissioner
tombs
tommy
##oleon
urania
escaped
christianity
painter
venue
1878
egyptians
dioc
motif
administer
##guard
borders
crickets
reflect
bombing
beaten
essay
owl
##iscus
shrub
europa
manufacturing
neighb
pushing
1819
telesc
requirements
lucas
concerning
cambodian
households
vulcan
loyal
arizona
binh
recreation
kenneth
banksia
conscious
antonio
indigo
nasa
napoleon
reagan
cobra
transcription
hobbs
steadily
funeral
asteroid
intellectual
pagoda
acoustic
retrieved
zagreb
bishops
cott
dick
eating
gay
kw
lon
lor
lumin
mate
ria
sank
vow
yang
##dy
##lot
##oly
##uters
##pani
thai
##arro
unrest
##itely
waste
##lev
##irts
##olis
reward
reines
beak
beeton
item
##char
chi
chop
##andra
comed
proceeded
##aping
##ighters
pled
placing
##ocaust
leaf
##acks
##order
##arya
butter
goth
partington
flot
##ilda
assy
assert
warned
sox
retain
guides
airborne
studying
quoted
169
directing
obsc
johnny
portions
complement
distant
variations
slopes
##ernoot
load
loop
austrian
##aza
magical
archer
corpor
##asha
visits
storylines
villaret
##parts
experts
priests
curt
##obi
navarro
220
261
argument
connections
marking
insects
funded
businesses
approaching
holocaust
1880
talks
1860
minority
murd
happen
autobi
constantly
russell
celebrate
##zzi
ignored
sexuality
expressway
benef
grasses
concentration
scholarship
flagship
fragment
troubles
repairs
ecu
calculated
conventional
vulner
challenging
sponsored
recreational
alphab
inaugural
absolute
exhausted
baptist
cecil
coffee
condemned
kyra
cantrell
advertisements
subtropical
symptoms
vandernoot
hebrew
aub
billy
ds
dri
dying
fab
gam
gathered
lt
lan
lect
mv
mong
naming
pc
roc
sina
torn
tawn
wno
##wick
##bow
##point
##feller
##inces
##atum
unre
unless
##anville
##icians
##stit
##adic
##acelet
stere
stall
##olics
beer
isles
atlet
check
shock
procl
##opp
##rik
##una
##ocy
##udo
spore
clergy
button
manage
graham
amend
desper
finest
##place
bristol
canals
centered
decide
##kefeller
##active
##rible
knocked
noise
undergo
buff
buoys
emotions
larry
speculation
reporter
dozen
surpass
quit
106
slave
edit
shipments
austro
passages
roadway
commanding
raw
humor
tracking
glanville
moist
progressed
explaining
promise
legit
similarities
traditions
replacing
politicians
treas
angry
angles
240
catholics
destroying
##bracelet
devoted
grows
homosexual
sanct
memorable
improvement
salary
ulster
urged
educational
screens
hook
truly
participants
autonom
hoping
flows
franklin
wanting
publishers
investigations
occasional
dedication
imagery
comprom
beds
colours
permanently
intersects
belonging
ganges
fragments
surrendered
graduate
altarpiece
bhair
ronald
sailors
tasks
##hua
repeatedly
qedarites
exercise
deterior
declaration
echo
stretched
consumption
venture
gielg
tributaries
supernatural
teammate
diplomatic
patriarch
charmbracelet
innocent
liquid
nelson
mysterious
yorkshire
borrowed
rockefeller
sinai
tawny
atletico
gielgud
04
bm
cock
cps
dia
fighter
gack
haz
hug
jav
mes
mild
pm
pel
rivals
tort
vib
vint
wol
##rh
##nall
##ded
##kner
##taceous
##htw
##zu
##oral
##atin
##arant
toxic
##ilis
stability
ascend
beau
##chan
##ulkner
shallow
##osy
##agen
nevada
##ifeng
leices
leban
spell
cler
cliff
##usted
adequ
##rah
disrupt
carriage
##angular
indolence
interc
##enson
parrot
knock
warfare
buc
endors
monit
brood
guarant
dressed
opined
mills
cretaceous
##anka
118
provision
sixty
##uedoc
cres
annals
preval
publicly
brenda
turnp
verses
destination
tourism
brigadier
posts
eighteen
statue
guitarist
involves
humanitarian
limits
labyr
travels
travelling
woodland
1904
sufficiently
turkey
languedoc
narrator
1857
estimates
berhtw
faulkner
floods
duet
athlete
dealing
employment
observers
seemingly
symph
threats
screened
links
scenar
substance
montreal
catal
boyfriend
journalists
bradman
kicked
lloyd
perfectly
acceptable
jimmy
tonnes
familiar
ceased
tunnels
articles
kaifeng
jumping
shaft
legends
vertices
fungi
distinguish
minimal
bernard
besides
alfa
wicket
enlar
licens
evacuated
relegation
gathering
dimension
witnesses
axis
songwriter
lancaster
shifted
prohibited
accommodate
jackrabbit
avoided
density
remarkable
bombardment
glee
ordinary
predominantly
rectangular
bombs
complicated
isotopes
sacked
contradict
immortal
maurice
mccarthy
siblings
amphib
intermediate
precipitation
triumph
garnered
enormous
gacko
leicester
labyrinth
berhtwald
aided
cg
dal
ecl
gains
ic
lying
pond
patch
sick
ted
uy
wisc
xbo
yam
##rent
##lane
##iest
##gans
##su
##fly
##ares
##anks
##itary
##inger
tob
##icity
##omura
rejo
comfort
seam
proph
neph
neolithic
##illas
execut
##akim
##oceratops
tran
trench
computers
scots
agar
outd
##ulty
remind
##issions
elgin
releasing
colors
colomb
syad
##onsin
populated
poles
imposed
crop
172
varies
variable
governed
austria
commandments
confidence
corrid
halted
morph
demanded
planes
realised
cameo
everyday
caliber
superman
friendship
walks
wheel
pete
petition
afford
limestone
##ourne
frontier
campaigns
lyrical
commentators
1856
1850
naturally
hunters
hym
improvements
cruc
mcn
cyclones
senate
foxes
learns
focusing
screenplay
awaren
rushed
alternate
sacrif
reformed
weakening
offerings
julian
dreams
spotted
restaurants
encounter
reserves
highlighted
sensitive
extends
inducted
mythology
survivor
dwight
challenges
microscop
gabri
instrumentation
##rigue
astronomers
immigrants
options
therapy
conquest
mansion
collaborated
surprised
helicopter
relieved
robinson
nicholas
gladstone
yugoslavia
deliberately
pfaster
elephant
disbanded
veloc
kosaku
landscape
shimomura
decommissioned
uygh
wisconsin
xbox
awareness
bun
cable
dish
kub
mh
mond
mentions
pse
pok
ric
rape
tai
vs
vist
xook
µm
##lical
##bits
##budo
##gom
##mat
##erver
##ini
unw
##anelli
##itic
##itter
##ouli
##elroy
stabil
ford
alde
isn
atp
hein
##ulating
##agers
orland
plag
pron
pray
pressed
trinity
enabled
##ounced
butt
2000s
adri
intact
boil
##achment
scores
user
playable
##ruption
1800
disgu
imbudo
indoor
##ibly
knee
monaster
speculated
guards
guinness
addressed
divines
diverse
transits
terry
invaded
descent
directions
milk
metric
portable
154
115
vargas
editions
damages
rajam
blackie
extant
##ashire
##aiman
glam
planets
harris
lawyer
associate
observer
competed
##ambo
facade
affect
connects
woods
casem
devin
knows
wallace
1894
predict
copper
1854
1851
processing
estimate
bergen
memoir
templ
silk
dealt
urn
mcelroy
qualifying
rapids
mosque
responses
violation
paying
montfort
montgom
cattle
malays
examined
cadets
puerto
portrayal
comprising
crowds
attending
categories
apartment
exhibited
functional
dissipating
ganganelli
tactical
darwin
##hedruli
nonetheless
rituals
737
gabbar
declaring
pavn
mahesh
blend
transformed
lancashire
sidon
preceding
overwhelming
gusts
reservoirs
nursery
welcome
presbyterian
bracknell
brutal
mkhedruli
guidance
internationally
reconc
guinea
todd
biblical
oribi
auburn
mhalsa
orlando
rajamouli
montgomery
arose
bold
cakes
fed
hab
kle
kitch
katherine
lod
mere
mounts
nose
naut
pt
pill
sag
sull
saints
vishn
wished
zones
##rage
##dale
##inus
##ede
##enburg
unexp
##asters
##reated
##oma
##thetic
##acc
whit
##ivan
rever
bend
alignment
shall
nea
##apolis
external
leagues
##season
##ours
herb
clash
incurs
perception
relay
##irect
finn
finance
imar
brings
coat
decoration
indirect
secular
asserted
thrill
ware
genres
##grometric
elig
batting
revenge
reverse
reversed
monten
strapping
quinn
1200
millions
##veloped
invitation
thoughts
116
provisions
export
barons
advances
humpty
reviewing
marched
organic
swing
realistic
tourists
lightning
skill
lowland
debt
parker
pointing
navigation
positioned
involve
insisted
1898
1891
circular
denmark
recognize
hosts
hygrometric
drawings
intervention
silent
1880s
teachings
commercially
1865
interviewed
situations
discussing
coaches
1832
occupy
1848
ferd
layers
robot
##eases
ambush
impressive
kicking
llosa
raymond
paths
ratio
confirm
pulp
sweep
scratch
liberty
elevated
eleventh
torpedoes
reactor
favourite
weakness
##rosaurus
migration
consequence
nazaire
beside
passenger
platforms
principle
eliminate
marshal
decrease
stewie
accomplished
astronomical
brazilian
random
seventeen
katia
algernon
gibson
rafael
acknowledged
battlecruisers
covenant
mclaren
paranthodon
amazing
inhabited
semifinals
pakistan
retaliation
hampered
prestig
telescope
mvp
diaz
sullivan
vishnu
unexpected
hygrometricus
bag
cats
gig
hatch
kin
kon
mak
mott
maps
nig
nost
tent
ties
##dam
##iors
##ko
##tr
##bourne
##gate
##sky
##pack
##found
##zes
##zhou
thomp
thread
thesis
##inis
##onation
ing
unst
##outed
##ouds
##elago
##the
##stapp
staged
storage
forget
ask
##ivation
##imer
fron
conso
##emen
##oto
anat
anger
##verning
##odium
sean
##unc
##tsburgh
arn
spokes
##ipelago
clouds
abn
gren
relax
newport
newfound
appeals
governing
outfit
centres
coaster
blamed
blind
knight
accus
reminis
filed
elite
winners
eps
founding
opens
phosph
developer
meter
companion
111
crim
discovers
barrel
helm
advocated
##ucky
persisted
arrives
confused
aval
archipelago
##ashi
25th
lasting
progression
antagon
killer
swift
debated
femin
listing
affecting
summit
viadu
davies
##brush
markets
exciting
entirety
1896
rhode
agrees
verd
verstapp
commentary
identical
lacks
rebel
cardinals
costumes
1881
snl
staying
1862
##thodox
venge
##took
judo
interviews
deeply
participation
darkness
contempor
frequency
dispatched
broadcasting
celebration
focuses
bombers
fears
feared
owing
comparing
cheese
vocalist
bobby
bonus
fastra
reinforce
fairly
messages
durham
proposals
exhibit
shaolin
targeted
elementary
cameras
emphasized
belonged
bruins
plumage
karl
wolfpack
graduated
constitutional
crusade
conceived
enlisted
submarines
##donald
abbot
corresponding
mutual
drugs
recruited
warriors
printing
downloadable
thrown
congregation
nicknamed
frigates
merchant
##ipedia
zombie
mitchell
rendition
conspir
meteorological
boulev
thorough
aggregate
jenkins
johann
wikipedia
administered
lorenz
gothic
vulnerable
proclaim
nephew
velocity
thompson
unstable
console
reminiscent
viaduct
verstappen
ak
bent
bould
cease
dent
dors
eug
fus
ia
lions
ment
mold
oval
pear
pose
rna
sri
tiny
tapes
##even
##nn
##nessed
##iating
##case
##tains
##bi
##uct
##ple
##face
##zed
##esy
inver
##asco
##rection
##entine
##thrie
##urg
ster
stro
##eted
##etics
##iri
revel
alco
conven
chances
hears
shaw
proced
proxim
proof
##ichol
exeter
exterior
spy
spelling
##ovil
##ovac
##ordination
##ostere
incred
root
fez
commodore
desired
disabled
carrier
overcome
canons
coined
preh
decis
indies
##izong
flown
poetic
joan
genes
northumber
doors
subjected
subordin
guthrie
popul
167
conclus
nearest
signature
151
commando
euro
janet
courage
glac
possessed
moth
hurt
refuses
explored
monthly
handle
handling
legacy
telephone
suggestion
lessons
debris
contracts
statues
humanity
summar
micha
coastline
palm
arguments
introduces
27th
broadc
##adesh
civilization
traditionally
hotels
1899
ruins
striker
sexually
rounded
##ommun
holes
1882
clearing
strengthen
symmet
1870
samples
1830
##boro
##othy
ferr
oxide
breeds
hairan
ambition
jamie
counteratt
rowley
romance
drummer
soviets
chemistry
bonds
attendance
acceptance
krist
demonstration
intelligent
extraordin
mdot
witnessed
ingram
encounters
coalition
carlos
mariah
unusually
synthesis
applications
update
patrols
joshua
mistaken
totally
yeovil
instrumental
explosive
unfortun
deposits
listeners
implemented
overwhelmed
absolut
answer
nickname
lithuan
forbidden
frigate
abundant
abundance
obstacles
incomplete
turbines
rendered
magdalen
papal
binding
enzymes
prompting
##oplasm
neutrino
comprehensive
amylostere
sanctuary
bhairava
turnpike
prophet
mcnichol
pseud
aldean
iaaf
proximity
northumberland
bah
cyl
dil
dining
dirt
fu
fier
foul
foster
fighters
gale
golf
gendar
hakim
jeal
lone
lutz
nf
nok
pesh
ral
rud
sli
tang
tides
tzu
zim
##aic
##layer
##wal
##wall
##iates
##tory
##uania
##eration
##inster
unesco
##isations
##isph
##isons
tough
##leg
##leans
##acements
styl
forec
##etical
##olph
##igon
itv
##ulates
comet
seated
##rix
##riers
orleans
##illes
exchang
leo
leinster
spo
spoken
claws
mano
scope
scripts
roby
relied
marily
carroll
deciding
flair
joins
remake
##issart
saigon
mining
liam
buck
empty
monica
repet
syl
##icken
retro
retreated
suburb
guided
dragon
##licted
stress
102
108
terrible
invent
developments
mets
metaph
landmark
173
slaves
steg
baron
barely
loch
detect
moro
streams
organisations
patients
swallow
curve
supervis
radius
competing
latest
fortress
donations
##arnation
##rett
palmer
technologies
troop
1893
specialized
averaged
copia
roundab
1859
tribe
separately
improving
maternal
stopping
museums
maryang
normand
error
judith
murphy
1874
ranger
uncover
preventing
jerry
dispersed
celebrity
reflects
considerably
dumpty
crowns
gaoz
lifted
imagination
conception
kinds
suspected
multiplayer
42nd
bullet
symbols
ghat
liberation
manufactured
52nd
expeditions
spectrum
cooking
minerals
labeled
strikeouts
##umbered
reconstruct
bernissart
segments
besie
framework
portraits
challenged
principles
josh
muham
honours
seventeenth
hemisph
prosecution
campbeltown
crusader
ellis
jackrabbits
lithuania
expanding
interpretation
persuaded
drafted
mammal
nineteenth
chanology
excellent
phenomenon
rookie
redesign
crafts
curtis
alphabet
crucial
vistara
jealous
lutzow
peshkin
ralph
robyn
marilyn
gaozong
hemisphere
aqu
duch
danc
dug
diction
euc
flet
fights
gwe
hide
hond
hood
honey
ker
kaiman
lem
mating
nit
nus
oke
pamp
pock
ry
rp
riff
tat
tune
xe
##nance
##aud
##iast
##cop
##time
##gence
##ggy
##mem
##fu
##fire
##jing
thail
##eria
##inand
##onso
##ndolen
##oric
##arius
unity
##anches
##alyp
##itall
##itudes
##omes
##elope
##ila
##ilogy
##tha
##urbed
stair
##ivorous
reass
alt
alto
##emark
ansel
chile
##estock
##osely
probe
suez
##oping
aren
exile
##oca
##ocation
##berry
prayer
trilogy
##astian
clan
incons
bohem
afterward
manning
resolved
rok
##assed
serge
agencies
diseases
branches
outfl
indo
indie
parad
securing
charan
bloom
assa
remote
thereby
northwestern
soap
##phae
emma
southwestern
##fting
synd
syria
supplied
##sson
numbering
transmitted
126
129
descriptions
infected
continent
##full
slip
barnes
helen
characterised
medic
midway
confessions
detective
geological
visions
explan
solita
villain
communists
traders
contrace
##obee
managing
sitcom
faculty
ordnance
guitars
summon
##echobee
worksh
1892
1890s
galax
penal
honors
rebbie
salt
regardless
achievements
355
cuts
1863
mcm
sometime
venom
composers
##toire
hospitall
breakdown
dissent
domnall
coupled
dolls
hopes
fails
drown
anthrop
bloody
constantin
investigate
pilgr
channels
throws
taxi
canceled
blockade
swept
scrap
legislative
julio
concentrations
contributions
ceiling
telec
mechanism
durand
kahn
incorporates
tends
neutron
ingrid
##rosion
arcade
depends
remnant
978
unsuccessfully
attractive
descendants
licence
demanding
mirror
barbara
correspondence
hemmem
rumors
fatalities
tributary
attributes
helicopters
##khuri
sarah
frustrated
mammals
playoffs
manufacturer
paralympic
buddhist
atomic
livestock
scandin
reopened
repertoire
saxon
genuine
diocese
crescent
scenario
enlarged
syadvada
corridor
nautical
ferdinand
newfoundland
crimson
lorenzo
gwendolen
kaimanawa
nuskhuri
okeechobee
thailand
anselm
solitaire
aids
bells
dign
dull
dried
dads
gia
hod
ko
mast
mock
mits
nights
nests
nme
oj
rim
ramp
rico
tension
vett
wc
wire
##ras
##die
##dings
##aj
##cos
##kamed
##tovac
##bu
##gins
##here
##mith
##onic
##atra
##enos
uncon
##icon
##ications
##iland
##adi
stans
stump
##idae
##ayana
chamb
chasing
##verty
shoes
comair
##avian
projected
##opy
##riet
##ifest
##aba
##abad
truck
##istical
eno
compart
##ipe
clad
clair
worse
twelf
contacted
manifest
ambit
relating
fever
feast
##assy
meat
megan
finland
whenever
outcome
output
intercept
interception
interrupted
flame
##iban
##ibwe
poverty
mostar
blank
somebody
assessed
regulation
worker
thanks
buenos
emit
emig
relevant
maid
aires
drought
supports
strain
polar
adds
sms
103
termed
maintains
provinces
editing
editors
damaging
annoy
respected
##omanry
modes
midfield
conflu
avtovac
thirds
moritz
morris
demographic
explorer
##clair
routing
conviction
farther
farms
requiring
contracted
##obile
treason
observe
profound
flee
facts
listening
fortified
readily
knowing
suffer
charting
##ogns
merged
identifies
commitment
apf
1853
1858
jewell
creature
berg
duarte
costume
1885
1888
snap
italians
wilf
strengthening
sussex
1877
discussions
literally
fisher
theaters
1836
removing
panels
dropping
ensuing
cellular
750
mortar
junta
reflection
cannon
logs
careers
investigated
victorious
fantastic
melbourne
rhymes
comprises
complained
bolton
photography
remixes
delays
polyt
deployment
ridic
cuba
repaired
thinks
muslims
leonardo
lawsuit
conducting
eldest
racial
loyalty
accidentally
rosberg
arikamed
maple
yeomanry
broncos
sinclair
exercised
flashback
randy
dodo
conquered
proceeds
lambe
floating
acclaimed
advisory
springs
hiatus
jennifer
orbital
weighed
nicholson
prolong
resignation
skeleton
errors
imprisoned
nashville
clusters
umpire
neighborhoods
veteran
recalls
disliked
sketch
veeru
riaa
desperate
vintage
kitchen
incursion
boulevard
boulder
eugene
prehist
michaels
ojibwe
vettel
stansfield
chambers
twelfth
ambitious
confluence
arikamedu
bite
cure
cush
dre
dian
ease
fau
fathers
gif
hate
hier
hutch
jumps
kam
kus
kry
lighter
mound
owe
pd
pour
pile
qi
rises
sinking
tamp
tuc
tensions
vault
wan
wang
wemb
wanna
##lore
##ointed
##hanna
##yat
##math
##mund
##vi
##fol
##jection
##ław
theolog
##orith
##aters
inich
unem
##icated
##sters
stiff
stolen
beet
##imol
##otten
chu
chau
cherry
##usa
sew
seed
##rifield
orton
plent
##aki
traces
spor
spite
enable
envelop
##geon
recapt
herbert
intent
intimate
boo
aftermath
maneu
scales
scream
reserved
##ques
##quet
relocated
##uble
##plain
outs
##angered
indians
##izers
flav
flaw
##enshm
formations
actively
beta
betray
regulations
##alsock
warships
undertook
peer
endangered
elli
monk
colored
doof
albeit
subf
laur
instances
metals
inflicted
variant
expense
austin
medley
raids
131
collision
eastward
accordingly
topological
captains
captivity
societies
delano
easier
basal
legion
experiments
##ussion
contrary
##quehanna
royston
treasure
competitor
anglic
petro
affection
equally
devil
maturity
oliver
homar
ruf
merrifield
colonna
chapman
berm
separation
quarters
width
brah
educated
olivia
observing
khoo
susquehanna
threatening
physically
dissolution
1838
substances
1847
participating
digit
oxid
mrna
hairst
concludes
admits
powder
catholicism
330
rows
thickness
acquis
acquire
yellowstone
lifestyle
horns
melanch
pleas
disappointed
suspic
sandy
remixed
luke
muscimol
tanya
folklore
stanza
diego
kentucky
belongs
tactic
shelter
highlights
cooler
ecosy
myths
graduating
##irtz
electricity
carty
protagonists
mistake
loyalsock
sailing
##swick
evacuation
evacuate
substantially
mercy
bleed
prosper
traits
algorith
felicia
insurg
elderly
remembered
supernov
##osomes
gorilla
zombies
unpop
chancel
imprisonment
manufacturers
paralympics
forgotten
bootleg
dictator
##anagi
coordinated
fischer
indonesian
facilit
trigger
sympathetic
preservation
philippines
neglected
anticipated
brunswick
spawned
luminosity
chopin
flotilla
assyrian
symphony
dimensional
amphibious
pokiri
abnormal
alcohol
ferrari
extraordinary
lithuanian
roundabout
muhammad
kusanagi
tucker
wanyan
wembley
unemploy
chauvel
ortona
envelope
##enshmirtz
doofenshmirtz
ecosystem
2d
80s
bac
bour
boca
cage
catherine
e4
feld
gest
gills
hoys
hugu
iber
jai
ket
kend
lens
m2
mum
nons
nfl
oath
por
pand
puck
sf
sink
tin
vh
wre
zhang
##run
##dish
##lides
##oints
##ien
##cade
##tures
##uzzi
##gow
##hous
##points
thames
##onelli
##orrh
##enic
unoff
unlim
##iture
##asgow
##oub
##elih
##ece
##sts
##acon
##acrit
##tery
reject
reorgan
frames
franz
conif
chec
hend
sear
##ctic
plens
leather
pradesh
trap
trace
spelled
notting
##anton
##ellor
##osts
compiled
##soft
resort
##quis
##athy
perc
perth
roch
newark
##ogle
marble
dischar
disorder
mend
carriages
upgr
coh
pozz
blame
nobody
assign
assured
regained
peggy
filmm
endemic
specially
americas
capcom
drink
opted
quake
##otherapy
##itsu
metacrit
infilt
##areth
disturbed
171
153
##annadh
crimes
discontin
steambo
gerald
greece
gamesp
135
prototype
collector
midnight
blackburn
coronation
gliders
glasgow
possessions
delta
antib
entertaining
solve
villagers
##ugg
reprinted
viewing
trademark
everybody
issuing
calm
replay
lowered
associations
parking
superst
survives
##obonelli
260
haun
grandson
statute
fortifications
hamar
introduce
browns
turret
matrix
odys
galile
predator
nuclei
colonists
averaging
encomp
honest
tribbles
hardcover
##anche
stoppani
teaches
inhib
susan
judg
judged
judicial
economics
1876
testament
discusses
touching
occupies
panther
visitor
ensued
bowlers
mortimer
pittsburgh
festivals
shoots
accessible
fantuzzi
suspect
chemotherapy
comparable
incorrect
taxonom
savannah
dressing
coloured
munich
fairies
embry
inscribed
eaten
lucky
##ught
definitely
rodrigue
##ycle
kingship
jeffrey
consequences
rubble
loves
warsaw
municipality
microsoft
fluid
decreased
essex
recruit
predecessors
griff
marcus
optim
ladies
misunder
sediment
satisfied
pierre
innovative
prolific
delegates
yugoslav
poisoning
harsha
moody
battlecruiser
chancellor
analyzed
tackle
expectations
assessment
overlap
fossil
swimming
celest
juveniles
friedrich
aerodromes
explicitly
cruzi
jagannadh
chaos
comedian
butterfly
treasury
adequate
agaric
adriatic
saginaw
verdict
contemporaries
symmetrical
fletcher
reassigned
inconsist
sergeant
mitsuda
feldman
huguen
##orrhiz
unlimited
##elihood
plensa
pozzobonelli
metacritic
discontinued
rodriguez
bach
cort
gand
gag
gau
hole
jess
jung
joke
kod
kab
nh
nm
nerv
pent
penc
pomp
tet
tama
tube
tears
ui
vander
zr
##raine
##dick
##lon
##lide
##oons
##count
##cair
##bard
##far
##2nd
theories
##esque
##enh
unan
unve
unpre
unaware
##ali
##asa
##asted
##isd
tool
##omon
##omyc
##story
##aman
ono
stup
stokes
whites
##olulu
rework
beaver
##imon
##imination
byron
fran
chenn
chef
##usive
shorts
shara
shipped
##osition
##umar
##oderm
seize
prose
prostit
suited
##ctu
degen
##ople
##opol
orthodox
plates
plaza
arama
leaked
proud
trucks
spear
compact
claire
aden
adrian
incl
contested
contempl
boost
abra
##acht
manages
scap
scler
grid
timbal
newcast
##assing
partition
braves
interim
##ensus
##acea
charmed
assume
consensus
engaging
undergr
embr
##ctioned
albion
submit
schm
epith
supporter
phara
imported
smash
107
109
diff
varieties
slope
governors
##uchi
##space
eddie
crane
expecting
annex
bark
barometric
loaded
loading
nationalist
median
medway
collective
collecting
confident
breach
versus
topic
topics
viscount
glen
controlling
moons
hurdles
authored
funk
competitors
217
angered
countryside
activated
cultures
iran
connie
electro
burrow
odes
favored
circulated
identification
informal
apost
individually
1852
1850s
hyphae
fault
1883
##garia
privately
escapes
##kii
practical
investors
violacea
##iker
preparations
domain
pays
1840
babyl
anthology
ironcl
ensured
temperate
disputes
##agonal
ambul
purple
camel
pitcair
attraction
beaches
graphs
##inyi
pleased
financially
peaceful
raton
##world
northwestward
bulgaria
doctors
sacr
luis
beneath
manufacture
nesting
illustrations
prisoner
contribute
encourage
cooksey
shelters
550
townsville
speakers
karam
rivalry
josce
adaptations
binary
hindi
descended
puppets
hanging
mercury
discipline
robertson
demolition
oriented
songwriting
collectively
harvest
harvey
advisories
metallic
metallica
confederate
cecily
nomura
surprising
triangle
holland
abolished
disagreed
azores
jurisd
peckii
ceremonial
excluded
hungary
overlooking
eguchi
denomination
consciousness
murdered
anglesey
lebanon
boilers
monastery
malaysia
thriller
epsom
proclaimed
stroke
fierce
sylv
altogether
constantinople
wcw
gandhi
zrinyi
unanim
degener
aramaic
abraham
scleroderm
timbaland
newcastle
undergradu
pharaoh
pitcairn
a4
bub
bry
bann
cree
dard
file
gear
hav
hack
jtw
kashi
lovers
nag
nancy
pist
pump
papers
rings
rovers
siber
tum
tamil
uh
ule
vest
wwe
yu
zoe
##rom
##eb
##oina
##wa
##cach
##cence
##bro
##ux
##gna
##hin
##yden
##mal
thi
theft
##erts
##instein
##oria
##asma
##isible
##iliers
##adir
##acco
stained
stored
##lyn
reef
##owed
alarm
##chel
fringe
convert
atoms
chester
##verly
##odied
seal
progn
pla
placement
plasma
arrows
##berger
pruss
prices
spans
spont
sperm
##arta
##ackdown
notion
notices
##oves
##orton
afraid
compat
admit
worsh
twicken
incidents
##solete
intend
scrib
amun
rog
reluct
##aterrest
fees
##ogan
marvel
aging
sheet
disney
weyden
coordination
flint
##cedes
charitable
blake
remaster
consec
underlying
seasonal
enduring
emin
monks
monitors
colin
doo
maori
subd
airing
drunk
phases
smackdown
longacre
millimeter
invented
invisible
cros
performs
novak
##veer
cream
estates
estuary
obsolete
constr
signals
156
slated
slaver
edmund
discarded
stepped
anywhere
##aphore
publicity
133
litter
protective
protector
breast
humorous
wayne
moored
keen
demo
trips
huron
delhi
30th
busy
realize
realizes
requests
calendar
clement
politician
freely
halfway
membership
##rington
##boards
massa
irrig
faction
woodward
woodfull
introducing
torch
excited
brownish
devices
odd
olive
circles
ruined
meri
merge
mercedes
##beat
1855
flora
##marcach
hardy
satire
bigger
privile
##afe
1866
1860s
employee
reasoning
princeton
commercials
surfaces
1872
semaphore
scenic
huong
domoina
1837
flightless
zealanders
1842
couples
darker
layout
revealing
caa
carefully
investigating
rowson
crowned
springfield
essays
architects
nationally
prominently
necessarily
complaints
ramon
precise
symbolic
kras
scrapped
dresses
websites
struggling
climax
fairy
farmland
extraterrest
requirement
choral
corpse
flags
favoured
eager
cleaning
hibiscus
molecule
philosophical
stockhol
resembles
brighton
mushrooms
virtue
induction
expeditionary
flatten
guybrush
roofs
hindenburg
witches
orchestral
interactive
##huveer
hangzhou
explosion
paved
echmarcach
taun
disciples
varying
878
mycel
wyatt
ornith
ornament
rhodesia
cobain
ceratopsians
alpha
insurance
manuscript
palmyra
sulfide
integrated
limitations
tongue
teenage
fingers
inherited
kidn
vaishn
harmony
diversity
ahk
tackles
raghuveer
prefectures
strictly
diagnosed
neighbouring
inferior
fossils
accomplishments
horizontal
riots
advocate
confrontation
staples
antiquities
determining
cytoplasm
tolerance
nobel
accumulated
warnings
fulbe
thakur
shrubs
autobiography
ltd
compromise
javelin
tobacco
eligible
accusations
fusiliers
decisive
subordinate
populace
unfortunately
absolutely
pseudonym
dancers
unpopular
jtwc
uleki
spontane
twickenham
slavery
stockholm
aes
aot
aoc
aria
aisle
bil
bened
benson
cun
cement
cope
coss
ditch
fond
furn
fitz
gut
hes
hiv
ibar
jill
kan
kling
lal
ling
lung
liang
mw
mt
ming
niece
pest
pud
rene
sizes
tud
um
vin
vass
vern
##rong
##racted
##ders
##dock
##aford
##oct
##tiary
##bach
##bastian
##uv
##uhan
##mates
##inely
##atisf
inari
input
inacc
unh
unic
tomit
##ouver
##eca
##stown
##strong
stuff
stumps
##olese
itunes
chand
heights
##ulator
shan
shops
shirts
sealed
sebastian
proct
deeper
##esses
##essing
neo
arbe
exempl
##bern
lease
##abh
spaced
spher
hadros
haddock
aft
hern
hermann
##ptic
gras
amber
##quir
permit
reliance
timing
bride
upstream
outp
coy
cox
norse
preach
pretend
index
flanks
wouldn
blown
bluff
knife
consumed
pend
buoy
eliot
winston
##terson
retiring
submer
airplay
smart
smoking
##tenham
armstrong
belfast
millimet
tertiary
instruction
nova
operator
##iolet
portland
##arez
distort
distinction
downgraded
churchill
slate
provoked
edible
crack
steven
steady
anna
loosely
redoct
majors
efficient
attackers
waterway
extinction
detached
particles
geography
glory
demons
refusing
delicate
patterson
heaviest
solutions
sentenced
realism
persona
##ogram
lighting
everywhere
televised
sounding
wald
wheat
combine
pressing
cyn
243
24th
grande
affir
affects
280
masses
primitive
broadly
excessive
declining
devote
bowler
insert
merger
##kingham
rails
jewels
rankings
loses
##market
keyboard
achieving
derives
holotype
1886
secretly
escorted
lengthy
##nesday
minorities
platte
horsepower
1870s
properly
deadline
intensify
physic
arabia
1833
digging
auto
mountainous
laying
dubious
alike
synonym
marketed
celebrations
##zzle
hereford
complexes
astrae
prominence
rearguard
bassline
accepting
wears
linking
analyses
370
actresses
terminal
sleaford
congolese
appealed
narrowly
admiralty
dogs
wednesday
tended
spectators
mobility
vicar
legendary
speaks
bruges
raiden
firmly
grossing
##otypes
sponsorship
decreasing
supposedly
phillips
##atoes
depictions
levine
remarks
moderately
strategies
instructions
psychological
transformation
voyager
automobile
mycologist
tiger
felix
displacement
floors
pipe
folded
avoiding
orbits
parasites
mcluhan
dorothy
anchor
ludlow
prospect
continuously
quantities
ceremonies
rehabil
trunkline
hypothesis
gentleman
accelerated
carnival
referee
motifs
buckingham
colombia
kubica
relaxed
dorsal
dictionary
explanation
prehistoric
bermuda
acquisition
bacter
nottingham
percussion
benedict
tudor
tomita
proctor
arbeider
hadrosaur
submerged
redoctane
astraeus
bot
cove
dome
dup
dread
dimin
diana
erik
erosion
font
fission
gb
gaz
hbo
ix
kun
karn
lighth
lamps
mould
mouse
mumb
nos
nail
nina
ngu
pes
pas
porn
qin
ras
tier
voting
wart
wally
wiz
zo
##nut
##lance
##tt
##hor
##held
##hatt
##yen
##pon
##fe
##zog
##zher
##jal
theology
##inburgh
##onz
##esund
##orian
##enary
##aro
toss
toys
##than
##thum
##stage
##ami
##urt
##acular
stamp
forested
foraging
whist
##ivial
##idia
##iths
reed
reinc
beast
beeth
alonso
alesund
##ima
isa
##otive
anfield
chas
hew
##ulip
##andis
shap
##avan
suite
##unct
##illon
##isham
##abase
trivial
spill
spike
##arten
noticed
notorious
##oved
##ello
##ostic
herds
herbie
worried
incumb
contend
abst
mann
manhatt
scor
scouts
grants
grisham
amanda
newer
newman
##owned
##tebr
disrupted
carr
caravan
weird
brent
bruss
flocks
##aceae
##cesters
accounted
maybe
warner
underwater
empl
emily
posthum
revers
larv
larwood
dole
syll
retaining
guilt
capab
scheer
drag
founders
phyl
strings
##ificate
popmat
locals
artif
invention
performer
##lioz
##ront
critically
critique
churchyard
152
##erner
edinburgh
shipbu
steals
barbour
##gestion
designing
##rolled
##enna
missile
##engu
furious
classics
middles
governmental
courty
moray
morale
moravia
soccer
authent
delight
antilles
solved
promising
promoting
swan
handful
rockstar
politically
freestyle
superv
defeats
castles
postseason
angular
totaled
23rd
walked
richie
fleets
massacre
doug
##aughter
275
puts
virus
devised
certificate
specialist
circus
lycoming
merit
independently
bias
penis
bayeu
processes
tribble
berlioz
rebound
rulers
businessman
henri
dominion
talented
renowned
antiquar
observes
availability
erzher
effectiveness
happens
happiness
##force
watches
1834
senators
slowed
feral
absent
naturalist
ensuring
corners
emerging
meantime
lasts
screening
320
rowland
accompany
fitness
awa
portraying
missionary
enjoyable
compares
diamandis
paperback
necessity
complaint
1821
pursued
advantages
tonight
shrines
expressing
progresses
progressive
sustain
480
concentrate
contributing
1801
ceo
proposes
doubled
dunn
fixtures
fragilis
atmospheric
stockwell
carlisle
virtual
sends
trailer
crashed
##lamation
57th
negotiated
cartoon
stalk
beltline
addresses
rebuilding
##euv
instructed
prosecut
rumours
orient
utilized
ancestry
ancestors
preceded
ticket
embarr
patronage
pirate
throat
finger
persuade
frustration
clinical
reproduction
enhance
enhanced
refugees
recipes
chestnut
culminated
diagnosis
gambling
sentimental
umpires
coincide
sectors
resolve
enthusias
dahlan
hubbard
staple
appreciated
consolidated
antiquity
determination
ozora
megaliths
constituency
allegations
mathematical
ostend
database
echoed
wolver
intercourse
monitoring
provisional
prevalent
licensed
outdoor
sacrifice
uyghurs
arnold
invertebr
conclusions
broadcasts
manoeuv
metaphor
stegosaur
normandy
lemon
medicine
summoned
workshop
galaxy
scandinavian
polytron
diane
krypton
hoysala
unofficial
odyssey
griffin
huguenots
pompey
tamaulip
undergraduate
dreadn
lighthouse
mumbai
nguyen
wartime
reincarnation
shapur
incumbent
manhattan
brussels
##cestershire
phylogen
popmatters
shipbuilding
barbours
bayeux
erzherzog
tamaulipas
bard
bree
bachel
cum
dir
dwell
ety
euk
fuse
gonna
gaga
hil
jail
jokes
kav
kap
kaw
kpa
kumar
ln
lope
lament
lunch
mp
punch
podium
rent
rca
sided
seller
tying
vick
wield
wages
xi
yoko
zap
æl
##ression
##eers
##eff
##ebe
##dling
##ao
##away
##oft
##wald
##cr
##cel
##sons
##meer
##vation
##fric
##facts
##fraid
##zt
##zens
##20
thief
##inary
##onian
##onium
##arp
##arthur
unl
##alo
##asian
##ouch
##rep
##iliation
##amous
##urer
##uras
##leball
##rov
##roft
stance
stela
whig
##irical
##olor
##idan
rept
ally
isis
isla
##emi
chin
chore
heated
##cepts
shaf
shoo
##agger
##ums
seaw
prow
nee
neb
nevers
orso
organs
oricon
##unt
plastic
arte
exagger
lend
pride
prair
##ante
##anti
##antine
##astrum
##mented
##ineae
butetown
adorn
worthing
contents
contests
amy
##atha
perp
perip
roose
reli
relates
newell
google
gofraid
evol
meyers
overnight
brass
ups
decent
flour
##ibilities
##keeper
attain
knuck
noel
consort
##velt
##lesiast
minne
minsky
soir
thanhous
daylight
wines
revis
monitor
##ftime
dozens
worlds
capitals
airspace
drains
suppress
generations
strat
104
diving
episcop
terri
backwards
performers
##lier
##ioch
infl
depot
distress
slab
slower
slash
##spective
##derabad
barre
gerry
smallest
137
139
proto
protecting
classroom
collins
myel
confined
shortage
geastrum
timeslot
halftime
glorious
glitter
destruct
divisional
organize
refit
periodically
exploring
communal
routine
realm
convicted
calder
##merie
squat
##ographical
referenced
navig
jackie
eighteenth
pawn
argue
labelled
connor
connector
torr
broader
novelist
insane
insuff
scientist
odor
lyn
ruin
colleges
merging
vermeer
strips
apolog
tribune
hosting
hyderabad
commissioning
keyboards
madres
deriv
satirical
1884
talked
stays
1867
reasonable
lengths
macarthur
composite
1879
##umbria
theatres
deadly
diary
garth
huai
payments
1830s
examining
jeremi
healthy
pianist
admired
hawks
committees
craig
tripoli
counterp
llan
oswald
yellowish
lift
coldplay
owed
masc
bulgarian
taxes
photo
reformation
demonstrate
struggles
surveys
haitians
lisbon
liszt
muscle
spreading
cabo
cabral
julia
mechanics
encouraging
embassy
etc
exhibits
libret
targeting
650
repeat
duncan
feedback
democrats
democracy
shelley
shelby
ivan
trustees
jointly
resembling
flanked
reunited
granting
dialog
phoebe
volunteered
negotiate
tallest
wisdom
exercises
rhythms
1769
customers
dangerously
proceedings
baja
spinning
ecclesiast
reagents
leukemic
bosi
sheridan
inauguration
mansfield
fernando
attribute
relieve
inherit
interpretations
gladys
skeletons
funerary
theoretical
teammates
bulkhead
iconic
consultant
adoption
abolition
gambia
pedal
validity
namely
picard
guerrilla
fiba
indonesia
facilitated
rehears
juvenile
harmonix
evaluation
compensation
airfields
nutri
subsidiary
mathematics
disappointing
disappointment
suburbs
persistent
neighboring
cottam
pledged
amendment
surpassed
unwilling
woodsboro
frontal
antagonist
kristians
gendarmerie
forecast
inventory
bernissartensis
honduras
owego
sewage
bleeding
insurgents
supernova
misunderstood
##orrhizal
gauge
kaboom
nhc
nervous
epithet
differs
darden
siberia
worshipped
subdiv
torchwood
vaishnava
bachelor
etym
eukary
lopez
zapata
ælfric
islais
shafts
shooter
neversoft
orsogna
artefacts
prairie
roosevelt
knuckleball
minneapolis
thanhouser
insufficient
ecclesiastical
ather
aber
bic
cai
cedar
dare
ely
fass
gp
gur
gav
gems
hid
hale
iuc
jak
jama
jagu
ki
lav
mim
nir
nol
namb
nomen
oah
omitted
pn
psp
riv
sage
sins
saga
tir
vanc
vague
vene
wii
##raged
##ea
##egro
##nis
##numbered
##da
##auc
##oil
##ws
##war
##cian
##cock
##kap
##bied
##ua
##uers
##uits
##uki
##giate
##haw
##sin
##say
##pow
##mare
##matic
##zuel
##jin
theodore
##iners
##atories
##enues
##armed
uneven
##itime
anders
##icut
##omans
##eces
##ecess
##ecompan
##ecca
##thor
##thick
##stated
##storm
##stick
##advant
##rog
##aco
stir
staging
sticks
fork
forge
##idel
##igo
##iguous
rejects
bee
##ayan
thatgam
fract
framed
friday
##otenic
ank
chick
healing
##ulators
shiban
##agne
seym
##illance
plaster
##ardi
leop
leased
leve
##abling
tresco
sprit
enacted
ennis
enabling
##ellation
clip
adul
intim
abrupt
##ache
##outing
rely
##aternal
##okan
marrow
maritime
disadvant
meadow
fins
finley
carving
wever
outlets
outnumbered
decree
interven
blast
blog
blond
blair
assets
regards
warrant
genius
genesis
underway
minh
soils
##gren
##gression
##phs
##phic
wintory
retains
guys
capped
dred
surve
laura
generate
locke
longtime
diverted
maine
runner
openly
downs
proven
edith
stein
stealing
loft
reddish
designers
##enne
augustus
roadbl
##azed
grecian
meddings
raj
config
breath
entity
gunpow
differently
moors
keeper
demise
destinations
organisms
storyt
antar
solitude
convective
convoys
billed
lawyers
seeks
associates
managers
profitable
sounded
angels
programmes
flex
activist
activists
heroin
shoulders
michelle
viking
limbs
burnt
horus
technically
50th
markings
reads
civic
cascade
declines
figg
earthreal
insist
insult
campaigned
collegiate
selen
selective
317
councill
jewel
sawm
casey
hybr
hardly
councils
satake
probable
qualities
escal
comeback
macdonald
negatively
priority
likes
indiana
ern
testified
transporting
banning
semen
physician
1831
motivated
montagu
1840s
ferb
failures
immense
robust
breeders
reporting
cornwall
tennant
yourself
##giance
pitt
franco
imprint
logo
logical
logistical
constituted
accounting
ottomans
bankrupt
wounds
sharing
sharks
utter
thunderstorm
dismay
1825
modeled
precious
peronist
omn
luther
beneficial
elevations
illustrate
julius
momentum
allegiance
withdrawing
kaiser
hydnell
conversations
democrat
ridges
dinner
splash
custody
ibotenic
sensation
vertigo
drops
##kinson
fictionalized
astonishing
patrolling
grossman
stretches
marshall
fluor
fluores
sponsor
attracting
monarchy
barbie
townships
phoenician
##related
danish
citizen
unnecess
deposited
seventy
absorption
mycena
napa
ancestor
goddesses
accommodation
pipes
sulfur
sprint
ellen
teenager
tightly
andrea
lobbied
enforce
enforcement
innovation
salvador
##osomal
baldwin
frost
diversion
uncertainty
commemorated
nineteen
connecticut
granite
deception
revolt
devastated
synthesized
enclosed
outlined
##ciardo
overlooked
summers
bosnia
lindsay
exceeding
suburban
neighbors
corporate
drifting
stallion
legitim
hazard
comfortable
hymns
gabriel
ricciardo
plagued
pronounced
memoirs
montenegro
revelation
convenient
supervisor
duchess
pocket
wilfrid
pdr
oxidation
hairstyle
melancholy
unveiled
jurisdiction
flattened
taunton
bileca
bacteria
fassl
iucn
jaguar
nambu
pneum
vancouver
venezuel
##ecompany
thatgamecompany
seymour
trescothick
surveillance
gunpowder
earthrealm
hydnellum
unnecessary
ay
aims
bare
cz
cig
cinc
ded
dhang
fals
gy
gel
gem
gases
gamer
gonz
hd
hath
heller
hinge
ironic
ji
jas
jub
lun
lact
lingu
lulu
lerner
nude
pont
pike
rector
sv
sipp
tina
ucl
vernon
wica
##eh
##eel
##dou
##lass
##iago
##iastic
##cles
##tical
##bone
##uz
##ycl
##vet
##fil
##feit
##finger
##xi
##origin
##eness
##enque
inex
inquir
unident
unified
##anistan
##alpa
##asad
##isa
##iskey
topping
##omore
##thane
##stock
##ampton
##amoto
##acom
stake
##eterv
whiskey
##irable
##olly
rey
rejection
alam
ishm
##chair
##utor
fres
confer
chay
shame
shocked
##osc
##agr
##umped
##oded
seap
seeds
sue
##ctive
##rians
plague
plural
##icherry
arist
##ghanistan
prism
prasad
trim
tract
traced
##isto
envision
enroll
##artet
afghanistan
reclaim
reclamation
##ineas
hered
##ustin
bobc
##acharya
##urethane
gryl
amede
##athed
rogers
desires
deserted
agustin
##iley
##lude
##pling
weber
immin
brom
outages
canopy
##anga
preference
highlands
accent
accidents
assignment
regulate
underwood
lateral
minds
bugs
##pherson
auck
winters
define
presumed
subpl
subtle
guang
guests
capit
capilla
drake
phineas
stranger
quartet
armen
beloved
instinct
develops
creates
operative
portico
159
119
prevail
advers
##yll
##ennial
successes
modest
servants
furs
##ossy
confisc
breese
avat
humid
##ientious
detachment
archery
entren
##appy
143
145
captive
halt
differed
morel
periodic
##scope
patient
solving
europeans
convinc
conventions
farmer
presenting
viewer
rocket
curric
##obia
findings
professors
canadians
propriet
richards
fleming
26th
28th
heroic
palenque
fifteenth
burnley
illumin
factions
woody
footballer
trot
praeterv
letting
voters
olaf
researched
heavyweight
ideology
homeless
galley
narration
penelope
pitchers
##archy
natives
sanctioned
tribal
treatments
recognise
hunted
commissioners
##gnine
1887
reduces
1864
1869
girlfriend
employing
mck
mcdou
radioactive
constructors
1873
##umbled
ukraine
exceptions
professionally
travelers
intensification
ranged
garage
dissolved
touched
payment
displaying
1844
examine
lyrically
immature
trafford
bordering
concluding
admission
punk
francisc
francois
celebrating
emerge
screenwrit
objections
caen
##ettes
counterparts
husbandman
portrays
please
experiencing
roseberys
nationwide
pictish
comprise
comparisons
sandstone
picking
taxa
textile
questioning
locked
candidacy
ghats
unsure
grassland
embark
surrey
slee
borgnine
ashes
doubts
incorporate
polyurethane
cookery
mobil
lester
ingred
columnist
adjust
volunt
ibn
ibrah
biographers
crowded
virtu
migrate
dramatically
parallels
racist
exceptional
disappearance
falcon
yeah
qedarite
cruiserweight
1759
explosions
kitty
joyce
stevenson
conscientious
customer
scholarly
grip
accurately
lambton
tsub
##innati
910
decorative
shifts
shifting
carbonaria
dags
piper
answers
##ulsion
confederacy
nomine
divorced
nursing
lobster
switching
portsmouth
sicily
enforced
delivering
implied
highlighting
supplemented
dwarfs
pioneering
possessing
culminating
cluster
fulfilled
santiago
sophomore
coincided
fisa
quantity
obligation
enthusiastic
stunt
scandal
devastating
tutor
compensate
aerodrome
maskray
assumption
##lotalpa
benefits
fabric
moisture
legitimate
heinrich
glamorgan
kleine
phosphor
pearl
sterling
summarized
counterattack
zimmer
reconstructed
rpg
pilgrim
interceptions
prolonged
elliott
laurence
powderfinger
facilitate
nonsense
gamespot
superstructure
jungle
sylvia
banner
plaque
remastered
unhappy
physicist
beethoven
hewitt
abstract
scoreless
emplacements
larvae
czech
cincinnati
jasper
sippy
##original
inexper
unidentified
ishmael
aristocr
envisioned
gryllotalpa
amedeo
imminent
auckland
entrenched
praetervisa
mcdougal
aar
aif
aki
ced
dante
fc
fet
fare
hank
hailed
hiding
kv
kinder
lust
lined
lots
lano
ms
mf
mith
mates
moss
pity
pengu
rus
rab
rats
rfu
sire
sier
t3
tired
tips
tables
vet
wł
wand
wrec
xef
ylide
##rome
##rance
##rink
##eater
##nh
##nery
##dp
##drop
##aissance
##lan
##lake
##limin
##wine
##iy
##iop
##cs
##kok
##tusa
##bel
##bec
##brae
##garten
##hand
##yards
##pi
##pin
##pes
##pah
##mation
##mish
##mother
##vous
##zhu
tharp
thea
##inson
##onance
##orf
##orrow
##ataka
##attering
ineff
##arts
##arma
unite
unused
unchang
unbeat
##aline
##itational
toird
##icuous
##elbach
##ilian
##entin
##stin
##stan
##urance
wasps
##leted
forem
whip
##igouch
reel
reub
beads
bearded
beverly
##owing
##owitz
alert
conrad
##emn
##emics
heath
##estrial
shed
##umble
seth
neon
arise
exceeded
##ishna
##bery
lean
leis
aretusa
trent
trunc
spare
splin
spector
spiders
enrolled
firms
clive
clown
click
wors
contam
intentions
boots
##ptide
manheim
screw
grac
relate
feas
##okrat
##ogamer
marina
marriages
##assment
serg
desk
appl
overly
coasts
prelimin
##pring
intercepted
attitudes
parodies
##cedented
##actory
blof
noct
assists
consoles
peas
peers
buying
elbow
posed
coler
maat
broward
presc
drained
foundations
generating
stressed
polka
quot
quotes
belle
128
backdrop
musically
concolor
receiver
criteria
opener
openings
157
1500
everett
famine
discret
stee
barriers
grouped
prevention
persians
##azing
eurogamer
raiding
138
protested
arrange
##ierre
restr
restigouch
aviv
reachability
builds
gunnery
visibility
captures
moroc
demokrat
refusal
patrons
basil
solic
promises
haraj
fielding
reala
similarity
rockets
lowe
sayid
##akening
curious
debts
counted
fret
differentiation
supervision
superficial
fungal
postpon
##otta
facial
criticizing
occurrence
hammer
travis
##bridge
structured
woodlands
electoral
toro
primetime
kingdoms
declare
religions
insect
insular
tempest
galentine
##atorial
motherwell
nucleol
strikes
copyr
sexy
creatures
harder
salts
tomorrow
premium
premises
silence
dominate
quebec
foca
launching
358
cruel
probability
dealers
privy
privacy
mcg
renaissance
macl
rapper
ancients
likened
judges
##isticated
1875
academics
testimony
ukrain
baltic
professionals
happening
##ikh
##ikes
diarma
##ometry
dissol
huizong
arabian
possibilities
contracting
bodø
panama
1845
otto
louise
spanning
disputed
boxes
causeway
frankf
terrestrial
laser
benadir
fitting
acquiring
ignore
awakening
recovering
foliot
reliefs
comparatively
sandwich
thirteenth
bassist
1824
alexand
photos
krishna
candidature
demonstrating
illustration
48th
julie
strait
##uku
sculpted
andrews
embro
narrower
hyde
incorporating
tendency
faithful
definitive
troubled
resemblance
biographical
cooling
ethiop
vulgar
1794
fashionable
mandatory
nike
principe
principally
muzzle
totals
brooklyn
courtship
mls
packed
gravitational
kurstin
mirr
dockyard
polls
criminals
undertaker
recruiting
intentionally
deposit
jacques
tyre
superiority
dodge
accuracy
##ochond
trauma
consumer
substituted
automatic
confronted
purely
harvard
ceratopsian
fatality
agreeing
satisfy
vertebrae
jenna
andreas
boreas
forbes
lobby
merchants
parasite
sightings
wonderful
bangkok
installation
magdalene
allegedly
surgeon
depressed
wuzhu
laughing
recommendations
enzyme
elephanta
sparked
offspring
pedest
semifinal
sophisticated
##werff
deceased
sociology
excellence
enclos
outlaw
sketches
veerasha
affiliated
summary
kauai
masonry
##rophic
espn
mitochond
vowel
rewarded
mongolia
buffalo
editorial
autonomy
patriarchal
vibe
beauf
cliffs
catalog
eclip
rejoined
executives
transe
bunker
disguised
habits
ptole
ambushed
prestigious
nigel
anatom
vengeur
conspiracy
incredible
cylind
repetitive
besieged
mammalian
pamph
ryder
bohemica
penalties
midfielder
lambeosaur
theologians
sporadic
anglican
digitally
unemployment
kendall
discharge
embryos
celestial
vanderwerff
unprecedented
scapa
annexed
ambulance
pistols
irrigation
rehabilitation
karnataka
nailz
wizards
prosecutor
invertebrates
stratford
episcopal
counterpart
kindergarten
lanois
sierra
veto
unbeaten
toirdelbach
reubens
preliminary
blofeld
discretion
restigouche
demokraten
harajuku
postponed
diarmait
veerashaiva
ain
aur
boun
bury
baha
bunk
baham
dere
dana
doping
ero
ect
f1
fon
fcc
fog
fake
gama
hm
hed
het
hides
heter
io
jut
jains
kant
kai
kress
kaly
kerry
lp
loun
lech
luck
lsu
murch
mullen
nile
norton
oc
oth
oro
pall
ported
piers
peck
rou
rally
rash
rude
rams
riot
ske
sits
sih
ti
tam
tap
tear
tents
tull
tbs
takum
viv
vinc
wes
wies
wru
wied
wool
wern
wadi
##rades
##ragon
##aid
##aunch
##aude
##lc
##wild
##wyn
##ioc
##cut
##contin
##kers
##tra
##tze
##tany
##bons
##uber
##uity
##uxe
##gil
##sore
##ydon
##pit
##mend
##missions
##vogns
##fi
##zco
##zantine
thie
##inished
##edon
##esby
##atro
##atos
##atile
##atineae
inapp
inev
unt
unions
##anou
##itul
##itement
andr
##ingent
##isbury
##omach
##elong
##elines
##amily
##urp
##leased
##roe
##roc
stalled
stems
stomach
##eters
##etaker
whedon
##iris
##teriscus
alv
##imp
##uto
byzantine
conjo
ations
anes
chant
chip
##ulum
##ulco
##esty
sho
shi
sham
shawn
shapes
##osmith
comedic
comrades
##avag
##uman
##odus
202
##opter
##rium
##apulco
plank
##ongated
##alling
exodus
##akers
trout
traps
troms
##istible
spine
spise
spark
enix
##oughts
##ourage
##orda
##astrous
compare
clutch
claude
butler
adoles
contacts
contingent
intro
intensive
manned
grapes
reside
amps
amnest
perf
robe
relat
timed
newmarket
apprent
##tender
sheen
disg
disastrous
financed
##plant
carlo
carrie
caretaker
overth
bred
brush
brandon
upcoming
outlet
outright
##angs
##izz
##ensahl
ears
paratro
##ultimate
joey
blaine
somewhere
somehow
noon
noitul
##mania
##manuel
regulated
warming
accepts
acapulco
emi
elongated
batou
monte
monke
##raltar
defining
defenses
fourteenth
maids
##hips
bros
subty
subsc
subgen
subcontin
laure
singled
strained
impacts
smell
##inta
transplant
brittany
backup
invested
croydon
##iett
neared
infections
inflict
runoff
distract
slant
slaughter
edwards
##elskap
crom
crust
crass
shipyard
expired
steff
barn
bars
barrett
lohan
helik
reds
augmented
bests
effici
##inda
##resistible
magist
justified
134
myers
mysore
array
midst
##ancement
shortest
shortened
detection
builder
versa
archaic
corruption
captained
moresby
moham
approve
##ervois
deluxe
planted
buses
localized
##ograms
viewpoints
skilled
suggestions
##lett
radial
posters
posture
propeller
pressures
221
static
michel
vienna
limiting
balliett
irresistible
hamel
burnside
traverse
excitement
virgil
devon
borne
inserted
holdings
burst
burton
burden
agreements
goaltender
vermont
penultimate
stripped
##bee
commitments
apoc
chapels
halls
deny
denis
hostilities
improvised
salisbury
hitler
##ommon
safely
dominance
cruising
urg
rainbow
responsibilities
choosing
violated
violations
surfaced
quarterf
1871
fisheries
##udeville
diable
sampled
1839
surroundings
coul
rolls
rolled
uncommon
mentioning
robbie
aliens
irony
ironically
frequented
dispatch
mortars
methodist
hawk
juno
punctu
badge
administrator
magnet
spirits
aerosmith
beatles
rowing
speeds
osiris
lifelong
imaging
romans
owasco
suspension
cheers
conservato
rushes
attendant
1820
pulse
risks
rescues
pursuing
washed
precinct
groening
reigning
environments
borderers
plantations
excavated
corey
backgrounds
tanaka
1818
messeng
oversaw
barrows
slender
extravag
cameron
fixture
citra
mineral
riders
customs
trusted
glasses
philosopher
ecological
migrants
monumental
synthetic
freshman
bitter
1790
racism
jainism
preferring
grossed
worthy
license
bronx
assassinated
resource
rebuild
##ascar
unfinished
1766
instructor
thermal
proceeding
##ropriate
oriental
songwriters
shopping
dynamics
retreating
collectors
spaceship
hatred
integration
geoffrey
ericsson
sleeping
congregational
gibraltar
nomadic
crushed
sharply
alteration
weighing
pulling
ascension
gleba
vaudeville
drafts
mitchells
vacant
earnings
depressions
commemorate
exploits
iraqi
renovated
forthcoming
nlf
nueces
prefers
veterans
stunning
liga
panzergren
cytogen
subsidies
stimulated
hastings
fruits
penetrate
coward
thaksin
owls
yangtze
obscure
unreleased
deteriorated
endorsed
guarantee
contradictory
iceland
morphology
hymn
microscopy
gabrielle
dishes
casemates
reconcile
finnish
prestige
mottola
spokesman
barrels
avalon
avalanche
procedure
amylostereum
prophete
slipped
redesignated
eucalyp
staircase
hemmema
dignity
compartments
homarus
algorithm
wreck
sclerodermatineae
a48
spherical
hernan
bluffs
pornographic
courtyard
enthusiasm
dirty
adorned
destructive
kristiansand
bicycle
guru
lavish
ankle
roadblock
configuration
hybrid
pneumonia
curriculum
bunkers
bahamas
derek
ectomyc
fonts
jutland
kantara
lechuck
orozco
sihanou
tbsa
takumi
wiedensahl
werneth
##vognselskap
inappropriate
conjoined
tromsø
spisevognselskap
amnesty
noitulove
subcontinent
helikopter
efficiency
punctuation
conservatoire
panzergrenadier
eucalypts
sihanouk
3ds
ae
coc
dive
dell
duck
dhar
fused
hire
hilda
ile
iod
jov
jih
kra
kree
lub
lans
laps
mour
maker
nan
nik
ply
pere
pores
poven
paternal
rm
rope
raph
roster
spp
sabor
till
tade
ug
vit
ving
viz
vatic
vasco
wise
zen
zack
##rams
##deen
##aig
##lace
##oa
##oids
##woman
##wright
##iere
##ienced
##col
##core
##care
##cano
##bil
##bage
##upp
##gone
##hr
##ho
##punct
##mire
##vor
##vana
##fle
##fits
##zania
thumb
##erget
##erdale
##ndum
##enstein
inade
inability
inocy
##anor
##alid
##itans
##asive
toso
##iceratops
##elic
##elage
##iler
##adru
##adice
##roqu
##aca
sto
stops
forwards
##olate
##oloph
##terial
##iga
##igm
##igen
##igue
##igators
beque
befri
##utta
##emption
anx
ches
chlor
##usz
##very
shades
shelling
##aved
sewer
sued
dear
205
##riuc
##ripted
##aparte
plac
plating
ard
arbit
arterial
exempt
##ghai
lex
##isty
##istically
spru
energet
##antically
##ellers
##orde
##inez
compose
##iper
##ipoli
clamp
##uster
adil
worry
incap
intric
boadice
abdu
abrams
grab
grades
resupp
amounted
##quate
##athlon
perm
reliable
timor
newton
newborn
##okho
hass
aground
##ilee
evid
disruption
meg
mead
carson
outfits
##urnal
intermit
interference
flaws
attaining
tepe
knoll
kneel
asserts
rememb
engr
undergoing
undercover
undergone
aux
empt
elvis
elimination
revision
revisions
larss
speck
specified
##fta
whereby
sybil
broom
airb
draining
drives
phon
strach
setback
##ificent
imposing
smugg
quote
quadru
willie
diver
##intus
transports
statehood
##alez
##liable
creations
concessions
milan
portage
landown
downed
1100
variants
slo
slot
governance
##spoken
crests
exported
expelled
expenses
steamed
prevailed
redoub
augustine
bestowed
modelled
lineup
medals
rao
collided
confusing
nowhere
shortl
restless
eastwards
humour
deton
octagonal
##inae
arches
marching
142
eleg
elegans
visuals
interned
glou
glenn
gliding
251
typew
moor
refurb
delivers
antioch
explores
solitary
solomon
harper
valued
matched
matching
##lington
trades
lightly
##hampton
##ographer
counts
takeoff
##affected
firec
trevor
obsession
sitriuc
poster
210
jacket
propose
propelled
popularised
petit
donors
vik
viii
royalty
veil
woodstock
variously
marker
earthstar
bowled
insight
volley
volcano
odds
homeland
hometown
gala
ruwan
peaks
narrated
verbal
319
averages
sexpunct
natal
fundra
berk
berkel
denial
treatise
hunger
##oxide
improper
hardcore
hitter
premise
snakes
snelling
indication
urging
1868
mcgu
##ophone
qualify
eyed
##selaig
renault
constructing
clearance
choices
likelihood
foods
composing
goalsc
nym
assemble
preparatory
payne
substrate
martinez
36th
panic
450
1846
personalities
malay
malone
examines
bridgehead
analog
boyz
dubai
headquartered
flowing
jerome
jerzy
valleys
concerto
queenstown
##iosity
ambiguous
chiefly
sovets
terraces
magnolia
magnificent
caution
##etta
scotia
constitute
counterfeit
gallipoli
edgeworth
ottawa
melodies
abandonment
cheaper
420
filling
1823
1829
risen
texture
alternating
alternatively
precurs
laboratories
laborintus
bonaparte
scrapping
groove
440
plantation
demonstrations
516
climbing
terminated
typeset
dangers
jules
tanzania
1817
nickel
fatigue
embodied
ashley
assaulting
containers
extras
spectro
reactors
microl
conversely
converting
vicious
adjusted
fragile
splits
definite
cubic
grayish
congressman
catches
catching
hartley
induced
calculators
thinly
mortality
segreg
bhai
mandate
municipalities
eliminating
fanning
mistress
chemicals
stalin
arsenic
enlight
doorway
assassin
sinner
mercer
levi
levy
explosives
cinemat
kitana
pupil
tavern
anzacs
deposition
eliza
stefan
mozambican
polehin
nasals
vegetarian
reagent
serialized
##ogenesis
webster
transitional
1224
doctoral
sheriff
aggressively
proportions
shutout
diagram
congregations
giacom
audiobook
mystic
ordinance
delegation
tissues
rendering
shadows
reproductive
petersburg
errone
erratic
nsb
triangular
patriotic
asteroids
iconography
shields
paranormal
deliberate
recommendation
advertisement
amazon
ruthless
renovation
fascist
prospects
disagreement
continuation
fulfill
ppg
oblig
##tieme
chords
guildford
lauderdale
residues
bosnian
highlanders
referendum
mongols
unreliable
homosexuality
bmw
wolves
monitored
licensing
wheelchair
plagiar
pronunc
klein
lodge
giger
feminist
conspirators
thoroughly
johannes
mistakenly
amylostereaceae
nf6
##walk
exchanged
retrospective
tatanka
arenas
outflank
assaulted
contracept
hospitallers
jewellery
snapper
cushing
tampa
beetons
pleasant
prosperity
vhs
coniferous
checked
rochdale
upgrade
judgment
chennselaig
ironclad
karamokho
scribe
eminent
furniture
pudding
vinyl
vassal
chandler
shanghai
outposts
millimeters
distortions
arbeideren
pesos
capabilities
artifacts
hubbardton
wolverhampton
phylogenetic
hilo
torrential
aberdeen
nirvana
oahu
riviere
##idelity
sprites
storytelling
jewelry
dedu
gonzalez
jiu
jubilee
lunar
lactarius
alamos
confiscated
ingredients
inexperienced
unchanged
jihad
kreeft
mourning
plymouth
povenmire
tadeusz
vingtieme
vatican
inadequate
inocybe
##olophus
bequeathed
energetic
intricate
boadicea
resupply
intermitt
kneeling
larssen
typewrit
sexpunctatus
berkeley
polehinke
giacomo
pronunciation
bing
boring
beller
cute
cites
cds
cafe
dn
dow
fm
fland
faint
fford
fumble
gm
gaza
hect
hats
hamb
kal
kow
kem
kies
len
lign
mural
mash
nem
nasty
ovation
pong
piet
pau
rama
ramps
sut
surn
tac
tuf
uday
vap
vab
wakes
wyn
wagon
yes
yuan
zee
##rough
##rently
##eveloped
##dong
##dtv
##oining
##wet
##wig
##wash
##ijing
##cans
##cane
##kau
##brit
##binje
##uarius
##gge
##gott
##hv
##hope
##sk
##yuan
##pro
##piec
##mers
##mett
##qq
##fish
##zman
thee
theological
##inas
##edict
##edience
##orphic
##atem
##atri
##atitude
invern
incend
##arat
unac
unim
unse
unpr
unmar
unopp
##alation
##iti
andh
toil
##ioned
##repr
##throp
##through
##amic
##urred
##adys
##addon
##lewine
##rogen
stoke
##idas
##idency
reiter
reacted
beijing
##ows
alder
alaska
alicia
##utt
frances
conical
##emary
anup
chee
chuck
chutz
##usions
##ulata
shy
shand
shann
shah
##ainted
##oso
hispan
##agg
##agree
##umi
##umably
##oding
seer
seph
ores
orph
##allister
##allathus
lever
##abolic
##uding
prints
trin
tryp
##seille
spines
notts
##ectives
##ovann
compuls
clade
clips
adolf
twitter
##sover
intest
intrig
scutt
grazing
gratitude
amus
amended
percy
perimeter
roost
reloc
relics
marg
marvin
margins
marseille
##ollo
sheets
evang
disemb
disasters
disagree
caric
carly
overrun
outrage
cannes
cents
norfol
##pras
flames
flock
##ibre
attested
charming
joanna
regain
generic
saqq
buchan
##ericulata
elk
batters
revamp
revenues
southward
colton
defines
mau
maze
##ningham
presidency
presumably
guatem
capability
suppressed
suppression
generators
stranded
locate
locks
smok
willis
##orne
divide
transitive
124
backward
invites
directive
creed
##eping
milton
obama
objected
companions
depleted
downward
slots
sloven
provoke
##erness
edwin
expose
barra
prevents
helena
westbound
designations
##ructuring
modifications
justify
##onyms
shortages
resting
restructuring
accordance
geometry
gunfire
visor
##ceptable
controllers
triat
##erves
delia
easa
patent
patton
basically
soluble
##club
promisc
valentine
ledge
sentiments
realizing
legally
farr
calibre
prizes
curves
debates
clever
freak
differentiated
trebinje
proponents
nightfall
nightmare
nightclub
##brugge
combines
flemish
mounting
criticisms
listened
##shine
fortunes
cultivated
influx
palin
purity
ballot
travers
fuller
wooded
270
sunken
sunshine
engineered
markers
readings
excommun
casino
casuarius
devout
insign
campaigning
burg
specialised
researcher
galericulata
prediction
colleague
selections
##loo
identifying
29th
##axill
informer
apse
apollo
wrought
402
currents
honolulu
denying
hyper
##marks
fauna
premature
rosey
madhv
holmes
probes
##grounds
mcallister
qualification
practically
inhalation
middleton
macfar
mosaic
priorities
painters
wilder
wilderness
specifications
erlewine
violin
futur
literal
establishes
breakfast
garrett
transferring
sampras
caroline
payette
1835
occupying
motown
staffed
marty
martel
martyr
cataly
1841
malaya
greenwich
boyc
birthplace
synonyms
cello
celebrit
learnt
settling
mastery
winged
terrace
craw
##meny
beachhead
benign
bombed
twenty20
acquaint
ignor
gait
lifes
undef
undeveloped
fearing
bidding
90th
uttar
masked
translate
##osphere
complaining
emperors
bedroom
cancel
pursuers
bollywood
lotus
kramer
scrub
savoy
448
responding
wintering
progressing
communicate
categor
climb
1816
intersecting
clarified
apartments
murderer
bishopric
rugged
oversee
waited
appealing
campuses
admiration
shao
polygam
polythe
spectral
feeds
favourable
640
dismissal
chapterhouse
adjoining
minded
distribute
distributor
problematic
cuban
rodman
roddick
resembled
biographies
plums
460
catchy
catchment
migrated
wishing
nazis
vulcans
##iroth
1795
##ezvous
astronaut
ronnie
romeo
1648
organizers
microscope
speeches
rosemary
##adowed
champlain
sponsors
attractions
hindered
descendant
exposing
72nd
barbad
astronomer
pollution
1127
declares
culver
1761
censorship
tyres
hemlock
swords
katie
clayton
simultaneous
automatically
dimensions
pageant
sadness
saddle
ancestral
acknowledge
transitioned
prohibition
gracehope
perspectives
puppeteer
insurgency
exhaustion
diamonds
doctrines
0600
giovann
skulls
densely
sugarcane
merchand
inherent
illeg
disturbing
lambs
wetlands
frog
piggott
vaulted
crystall
rendezvous
amidst
##grove
forgiveness
trends
succeeds
ludwig
conspicuous
sparse
promptly
devotional
aaa
nicol
guerrero
guerrillas
sociological
excluding
jarvis
scouting
appreciate
chromosomes
cosmopol
fertility
megalithic
nobility
fruiting
concurrently
assuming
redeveloped
corporations
##ocyst
amendments
autonomous
torture
clerk
bucket
endorsement
guaranteed
contradictions
dalmeny
sacrifices
uyghur
mondlane
taiyuan
buttons
disguise
herbiv
montenegr
confirmation
unexpectedly
nostrov
mentmore
incredibly
dilke
spoiled
uncovered
outflow
assaults
contraception
hospitaller
drowned
telecommun
emigration
annoying
ridiculous
gifts
plenty
recaptured
maneuvers
flawed
mumia
cohes
steamboat
incorrectly
taxonomy
jessica
kodokan
stupid
unanimously
bryant
pumping
prognosis
prussian
compatible
dooley
crossover
spontaneous
cunningham
kanata
klingons
verne
exemplified
diminished
notoriously
posthumously
syllables
vickers
exaggerated
revisited
libretto
inheritance
ernst
venezuela
hereditary
guangdong
illuminated
galleys
franciscan
ibrahim
virtuoso
tsubame
aaron
władys
ineffective
foremost
leisure
truncated
gracie
sergio
applause
ukrainian
transept
ptolemy
cylindrical
dnl
flanders
ffordd
hamburg
kemal
kieswet
surname
tufaro
vapor
vaballathus
zeebrugge
##kauhor
##pieces
inverness
incendiary
unacceptable
unseen
unpredict
unopposed
chutzpah
shannon
hispanic
sephiroth
compulsory
norfolk
saqqara
guatemala
madhvacharya
macfarlane
celebrities
giovanni
cosmopolitan
nostrovite
władysław
kieswetter
60s
70s
90s
ais
beng
bench
cc
cis
caster
caut
citation
cults
dh
dy
d4
dame
dances
dots
ducks
eternal
fay
fult
gc
gys
gany
gareth
hated
hilar
hinted
ions
jell
jake
jets
java
jitsu
kay
kess
kaz
kung
lent
lamp
m4
mice
mick
nal
nect
nub
nwa
ogh
oars
pore
pia
pests
pasha
rer
rut
rous
rational
raz
rented
riker
sake
seld
sighted
sosa
tate
tens
tann
tyl
tata
tyr
tiber
upt
wig
welf
xu
ying
zion
zwe
##rera
##eing
##nick
##daur
##aul
##lah
##oque
##ofield
##wll
##wych
##waters
##iage
##cour
##kward
##kaz
##kind
##top
##bodies
##gered
##hant
##smont
##yd
##yi
##pic
##pine
##mings
##master
##frey
##xide
##zing
##zel
##zong
##1st
##jee
##jiang
##erb
##erun
##iner
##oni
##eses
##orers
##orously
##atu
inlet
##aragu
unas
##anian
##anium
##itoba
##isely
##icke
##omfort
##elia
##ilib
##stop
##stri
##amis
##leum
stib
stole
stipe
forts
##lysis
wholly
asi
asth
##olent
##oline
##olera
##olatum
##igatum
reese
rewrit
alec
##imir
##utors
fright
fraction
conced
##emani
ancon
chad
chul
chased
cholera
##usir
shane
shattered
##avira
##agascar
##umann
deacon
##essible
##opers
neosc
##apteriscus
##illan
##illusion
##iffer
plaus
plann
arctic
##allah
##akut
##ppe
areolatum
##udy
prone
prpic
traw
trudy
spous
splic
spenc
sphere
enri
##ieff
##anty
##antled
afanas
##ellations
##ellular
herding
compelled
firth
worms
contention
intending
boards
boeing
abe
abdom
abusir
##achi
manitoba
scan
grims
amster
ample
##quemani
relying
relocation
##ateral
timeline
usace
commended
##pert
##oguan
##irected
##assic
agnes
##tees
disgr
dispar
disston
disillusion
mev
meals
carc
carne
carriers
weaving
weaker
imit
overpass
bris
##ffir
uphold
centred
centenary
norbert
indent
indul
indemn
interacted
interface
##ibars
moreover
attachment
parsons
secrets
poeh
assumes
consul
consume
consulted
warts
warns
warwick
underm
understory
saffir
mined
minig
starr
bund
endured
endurance
acron
auction
battered
revue
monolog
monastic
speculates
syr
syrian
suborder
airstri
callisto
drill
lao
laev
opus
strum
polished
imperson
addicted
countess
belly
backs
instability
croix
1600
showc
crex
operatic
##ankar
olds
portal
deprec
depaul
continually
##erty
providence
juice
cracks
discr
discus
steering
barge
barron
barges
baroque
##inski
lois
loops
respects
advancement
headwaters
persecution
##omanches
augustan
modification
##aziland
idyll
lineage
lineback
13b
protoceratops
prototypes
classify
arromanches
midday
midlands
confessed
rested
builders
arched
archie
archives
##appers
148
141
tops
menu
##rency
glider
##undara
##ceptible
moe
moines
destined
socks
socially
##venir
refuse
deleted
305
supportive
explorers
basel
basins
swaziland
valentin
farley
localization
##mede
viewpoint
fewest
##ographed
contrasts
frenchmen
parkway
behead
freight
freighter
differentiate
superf
##affo
funnel
treble
##icoe
##vesen
donation
freeze
freezing
285
cultivation
grounded
michelin
viable
##boat
traveler
equilib
facto
sunset
sonic
torso
primaries
broadside
netfl
casa
knowles
certification
turtle
volt
burt
matilda
discovering
rhin
homs
homage
predatory
goalball
goalkeeper
narvesen
biology
journals
bayon
colonization
pitches
copulation
copenh
railways
290
informs
nato
creators
honored
berman
berkshire
treating
treaties
separates
quarry
hymen
cardiac
floodplain
towed
tomas
madness
madagascar
costly
pastoral
talents
uranium
sequels
employs
mcdonald
crewmen
macv
khe
susceptible
venice
nominate
kilograms
futa
ballet
balanced
##lining
forestry
lining
lineman
dissatisf
assemblies
##lessly
motives
motoko
368
catast
angelo
otter
layne
peterborough
robes
synonymous
empires
boxer
ambitions
settings
productive
soval
benz
bradley
logan
careful
consideration
finishes
32nd
galleries
##weller
thicker
accompaniment
awkward
plea
undirected
combatants
foliage
babyface
casualty
fruitbodies
##anasundara
dismantled
attendees
1826
1828
bulb
modeling
soundtracks
precisely
sirius
northeastward
scranton
grosmont
lux
horsemen
surveying
nestlings
1813
1811
dreamers
1808
oversh
etat
boris
kajal
container
shaoguan
spectacular
emphasised
neutrons
depths
palestro
eagles
ivor
philosophers
emotionally
raiders
jefferson
hartford
calculations
freshmen
trailing
cinquemani
daniels
nazareth
loving
bernstein
conductor
manders
concealed
kiryat
1646
1643
motorists
terrorism
niche
wrestled
exceptionally
marlene
1776
isolation
stephan
magician
packaged
gravel
miracle
muldaur
77th
mahavira
tabern
conscience
randolph
690
plunkett
dodgers
optical
stretching
coty
brandy
consuming
listener
axe
hudders
misle
naples
confronts
detailing
blows
willingness
##ogenic
convinces
1625
answered
confederation
transcribed
1616
gibbons
remembering
1660
switched
marrying
phrases
1234
euph
salvation
poisonous
obstacle
frozen
gorillas
implications
draftees
diplomat
analysts
1650
proportional
buddha
succeeding
ragale
exploit
exploited
bomber
pfa
uniforms
complications
intellectuals
renovations
hansen
inferred
prospective
scarce
scarlet
continuity
innocence
hayes
nicaragu
ravana
jurassic
nameless
aggregator
##ratina
granada
guidelines
oklah
triggered
dislike
farmington
phenomena
reopen
consolidation
kauf
kauffman
lauded
fiji
resurrection
accumulate
hastily
concurrent
denominations
vigorously
intrud
simplicity
conveyed
comedies
gamma
lanthan
stereotyp
cockpit
carriageway
patches
executing
reminds
colombian
petitioned
templar
reconciliation
whitish
bendis
kinney
anatolia
counterattacks
cylinder
repetition
##alypse
indoors
paradox
mcmaster
dissenting
hemmemas
emitted
gifted
poured
plentiful
recapture
maneuver
subfamily
petroleum
rufus
abnormalities
ecosystems
bourbon
iberian
iberia
porch
pandu
antibodies
bachchan
reworked
inclined
schmoke
babylonian
uhf
reluctant
consecrated
constraints
krasinski
aesthetic
cossacks
gutierre
lungs
inaccessible
pendragon
bottle
dupri
gazette
qinzong
isaac
chasuble
supervising
orientation
dreadnoughts
cummings
perpet
slabs
dareus
andersons
antarctic
flexible
bankruptcy
gemma
enrollment
subplot
capitol
convincing
sleeves
pilgrimage
penguins
rabbi
t30
contaminated
prescribed
morocco
basilica
frankfurt
mitochondrial
eroded
hetman
kalyanasundara
lounge
alvarez
paratroopers
crassweller
urgent
spisevognselskapet
remembers
aisles
cistern
casterman
cautious
fulton
gyswll
ganymede
hilarious
jellicoe
nectar
oghratina
piazzi
rerouted
rutgers
razor
seldom
tannery
welfare
zweig
##court
conceded
ancona
neoscapteriscus
plausible
planners
splicing
spencer
afanasieff
abdomen
grimsby
amsterdam
carnegie
indemnity
poehler
acronym
laevigatum
idyllwild
equilibrium
netflix
copenhagen
hymenium
tabernacle
huddersfield
nicaragua
oklahoma
gutierrez
gyswllt
aq
aj
azz
akin
bess
bism
bisc
bsu
cw
ci
cay
cull
cnn
das
dillon
eis
fence
fool
fades
fancy
fanny
footh
fumbled
gum
gins
hitch
hipp
ick
icy
jor
kor
kas
kest
kart
kov
kok
kens
kara
kedar
lip
lively
lomb
lanka
mered
mug
mecca
nr
nil
nant
npr
nha
o2
osh
pied
panned
pector
rn
rol
rip
rans
ried
ranch
raven
sak
sails
sodium
sogns
tab
turing
tails
tipped
tjo
uter
vale
vivid
violet
wily
waking
ym
yat
yuc
yah
yeast
zy
zel
zart
μm
##nected
##nik
##dych
##ais
##afer
##ls
##litz
##oise
##with
##wicks
##iat
##iography
##iwell
##cow
##cious
##kong
##kov
##tec
##tings
##bab
##uil
##uably
##gau
##gae
##horn
##hange
##hurst
##pat
##pius
##mate
##mian
##mons
##moon
##moil
##vann
##fo
##feld
##front
##zon
##40
thurs
therop
##eros
##inos
##inities
##intend
##edia
##esa
##esel
##oreline
##orjan
##atan
##eneration
inact
inshore
##arine
unlock
##anic
##aney
##alt
##alg
##alers
##alain
##alment
##alified
##itting
##isse
##iscl
##isaurus
##oufl
##omed
##omial
##elim
##elae
##ilia
##thed
##thood
##step
##stars
##amation
##amia
##urated
##lez
##leton
##robe
stol
stip
stuck
stelae
forbs
forelim
##etically
ascle
asym
##olk
##olith
##idt
##iduous
##idfeld
reiss
reuter
aligned
alden
alma
##imier
byway
fresco
fraud
##emes
##emus
##emical
##emorial
##otted
##otamia
chun
cheer
heather
hebr
heidfeld
##ulatory
##estones
shelf
shrop
shula
shoreline
##agn
##agements
##agorda
seizing
##ctory
##opoly
##opotamia
negr
##rials
##rific
##unches
##unami
plated
plumes
arish
arising
leak
##abol
##uded
tricks
##istina
sple
spanned
spikes
enact
##oughby
##ortion
recounted
computing
##iph
##iah
client
clients
adel
adher
adorjan
worcestershire
twe
twist
incense
contex
intake
abbre
aboriginal
mana
scripted
resisted
residing
resonance
ampl
amiga
##qualified
rover
rooted
feather
marqu
marquis
mariners
##assi
##asses
serp
applying
agassi
yearly
sheer
sheikh
evan
##itioners
disqualified
mekong
offseason
finances
fincher
##plo
cared
carrington
wend
bram
brest
##ffen
upright
centiped
coil
cooke
deciduous
##press
##urned
##ricated
##ricia
##izer
##izable
##ensation
parole
pools
charities
chariot
tea
accession
thematic
mayo
mayer
remade
remission
remedy
howitz
regret
reggae
regeneration
regulatory
engagements
underparts
northumbria
peat
pews
stark
starboard
emmanuel
elaine
monsters
monroe
monopoly
##eytown
##onscious
presided
submission
schafer
schemes
airways
0000
##ternish
suppose
launches
generous
phones
strive
##ologically
impending
simmons
willoughby
divert
divinities
originals
transmissions
millimetres
backstory
invade
invoked
invalid
instantly
crowe
croats
operators
este
##epec
##ietta
inflam
deposed
signaling
landmarks
##spur
juxt
cries
crude
cristina
discred
steal
damietta
annie
preview
##ucket
majesty
missiles
camped
servant
greco
publicized
132
titus
midland
rests
avon
blackstone
humil
particle
janelle
archive
entries
universally
geographic
geffen
253
morels
morhange
moh
trioxide
##ballus
refined
explode
patricia
fieldfare
realise
convince
standout
oppose
replica
lesson
counsel
freeman
superb
supervised
superintend
##aeus
funni
funnels
caste
##luor
goldman
goldberg
combinations
romano
romanesque
latitude
petra
262
cycles
fortification
africans
affinity
humanities
vij
arguably
puritans
limb
ballads
irb
hammond
equated
illusion
announce
vein
introductory
27s
brienne
bowie
bowman
turmoil
volcan
walled
wording
hotspur
matagorda
protege
animations
verb
commentaries
biased
310
bays
bayern
identities
avery
birch
birkin
encore
inspire
sourced
halliwell
sanford
berio
berdych
denoting
recognizes
hardware
widened
sala
cardell
intervals
faults
tomatoes
costa
costing
dominic
paste
expressions
35th
##denberry
urine
employer
##goballus
##ophag
escaping
eyew
renumber
practitioners
clearwater
##ermo
moscow
socialist
khmer
chooses
mccay
mccoy
susanna
muster
##esha
threaten
economically
multin
hooked
assisting
coached
approximate
semitic
breakout
garner
truce
scenery
sampling
motiv
motivation
gradual
montagne
boarding
malcol
hopkins
unconscious
immune
immemorial
largs
jeremia
hearted
hairs
conclude
pairing
keepers
ambient
purported
chiefs
camoufl
bounds
bounded
3000
kicker
accessories
gallons
osato
fittings
melod
melting
undet
imagined
reinstated
romantically
abandoning
drumming
sharma
cheap
necessitated
bedard
attendants
1822
1827
blocking
somaliland
controversies
##comed
apparatus
scripture
grooves
toned
entrances
luthor
expresses
demonstrates
grasslands
charlton
taneytown
1812
1803
pounders
##heral
encouragement
surreal
delaying
doubles
shaiva
49th
polyg
spectre
functioning
emphasizes
65th
repeats
flagler
sori
requesting
darpa
ivory
533
youthful
rods
roddenberry
ibm
vertically
brightness
maxwell
hartman
calcutta
graduation
sudan
parallax
1793
fashioned
cheltenham
cooperate
riverside
libraries
isabel
wrestle
mistakes
1772
1775
1770
dubliners
rotating
rotten
winslow
souls
necklace
resistant
hanover
hanuman
mutinus
cinematic
tablets
pavil
culinary
echoes
kelley
recruits
disciplines
unnatural
660
blew
grief
psyche
psychiat
infrared
morality
bureauc
consumers
nasal
optional
yanjing
1219
tsung
tsunami
serialised
blowing
sidney
precedent
pioneers
webb
webber
stripes
inaugurated
bossy
oaks
ellip
folds
horizons
wardrobe
alterations
predominant
rectory
sarc
sighting
obstruct
skeletal
welcomed
perceive
metropolis
theorist
expertise
consulting
possesses
##scopic
doremus
gillian
recipient
exploitation
yielded
1553
dictators
neighbours
lincolnshire
noticeable
crabble
namco
easterly
1170
sociologist
evolutionary
ricky
preserving
cosmic
conformity
feudal
auditioned
neutrinos
mantellisaurus
resurrected
accelerate
genuinely
linda
overturned
lucasfil
lucasarts
luminous
pledge
tornado
shocking
deterioration
hugo
mesolithic
mesopotamia
pml
lebanese
knocking
broods
eclips
tobias
rejoin
trenches
microscopic
monday
taiwan
heinz
1800s
1150
copperfield
scratchley
nostalg
feminine
bahrain
nf3
zimbab
swallowed
honeymoon
altitude
paradigm
syndrome
129xe
compartment
manifestations
gesture
kettering
henderson
steamboats
taxonomic
optimism
inconsistent
prostitute
inclination
schmidt
degenerate
reefs
intends
extraterrestrial
extraterrestrials
ibari
unicorn
coyotes
middlesex
authenticity
swansea
antiquaries
lamented
peripheral
lynch
derivatives
etymology
eukaryotic
jamaica
mimic
leopard
levee
lofty
cornwallis
fluorescence
cigar
chaykov
prevailing
humidity
trotternish
mckay
voluntary
nominee
zimmerman
mfume
##iyah
feasible
nocturnal
quotation
nucleolus
maclagen
ethiopia
enclosure
eclipse
pamphlet
kressenstein
rouge
vincent
subgenus
steffy
extravagant
jovian
raphael
##fleet
befriended
lexington
spruce
incapable
emptied
phonographic
strachan
quadruple
sloan
detonated
elegant
goalscorer
precursor
typewriter
aqha
bessin
biscay
ginsberg
hitchcock
ickes
jorge
kaspar
kesteven
kovalain
meredith
nantucket
oshii
piedras
pectoral
riedesel
sognsvann
ymca
yucatan
yahoo
zygoballus
zartan
##patrick
thursday
theropod
stolac
stipulated
forelimbs
asclepius
##imierz
frescoes
hebrides
negras
contexts
abbrev
centipede
howitzers
juxtap
superintendent
funniest
volcanic
renumbering
malcolm
jeremiah
psychiatric
bureaucr
lucasfilm
zimbabwe
chaykovsky
kovalainen
aus
aak
aide
apl
bg
bored
bung
cil
cere
cess
cord
cite
cpr
cured
cogn
coven
cogan
d6
d5
dart
dix
dash
daly
drif
fidelity
gat
gilda
gotta
hight
hail
houl
ione
ips
iroqu
jall
jerm
joked
jumped
ked
kre
kass
kamil
lil
lance
lacy
moll
melt
mama
ned
nay
ness
nour
og
ore
oss
piz
pius
pads
pfl
qf
rour
rage
rides
romm
sg
sury
sorts
sars
sights
sully
sago
tak
tart
tah
tyn
tlc
vor
vain
vish
vance
vamp
vai
viney
wign
wards
wires
wiped
wdtv
xion
xia
zong
##rin
##rals
##raction
##ratory
##do
##dress
##aib
##lanc
##car
##cad
##cely
##cup
##kirts
##bag
##bucks
##gement
##gling
##haddon
##sity
##yster
##py
##poration
##person
##mn
##mu
##mart
##mind
##vas
##vil
##vall
##vings
##fere
##fork
##xx
##zan
##2o
##just
##ʻolulu
##eres
##erah
##erosa
##inte
##inating
##inwood
##onbury
##enes
##enus
inez
inactive
ingestion
##aras
##arms
##artha
##arhaddon
unin
unev
unpa
uniqu
unjust
##itory
andorian
##ingdon
##asi
##asia
##isch
##isem
##isine
tox
##ouw
##ionation
##omaly
##elly
##elect
##ilated
##entric
##entful
##thi
onward
##aders
##leep
##acios
##acrosaurus
stam
stint
foresh
##etto
asleep
##irmed
##oler
##olan
##terranean
##ido
##idar
##idable
##idium
##idemic
##igs
reused
reacts
beams
alm
isth
##utic
##utational
##utiny
friction
framing
conning
conve
congestion
##emaker
##ersion
##erside
aten
atkinson
ans
anthodon
anomaly
chir
chong
chew
hey
heine
heating
heyl
hebe
##uling
##ulse
##uline
##estre
shin
shade
shang
shores
shelled
shoe
##osome
##oshi
##aviolet
##aghan
##odo
sepin
suz
sunder
dee
degraded
##opus
##tedly
nek
neur
neural
neoceratops
##uns
##unge
##illion
##illtern
ara
arrow
exits
exotic
##ardon
##ocative
##occup
leap
##udd
priced
triceratops
##istingu
spind
spars
##iev
notified
##antry
recyc
reclass
##astopol
##astonbury
herod
herries
compelling
computational
##iphan
##cco
##ueger
claus
cleland
twigs
incub
intoler
bog
boog
boating
booms
abingdon
manpower
manila
maneater
scarf
allan
gruff
grunge
roosts
newst
useless
##ogly
##ogamous
##ignant
mara
marian
marco
desirable
deserves
agn
goose
goats
##luded
disk
disorgan
meal
finely
##plech
carvings
weiss
overhead
branded
bricks
upro
upward
outlo
outworld
canvas
##prises
indoch
interchang
interlude
interfere
flats
flax
parcel
charism
formidable
tender
blaz
blessed
blessing
knot
noises
##cester
mays
##manaman
thriving
warship
engages
##olde
genev
workplace
saund
minus
starbucks
##grad
##philis
eller
elrane
elastic
batch
winn
revive
monsen
monaghan
monogamous
repel
reply
repelled
syphilis
retitled
presidents
subterranean
capel
schumann
drilling
severed
epidemic
epiphan
supper
singular
popmart
pola
impose
implying
additions
countdown
quoting
quasi
simulate
##into
transmit
transvers
backyard
invaders
descript
##vez
showcase
milky
obey
metis
infect
infested
signings
##area
varrick
varsity
##spe
provoking
sixteenth
edgar
cramp
crested
discern
steele
steeltown
annular
barack
barrage
looting
redisc
austen
passport
nationalism
##ucent
##ucasian
headdress
weevil
misses
effig
##azaki
eurasia
greens
greeted
mediate
medioc
dueidar
myles
##ieres
brew
ava
avian
blackley
entrepr
geology
christina
marches
149
corrected
visually
powerhouse
glossy
glowing
glastonbury
254
morally
demos
refin
refres
antique
antelope
antisem
##entional
enterprises
villiers
harford
swung
handbag
champu
makeup
sentencing
farber
reprint
localities
presenter
lowell
priory
leveled
curse
curtain
curiosity
takeover
supermar
frieze
firepower
castile
postal
215
totaling
232
walton
popularized
pressured
richly
richter
draught
petty
facel
hauled
georges
##shires
donn
freeville
ordination
##encia
heroine
paler
palis
palacios
hampton
announcing
technological
tenor
projectiles
sonthi
##apeake
##apeutic
needing
cups
insists
scientologists
holden
holders
burgh
langer
specialists
procured
galvez
predation
commentator
bike
31st
pitchfork
sexes
encycl
committing
chapat
wrang
inspection
creativity
florence
denver
treats
separating
roberto
quarrel
hostage
hardest
salem
faust
duel
duvall
madame
bravery
safin
pastor
ultr
eduardo
##mington
windsor
mcle
mcfar
mcmanaman
##ophon
macrian
poorer
wilmington
strengths
platt
vener
threatens
potatoes
testimon
hoʻolulu
certainty
balestre
banaras
##forward
hubert
sammy
occupational
motions
motors
graded
lordship
twenties
panthe
1843
cathedrals
angela
digest
malta
greenish
greenland
lays
layered
uncont
robed
robbery
scholastic
cadet
flowed
tarant
sync
38th
jeep
bordered
vanity
vanished
disposed
sevastopol
morton
punish
impressions
caucasian
spiral
revolutionaries
scheduling
astro
osaka
pathways
unden
undoub
underside
candy
candace
policeman
searched
disappro
missionaries
handsome
chemist
enjoys
compressed
comparative
incorporation
bonding
translucent
kilometre
vocalists
taxon
##evances
branched
pursues
protestants
questionable
precision
braathen
alexandra
bolster
weary
laborers
scrutiny
ghar
44th
767
globular
liberator
sustaining
recommending
viewership
climbed
muscular
illustrates
illinoise
1810
hersey
##nyi
claret
clarke
measurement
1804
1809
tuned
##herent
mechanic
mechanisms
conflicting
planetary
durga
ashbee
exhibitions
waist
spotlight
extract
polynes
polype
spectacle
emphasize
##imsa
cookbook
mobbing
citadel
mickey
rarity
convergence
lucrative
vicars
encountering
ridden
conditional
shelton
darren
darling
snowy
rodney
repairing
southwestward
straightforward
cooled
migratory
calculation
iguana
dialect
honorius
lovely
##blad
updates
mandated
amlaib
950
niches
gregorian
wrestler
gaba
gabon
muang
rosso
tottenham
enlist
decreases
descending
bridging
jesuit
packs
##uliar
assassins
bolivia
esa
esarhaddon
sinatra
1605
590
sorties
addressing
mozart
mutually
levant
1126
hypacrosaurus
undertake
undertaking
unfav
intentional
flashes
strategically
scientifically
##niel
holidays
##manship
antony
prohaska
equality
equaliser
grievances
psychology
dodos
therapeutic
874
netherland
bafta
correctly
styled
lbws
axel
utility
1217
eccentric
fledgling
spends
implementation
1221
shakespearean
oakley
integral
1615
gustav
altering
appropriately
krakow
fingal
orbiting
caesarea
piercing
ascot
shearer
loaned
innovations
cuisine
lambert
paleont
solemn
acknowledges
delegated
resigning
kimi
ribbon
ribosomal
incompet
coffin
turbul
burials
##enzie
marginal
reproduce
installment
installations
1632
ahimsa
jetport
amidships
condemning
hollinwood
sabo
anchored
yields
obviously
mathematic
##anagara
disbandment
inhabits
fascinating
isotope
disagreements
overlapping
pagodas
presbyterians
mgb
brainwash
##inawa
livelihood
piccad
peculiar
advocating
immortals
okinawa
##lusive
harmonies
hungry
lionel
forehead
internationals
cosmetic
mackenzie
anticipation
repertory
conformation
manipulation
manipulating
irregularly
pamela
##wanath
fruition
redesigned
penetrating
crafted
receptors
lonely
autobiographical
fragmentary
lecture
lectures
compromised
vibrant
toxicity
ascending
adequately
ponderosa
prayers
brutality
lodged
revered
reverend
indirectly
warehouse
makers
arnhem
spokesperson
akira
mentally
procedures
glacis
baht
rudolph
aquatic
nitrogen
rpm
riffs
anthropology
pilgrims
telecom
cladogram
fisherman
hierarchy
hierogly
hutchinson
seedlings
screaming
outskirts
homarinus
brahmin
brahma
algorithms
ketawa
conifers
searches
filmmakers
haunted
galileo
judgement
optimistic
jesse
pencerah
sacristy
unanimous
vesta
admitting
rogue
reluctance
constrained
krasnyi
cemented
grasp
vicarious
nottinghamshire
spillway
delightful
manoeuvre
manoeuvres
kawartha
reptiles
choreography
seawall
nebula
reliability
1390
classrooms
llanilltern
masculine
dialogues
nutrients
subdivisions
gavin
jakob
meadows
blonde
councillor
sawmills
utterly
dhangar
falsetto
armenian
avatars
screenwriter
aristocratic
mithra
steeplech
dissolve
embroiled
anatomy
##mendra
apprentice
disgust
monkeys
subtypes
quarterfinals
messenger
cytogenetics
ectomycorrhizal
dharmendra
iodine
rml
zenobia
chesapeake
chloride
ardan
permits
engraving
speckles
redoubts
nymphs
obliged
plagiarism
kowang
andhra
toilet
amusement
evangel
disembark
carlyle
maui
promiscuous
lifespan
culverhouse
stephanie
bungie
cilicia
hightower
houllier
ipswich
iroquois
jallon
jermaine
kedok
pflueger
rourke
rommel
vorenus
vishwanath
vampire
vineyards
wigner
##lanca
uneventful
unpaid
convex
heylin
hebei
sepinwall
sunderland
sparsely
recycled
reclassified
incubation
boogie
gruffudd
outlook
indochina
interchanges
saunders
epiphany
transverse
descriptive
rediscover
mediocre
entreprene
antisemitic
supermarionation
ultraviolet
mcfarland
macrianus
pantheon
undoubtedly
piccadilly
steeplechase
50s
aad
aol
bb
biz
bits
bony
biting
bids
bds
bouts
c5
cly
cia
cork
codes
cns
dand
dans
dose
dove
dund
dump
drey
drier
e5
erect
erupted
fo
fade
fury
fiance
fbi
gown
gaster
gacy
glands
hp
horm
hint
hench
ig
ich
iago
istan
jig
jian
jma
jaws
jervois
kud
krit
kip
kray
lore
lomon
menn
meng
mund
merv
muck
mugh
mocked
nts
nails
nacht
ou
oas
ought
pod
pess
pits
paced
porter
pinn
pumps
rall
rust
ramb
ripped
rosen
ricks
sia
ssh
sask
tones
tuls
vokes
votive
wn
wav
wage
waving
wih
xinj
xvi
yale
yuk
zur
zilt
zeit
##roup
##ranes
##rano
##rarian
##ruding
##eated
##eous
##ept
##nas
##des
##aan
##aum
##aism
##long
##lave
##lights
##wl
##crie
##cycle
##kang
##tke
##tred
##ben
##bad
##bul
##bey
##bane
##uaries
##gmont
##gusa
##hot
##hill
##hbo
##sd
##slides
##sillon
##yuz
##pitz
##mere
##metic
##vent
##fx
##fad
##fter
##fus
##fried
##fax
##function
##furst
##xis
##zas
##91
##inite
##inters
##initely
##oncl
##esized
##orement
##atial
##enong
##enport
inund
##arre
ung
unrelated
##anar
##anosom
##anxi
##alach
##itating
##isław
topp
togusa
##icot
##icoot
##icemen
##rea
##reen
##reum
##omics
##omorphic
##eles
##eliness
##amin
onstage
##urti
##adation
##adically
##roys
##rogate
##acp
##acab
##acerb
##acellular
stet
stard
stric
stowa
forster
forfe
forerun
##etary
whale
asyl
##irth
##irka
##ivided
##idd
##ithmetic
##igi
##igall
##igua
reid
reint
reapp
bees
beaum
##oway
alk
algy
alumn
alarmed
##imistic
itc
##chief
##chandra
fring
fries
congression
atv
anterior
cher
choc
chesh
choms
##estown
##andro
shab
shake
shining
##osov
hispani
combs
##agram
##odont
sega
suu
suv
deau
neill
neoc
orson
##tshire
plots
##iche
##onga
arne
arises
arithmetic
exacerb
##therham
##ishchandra
##ppage
##ppings
##ghad
lept
leone
leaping
##aborde
princes
troup
traged
trappers
spun
spouse
spurs
spouting
hadar
enables
enraged
##ovick
aforement
recounts
heresy
compend
200th
incidence
incurred
inconcl
##ighton
intrigue
abl
abused
abram
##ptical
mankind
scaff
allusion
alluv
alligators
grind
resent
resum
resume
amor
amusing
##quay
##atham
pernick
roan
roomm
rotherham
relies
commence
##raver
maroon
whoever
appreh
appalach
agon
aggression
agrarian
goeb
evade
disord
mehbo
finer
finch
cares
caring
##anson
weinstein
imitated
overr
overfl
overha
##ffington
upn
outg
outward
outline
outgoing
outraged
outspoken
cane
canaan
centric
centennial
coining
norwich
timeout
indis
indef
indira
##izations
intert
##ensible
##ibu
parable
pareles
##actic
charters
teens
souvenir
##iedad
##ksander
blade
blanc
blanche
knicks
accusing
mayors
mayne
asset
thrust
thrilling
regency
regurg
regroup
##alsh
engraver
##olding
geneal
##formed
northwards
northampton
peptide
filmfare
workforce
sauber
minted
sob
soyuz
softer
libert
thank
##grath
buchar
acarya
emerson
embed
poses
lars
moncrie
monetary
southbound
speculate
colchester
reporters
wherein
retake
retention
guess
schofield
drs
surak
supplier
laird
php
populous
wills
##orns
divides
transf
transpar
transcend
belts
brittle
mainstem
invading
##like
crev
creighton
##roned
conclave
##atchew
##ietal
infamous
##tones
depended
signifying
158
sloping
slogan
##sport
proving
famed
juarez
edmon
edmond
discography
discrep
barcel
looted
anyway
anymore
advisers
owns
nationality
##ucius
headsh
headlining
millionaire
augusta
efficiently
##upathy
schooling
camping
campech
finalists
servicemen
greatness
eurasian
##ahon
##ahar
characterisation
medication
raided
titular
protoc
protruding
stormed
waterline
restoring
avi
eastbound
##utional
turnover
archde
geograph
geologists
geopy
christie
146
cori
coral
menkauhor
menzel
halen
halle
internally
apricot
destroys
sociedad
organising
refining
refinery
refrain
delaborde
antimon
antigua
exploded
patents
paterson
##ismo
basidia
sola
harih
harriet
harassment
harishchandra
sworn
swelling
handing
handwrit
standings
fars
reprised
presenters
personified
cald
calam
replaces
replicate
skies
bandicoot
membranes
curator
englishwoman
behave
##minate
authorised
authorizing
##aea
referencing
##aurolophus
stronghold
firefly
despatched
castro
internationale
competent
walters
propulsion
combining
267
grandmother
georget
criticizes
fortnight
donor
28s
agenda
bodyguard
palaces
argosy
miy
massac
ballroom
irv
irrit
irresp
davenport
##brough
connery
fullback
meanings
sunny
torquay
williamsport
wentworth
figur
earthen
viral
deva
devi
devoid
devolved
frontman
turf
burrows
bursts
##gett
olav
atlas
lyd
seafor
merry
motherboard
narr
verge
verde
biom
312
314
strikers
davidson
##beth
406
403
inspiring
machismo
berardi
denise
denounced
recognizing
hostility
salman
departments
duets
brawl
yardage
snout
ultra
athens
##olev
indicative
reductions
dealings
mcfad
mcgrath
christiana
investments
educate
macpherson
macbeth
wiltshire
socialism
platoons
veneration
nominal
erard
judas
judaism
potent
pottery
interviewing
facebook
republicans
pacer
assistants
fishes
changeup
semester
breakage
breakup
breakthrough
diem
diagonal
garments
huffington
domains
substrates
cyclogenesis
martyn
watkins
debuting
digg
malibu
ferreum
babe
droppings
temperament
hearings
frequencies
vanya
bowls
favorably
unitary
keeps
guarded
yours
adopting
camels
pitted
punished
masterpiece
standardised
jamestown
administr
shootout
corpses
magnum
benares
bradbury
initials
investigates
astoria
purchasing
africanus
aleksander
gallien
pathway
markedly
awful
awali
lifting
banker
undivided
essence
policing
searchlights
peaceke
suspects
suspense
##baum
sucre
confirming
masks
kilometer
complain
complains
foreigners
taxation
textures
textbook
extremes
ramc
ramayana
ramallah
alexis
47th
moltke
groves
unsafe
unsatisf
hawaiians
375
plantain
5191
muscles
elevate
spreads
advertised
fairfax
520
stanzas
stanisław
1806
tunes
articulated
encourages
ashton
contrasting
proposing
##alypt
fredrik
doggett
shaanxi
extraction
hopefully
spectra
reactivity
dunes
dunbar
dungeon
mouths
weakly
bottles
coalitions
daring
##atti
heightened
trainer
1206
definitions
youths
exclaim
dutchman
sensory
430
##urbation
virtues
##breaking
560
ecology
flanking
reunite
induce
execute
gasoline
dryden
bernis
1792
psitt
negotiating
incidental
54th
bartlett
cartridge
grosser
storey
motorcycle
josip
microphone
gaboon
flux
mule
initiatives
fountains
850
descends
crying
cryptic
minefield
recreated
hillsgrove
aiming
package
abbott
accomplice
railroads
symbolize
cdt
kurfurst
sortie
barbatos
astronomy
bathing
hangs
mutations
mutiny
levelled
1123
hype
jaye
amateurs
splitting
cavity
expansions
unfair
disciple
69th
980
marcell
ghosts
daisy
photographed
baibars
mycorrhizal
utilities
utilizing
vegetables
ornaments
fledging
doubtful
decorations
anekanta
float
##ropolis
ceratopsia
ceratopsids
stripe
1900s
renewal
1628
advisor
exhausting
integrity
collapsing
confederations
streaks
mantle
satisfying
1130
densities
hobson
jenny
jennings
weighs
bombarded
pullo
ascap
degradation
deliveries
lamina
##khurst
parasaurolophus
weekends
salvage
acknowledging
delegate
vastly
frogs
gorge
pigments
ribosomes
unprot
spurred
implies
turbine
fundamentally
enthroned
clinic
1639
magdalena
1783
analytical
covington
consultation
buddhism
dualism
recipe
laughs
laughter
berliner
culmination
dictated
coordinator
##ontinental
ruthen
pedro
matthews
sacks
santander
fundamentalist
dusty
sectarian
subtly
revolver
advocates
devastation
synthesizers
rigid
toyota
outlaws
bluish
breadth
sympathy
appreciation
evaluate
evaluated
widowed
hypothetical
hypothesized
affiliate
fertilizers
gentlemen
mudslides
naacp
manipulate
retailers
1142
constituents
ddos
wikim
manuela
resurf
residences
quietly
esports
highlander
cowan
dateline
mitosis
vigorous
simplified
receptor
receptions
redeem
cottage
dickens
loneliness
asserting
benefited
dripping
gamers
lecturer
##stitutional
stereotypes
desperately
hugely
tortured
clerical
clerks
symphonic
catalogue
immortality
cgi
pondicherry
reminded
stabilize
boiler
monasteries
casemate
template
malaysian
sidonian
herbivorous
clashed
pulpit
sweeping
konig
makovick
threads
grenades
helmets
vengeance
inverted
gendarmes
slippage
stylistic
spoof
inventor
swallowing
uncovering
craftsmen
eucalypt
nitrate
pockets
mcmahon
anthropomorphic
hodg
rampart
unconstitutional
annoyed
hutchings
kamal
kamala
theologian
sporadically
betrayed
subfoss
anglicus
suspicion
unemployed
bourgmont
wreath
galilean
encompassing
recruitment
cortland
cortex
pentwyn
franjo
chennai
prostitutes
spearhead
embrace
embracing
burrowing
ironclads
degenerated
pharaohs
bubbles
bryan
thiele
prognostic
prussia
rogatti
crosby
privilege
eagerly
mycelium
ornamentation
cossack
inaccur
pending
waldorf
affirmed
hadrosaurids
pasupathy
stamped
whistle
middlesbrough
authentic
rebounds
antiquarian
cartoonist
kawai
unlocked
reptile
choreographed
flourished
consortium
myeloid
rehearsals
nutrient
subdivided
gpus
tirpitz
adultery
disadvantage
intervene
selenites
escalated
legitimacy
hazardous
gyakut
hathor
seaport
trimurti
reclaimed
adversely
mobilized
phosphorus
ceded
kvyat
sirex
wandering
wrecked
##rinkers
leaning
worsened
desktop
peasants
coleridge
copyright
pedestrian
lambeosaurines
othello
skeptical
wiesbad
thieu
inevitable
anesthetic
chanting
overthrow
laureate
cromwell
magistrates
apocalypse
congregationalists
kraus
vitro
hassan
evidenced
airbus
setbacks
landowners
gloucestershire
natalie
segregated
contraceptive
pietro
tacuma
udayghad
anupong
cheek
orphan
trinsey
trypanosom
scuttled
relocate
caricature
excommunication
acquaintance
undefeated
polygamist
barbados
telecommunications
unpredictable
bengal
ccm
kessler
nubia
roussillon
asiatic
chulkhurst
disillusioned
brisbane
minigames
monologue
discrimination
voltage
catastrophic
overshadowed
euphrates
lanthanides
rediscovered
aadt
bizarre
clyde
dandenong
dundee
dreyfus
gasteroid
henchmen
istanbul
jiankang
kudirka
lomonosov
mennon
mughal
ntsb
nachtigall
oasis
pessimistic
saskatchew
wihtred
xinjiang
ziltoid
stetson
stardom
stricken
stowaway
forerunner
reintrodu
beaumont
alumni
congressional
chocolate
cheshire
chomsky
hispaniola
deauville
exacerbated
troupe
tragedy
aforementioned
compendium
inconclusive
abramowitz
appalachian
mehbooba
souvenirs
liberties
bucharest
embedded
moncrieff
edmonton
barcelona
headshrinkers
campeche
archdeacon
geographically
geopyxis
harihara
georgetown
seaforth
mcfadden
gallienus
psittac
unprotected
makovicky
gyakuten
wiesbaden
trypanosoma
saskatchewan
ail
aides
bian
bout
bolog
bae
bunch
baked
ct
cade
cors
cumbria
dion
dont
danes
daco
eile
etern
eats
fou
fok
fert
fuc
faw
fading
ged
gop
gud
gian
gast
gide
gann
gently
gaps
gdp
hut
hue
hild
hss
hove
hints
hano
hube
iain
iau
iamb
iona
jing
jailed
kl
kala
kerr
kany
koh
lout
lite
lerm
leck
lorne
mb
mapping
nz
nand
nass
nodes
ole
oax
pis
pus
pens
piety
picks
rak
rump
rasc
sain
sdp
tic
tilt
taped
troll
ufo
vid
vida
vector
vita
veera
wak
wab
woo
yas
yok
yacht
##rn
##rill
##rils
##easter
##eelin
##nam
##net
##nag
##nia
##dad
##dna
##ahn
##aise
##lain
##lorn
##lined
##lund
##oactive
##wing
##wling
##warm
##ij
##iel
##iens
##iya
##iables
##cod
##cons
##crow
##cibly
##croft
##kawa
##tm
##tale
##bear
##bling
##uj
##uer
##gus
##games
##giver
##hagen
##yel
##pard
##padi
##mi
##mor
##mount
##vig
##vard
##viate
##volent
##fa
##flies
##zam
##jm
##jid
thigh
##eroc
##erian
##eroy
##inac
##inish
##inqu
##inks
##ndid
##orse
##orah
##orpor
##oramic
##atode
##atpadi
##enaries
ink
inert
##aris
##arpa
##arello
unav
uninc
unreal
##anist
##algar
##algam
##ito
##itas
##itud
##itative
##itius
##itabh
andros
##isi
##isaged
toe
toul
##icus
##ioners
##reth
##rele
##ompt
##omnia
##elined
##ilations
##ilio
##iliary
##ecules
##ecoming
##thal
##thest
##thia
##stidia
##urrig
##adors
##aduri
##leaf
##lehem
##ropt
stig
sturn
stony
stature
stink
stahn
forage
forens
forks
forlorn
forcibly
##etian
##etue
##etland
whitt
##iration
##olecules
##idian
##igible
##igotes
reich
alerted
alumin
##imm
##imated
##imius
itzam
isid
##child
##uti
##utory
##utches
fritt
conway
##emar
##emate
##emachus
##ersal
##otage
chak
chast
chail
chai
chalu
churrig
##verts
##ulan
##ulative
shig
shale
shaking
shouted
shatpadi
##avi
##avis
##odor
seyd
sejm
prostate
projection
succ
suits
deuter
##opod
##opatra
##opao
neal
neve
##unori
##ifice
##ifax
pliny
pluto
arid
arous
arrog
exert
##therford
##arding
##ocial
##ocene
##oceros
lees
levin
lethal
##abi
##abouts
##udad
prue
praska
trac
trous
trash
traf
##istem
##istice
##istration
##istani
spart
spra
spored
spha
enge
enrich
notre
##ovo
afro
##ouraged
recitals
##ordland
##astigotes
herons
compass
compilations
##ounce
cleric
clause
claw
claud
200s
##ustice
adot
adject
adverts
twisted
incess
incoming
incarnation
boone
booming
abrid
abusive
abortion
##achandra
aftersh
manners
scary
scath
scare
scared
scaled
alloy
##ureen
grape
amen
amassed
amnh
amalgam
amitabh
perished
rochester
relaunch
relinqu
timothy
newcom
commod
commend
commute
commissions
##oga
##ignon
marion
marred
maraud
##assium
beck
##onderog
sheph
shepard
evoked
disob
dismas
disaffected
meik
offset
finite
##pler
carell
weiner
imjin
overarch
overcrow
overbear
brake
upwards
centimeter
coating
norwood
##angled
decks
deccan
##prus
indec
intertw
interiors
flip
##ensibly
pare
parked
parodied
paragr
poesy
charms
##ailable
blot
##ribly
knut
accol
accents
mayague
assent
reminder
howson
howitzer
regaining
registration
warhead
warwicks
engle
##leside
northbound
saur
saiban
mints
stare
starfleet
##grass
##eldon
emile
email
emble
empress
elton
baton
moniker
southampton
##hness
coloring
repent
repeal
doha
whereabouts
albany
mahe
maureen
##nington
suba
guiding
capon
capri
eponymous
epistem
laver
generosity
##ificant
imply
impover
imposition
impetue
addict
counting
smile
smtv
welles
simulator
longitud
originating
transpor
armistice
milligan
##velopment
backbone
invinc
invasive
crocod
##aires
##vegan
##liest
crete
estrang
milestone
obtaining
obedience
receivers
portree
infest
infatu
constable
signifies
runaway
distracted
##anne
variables
slav
##spot
famously
famitsu
edifice
crac
crakes
craters
shipyards
expel
expands
expulsion
discreet
discourse
discouraged
steered
annum
barred
barbed
loire
westmor
respite
adverse
designating
##ypus
successors
modelling
roadways
idf
##engaria
campgrounds
septimius
systematic
lineberger
gamesrad
raises
1300
protomyc
protracted
classmates
confesses
waterloo
shortcom
brett
avant
detecting
detract
entourage
1400
gunners
eleanor
halifax
258
typography
mori
kee
whitehead
socio
believer
delusion
antics
##scape
explodes
basanti
villains
##uga
footing
promyel
harassed
valiant
communion
fielded
fielders
handic
handheld
leds
makeba
farthest
reprise
presentations
billington
lawson
cameos
replacements
cleopatra
behr
freya
superher
authoritative
##adyne
##letii
royton
##itaries
despair
##wheelin
trey
sitter
profits
posting
postwar
##vester
navies
angus
angola
wallez
propel
nightstick
representations
flees
petrol
petrie
263
264
cystidia
cyprus
247
statistical
statutory
donnel
freewheelin
286
281
culturally
summed
westernmost
michele
easternmost
puri
puritan
limitation
labrosaurus
balloon
ballala
irrele
hamelin
davie
##brands
equals
equalled
equatorial
factories
veins
mixes
tenant
projecting
projections
sunlight
footballers
excuse
praises
casimir
fallon
courtesy
suffrage
bowyer
insomnia
centerline
volatile
burd
wallis
void
voce
procession
researching
##uclear
ideally
ideals
circa
circulate
homecoming
rutherford
meridian
naresh
##cox
striped
condensation
colonised
copied
encoded
apex
fleetwood
natasha
inspect
inspected
flores
honoring
##fieldensis
sanitation
sanctions
sawyer
berengaria
denote
reboot
hyaline
improv
widening
salon
dupl
premaxill
regulars
managerial
henan
braun
silly
achieves
dominating
saturn
##uitable
sniper
352nd
begs
begley
secretive
flynn
mcdon
mcpherson
renaming
practised
wilbur
wilkes
wilkinson
wilcox
mosqu
platypus
operationally
nominally
specification
eras
erad
paula
violate
violating
futile
potassium
academies
egyptologists
multitude
thomson
##umbling
hoffman
banished
banana
seminal
intensely
intensifying
injustice
diaries
garuda
garbage
linen
assembling
huopao
samoa
motive
thinkers
gradient
surrounds
contractor
mighty
completes
catap
panthers
panoramic
##offensive
boarded
457
malini
bridgeport
fergus
jinx
uncut
##iminate
upperparts
dubois
robots
oceania
tempered
healthcare
##glom
##glers
##glings
disposition
dispersal
favorites
##autla
junyi
punted
francaise
baden
mastering
emerges
powd
winger
meaningless
dynastic
determines
shootings
imprompt
reflections
4000
objectors
caul
cajal
33rd
logging
caregiver
hospitalized
hospitalization
complexity
300th
astarte
dumah
beatty
llc
gallian
osborne
envisaged
ignoring
gaul
banking
hornets
melodr
undiscl
throwers
fearful
fearless
romney
parisian
##mona
sucking
sandra
bonded
confirms
masts
translating
425
fills
cricketers
ramnag
473
molly
heartbreak
maximus
tonal
shran
shruti
unsuitable
amounting
colouration
reforming
chronicler
sportswrit
fastball
expressive
communicated
benevolent
excavate
512
muscarine
illustrating
juliet
permanence
folktale
herschel
straw
dreamscape
stanford
contributes
contributors
1805
telemachus
alleviate
chaired
embank
embatt
sleat
ceresville
borland
ashcroft
landslides
doubted
fantasies
elemental
dunnington
dunvegan
favouring
ganga
gangster
bulloch
lucie
lucia
sculptor
viceroy
conditioned
faithfully
sheltered
dinan
fragrance
swedes
ohang
ohkawa
stockade
grays
carlson
tellicherry
brightest
fashi
##breaker
supplying
ecw
ethos
karachi
jefferies
calcium
calculate
rubin
##john
thinner
altarpieces
sundance
minimize
dramas
crashing
lovell
choruses
1791
cooperative
bhaduri
kirsch
taller
1644
nicholl
organizer
experimenting
disappears
1771
falcons
sailor
fluctu
accidental
fueled
mueller
rosary
stalemate
arihant
binaries
binomial
totten
tasmania
orchestrated
licenses
monarchs
jesuits
packaging
downloads
esmond
1604
1609
miranic
franchises
barbettes
corresponds
mercenary
mercenaries
1753
hypn
819
inspirational
##iotic
appointments
conscription
disciplin
censor
censored
##ozuna
jacqu
cosvn
gripping
psychoactive
moralitas
gatherings
katib
brandt
automotive
chambered
chamberlain
stylish
stemming
orioles
ornette
fledglings
archbishops
sidelined
ventral
orbiter
##erras
floated
parishioners
rhythmic
renewable
manses
1622
820
82nd
pipeline
pinkish
recurved
elaborated
baptised
baptism
1664
crusher
crushing
##zao
teenagers
hiking
hobbit
seaside
remarkably
asci
ascetic
1233
cuautla
gleason
lamar
##rified
contestants
pigment
tuition
frustrating
heralded
clinch
1631
tenths
vacated
vacations
vacancy
1789
jetty
deprived
1653
sabotage
forgive
canteen
cousins
doris
denny
sbf
anchors
recommends
ludvig
uniformly
booty
noblemen
neighbourhood
cassin
cassette
fascination
fulfilling
lightship
sophie
neutrality
daddy
kissing
livin
bethany
bethlehem
enthusiast
fibrous
symptom
synthesizer
nelly
tutors
mysteries
harmonica
gardnerian
jenice
ligand
ligament
pakistani
foreb
mauritius
chromatin
chromosomal
cosmos
mackinaw
mackinac
mackerras
ozplo
1689
landscapes
neglect
guineas
fiordland
stimulate
1270
allegory
coded
ostensibly
miniature
datadyne
sticky
intrins
amyloid
redevelopment
cottages
vowed
yangzhou
leafs
butterflies
flotillas
assertion
alphabets
drift
##ocytic
clergyman
surpassing
bmi
bmnh
##atinate
ascended
yamaha
stabilized
stabilization
glamorous
casemated
predicting
templars
blending
habropt
ptah
pillars
bags
nigeria
tentative
ingleside
grenache
accusation
phosphors
ceasefire
dorset
pearson
summarised
foulk
manohar
buckland
stegosaurus
detectors
normandie
besieging
jealousy
honda
pampa
altars
bohemond
syndicate
venomous
anthropologist
dignitaries
koen
mocking
emigrated
fleeing
wilfried
flashbacks
lambeosaurus
dreary
flavor
betrayal
elliot
suspicions
suspicious
lukewarm
prosperous
muhammadiyah
kendrick
rejecting
reorganised
discharged
cohen
assigns
filmmaker
infiltrate
inconsistencies
##enhower
boosted
sacrament
scleroderma
bubble
creeks
geared
hacker
nagar
##romatin
chesterfield
privileges
mycelia
ornithopod
hesit
klingon
lalor
linga
vernacular
preacher
pretending
cynthia
devotees
benedictine
botanist
zoologist
whistles
brentford
supervise
stegosaurid
dreadnought
kavi
kavkaz
kapoor
chinlund
evolving
squatters
navigate
pawnee
derivative
eukaryotes
atherfieldensis
cairo
jakarta
sagebrush
intimid
abruptly
insisting
insulting
councillors
sawmill
thunderstorms
sprinting
linguist
inquiry
reyes
freshness
conferred
adversaries
1435
proprietary
mobilised
russo
rusambo
splinter
restraint
cruelty
dealership
mirrors
lobbying
beaufighters
heterosexual
pallium
tullie
andrade
adolescence
versailles
mohammed
coulson
magnetosphere
coco
lubricated
ugly
anxiety
adili
auxiliary
refurbished
firecrest
vikram
fundraising
analogous
sovetsky
kleinman
intermittent
hectares
nematode
unmarried
shandong
intriguing
insignificant
futuristic
catalyst
benigno
scrubby
polytheistic
merchandising
herbivores
kazimierz
yingzao
asthmatic
##ifferent
spouses
disgrace
indenture
bundle
strumming
impersonating
deprecating
linebacker
rhinoceros
azzarello
ciudad
cayuga
eisenhower
hipper
kensal
muganga
roland
ransom
zelanti
##olithus
splendid
marquess
esteem
mohamed
##luoride
vijay
##ophagus
eyewall
pavilion
elliptical
sarcophagus
dictatorship
atenism
polynesian
bologna
baez
eilean
fokker
fertile
fucking
fawkes
gudbrands
gideon
gannit
hildreth
hanoi
hubei
iambic
kanye
loutit
lerma
leckwith
nandi
nassau
oaxaca
pisolithus
pusan
sainz
ticonderog
trollope
vidal
wabd
yasunori
yokozuna
##easterly
##ueresque
##erocarpa
##orporated
unavailable
unincorporated
unrealistic
stigma
stinkhorn
forensic
whittaker
##children
chakrab
chastity
chailletii
chaluky
churrigueresque
seydlitz
succumb
deuterium
aroused
trousers
trafalgar
spartans
sprawling
sphaerocarpa
engender
enriched
compassion
clerics
abridged
scathing
commendation
marauders
shepher
dismasted
overarching
overbearing
paragraph
mayaguez
warwickshire
emblem
impetueux
longitudinal
transporter
invincible
crocodile
estranged
westmoreland
gamesradar
protomycena
shortcomings
detractors
promyelocytic
superhero
irrelevant
mcdonough
ferguson
impromptu
melodrama
undisclosed
ramnagar
embattled
ozploitation
habroptila
gudbrandsdal
ticonderoga
a6
ayl
aime
aiding
ayr
bain
bak
bip
bode
bash
biod
bully
bocks
cir
cag
cah
couri
caffo
dall
dov
dorm
dade
dway
dai
dipping
e3
ez
eaves
eco
erie
erot
einstein
ehr
fist
fusing
fuses
fencing
foil
gan
gies
grit
gree
gable
gius
gba
gym
hough
haus
hare
hann
hiring
hilton
hoshi
iw
ip
iter
ike
ize
ihl
jow
ku
k7
kot
kail
kare
kins
kicks
karya
kopp
lour
lull
lets
lund
lush
lening
linger
mele
mps
mcent
np
nx
nab
nell
nss
nino
oso
py
pue
pix
pause
pines
pemb
pets
pug
pino
piston
pumped
pido
qing
qur
qad
rie
rations
rli
rower
rites
routed
ses
sich
sard
senn
sired
sinc
sands
tis
tally
trop
trol
teng
tiers
taut
tatt
ticks
taping
tatum
vl
vat
vine
vog
vacu
wb
wer
wac
wary
wight
wired
waw
woven
xv
xav
yaut
ylides
znd
zun
zamb
æs
##rary
##rann
##eppe
##nic
##nings
##naeus
##d4
##dat
##deck
##dwych
##len
##lli
##lime
##oit
##oter
##will
##iene
##cery
##cli
##caster
##kick
##tit
##tford
##tillo
##bak
##bath
##bilt
##bring
##gated
##glish
##giene
##hong
##hall
##hift
##hook
##sum
##yles
##pen
##pices
##peck
##pburn
##mac
##mud
##mail
##mah
##matory
##moor
##vich
##view
##vius
##ventional
##fia
##fix
##fair
##fjan
##frog
##xaf
##zi
##16
##jas
##jad
##jut
thx
theak
##erre
##erical
##erib
##erman
##inel
##inative
##inogenic
##eded
##edial
##edible
##onal
##ndon
##esden
##esirable
##orthodox
##atur
##atter
##atma
##atzes
##enance
inad
inward
ingen
inception
inexp
inmates
inedible
##arc
##arcer
unint
unhar
unorthodox
##anthrop
##anjee
##alas
##alent
##alup
##alism
##itri
##ituary
##ituted
##isan
##isal
##isand
##isins
##isabeth
##iska
##icing
##icular
##omac
##ente
##ecurity
##thard
##thian
##amics
onond
##urved
##adin
##aday
##adalup
##lem
##leid
##lements
##rob
##rots
##roach
##rock
stain
stack
stds
stero
staunch
foray
##lyon
##ete
##etrack
asph
asnell
##irut
##irley
##olar
##olian
reest
reyn
reuse
bequ
beauc
beirut
##owingly
##owright
alpine
aldwych
##aygeon
withstand
##cha
##chad
##chet
##utonium
frill
atoll
##otide
angr
anonym
anarchy
chat
chips
hewn
hepburn
hexaf
##ceum
##ulas
##ulli
##ulgated
##estra
##ande
shing
shine
shout
shiz
shouts
shaba
shirley
##oselic
coma
##avo
##agic
##agius
##agher
seiz
seating
sealy
sealing
props
sufjan
##esse
203
208
##opt
##oped
neh
##apas
##apist
orion
orwell
##unets
##unesse
##illin
##illand
##ifier
##ifully
plowright
plutonium
ars
exited
exiting
exerted
exquis
exemption
##ishi
##abhar
##udi
prank
prisons
trach
trailed
tracts
trillion
trulli
tragic
##ista
##sein
##seek
spells
spider
hadn
enna
notions
##ortment
##ounded
##antom
afc
##elles
recount
recited
##astically
##mental
hertford
comply
firs
clues
clades
adh
firstly
inclusive
incarcer
##soon
##sohn
bolet
abide
##acherib
##ptions
afterlife
maniac
scent
scattering
allu
alloys
alludes
allusions
alluded
grang
resides
ammon
amjad
##quin
##quets
##quillo
##athetic
perch
perkins
perrin
rooster
relic
reliant
relented
##aternik
##ublished
usgs
commenc
mare
marath
marries
sermon
playground
##orma
##rup
deserved
applies
appellations
agate
agility
disrep
disinte
partisan
##dued
##ryl
meand
offence
offended
##adev
fined
finder
##plus
##plane
caroly
caraman
2017
overture
overgro
overview
brat
brave
brighter
branag
bravo
upst
upbring
canary
coter
coherent
preoccup
##itez
decomp
decatur
##pressed
indra
inducing
##izhou
intersp
flossy
##ensed
##ibab
##acey
attire
parted
parental
parrots
##entsia
##weights
##weiler
chartered
charging
teaser
##onega
joel
johan
jolyon
betaine
blitz
blaney
gamepro
knopp
noam
nobles
accessed
assortment
remod
remun
remedial
thresh
howell
registry
registers
regulating
##alski
warmer
warne
engined
##olds
understated
pew
peel
safer
saenz
saudi
minerv
miniser
soorma
liking
staring
##phis
##phob
##phones
numerical
##erick
ack
acet
emission
##endicular
elf
elie
elves
elisabeth
bateman
winchester
posing
posits
mons
monty
monaz
monoth
monmouth
monsoon
albani
mafia
brooke
sublime
subdued
guise
guilla
guadalup
worldly
airworth
airplane
dresden
drastically
surm
surplus
laos
lawn
singly
oprah
generator
phantom
stray
strut
strang
strung
stroud
polo
studded
impass
imports
countless
willows
longing
divination
dividing
divinity
divalent
transylvania
britann
teresa
mainline
backstage
##emently
inviting
invasions
inventions
teamed
instig
instant
novella
novoselic
##anko
##epers
milestones
obituary
metz
metabol
nearing
constellation
signalled
runways
##ropop
##derton
proves
provider
famer
jujut
edie
edged
##elssohn
crater
expend
expatri
discont
discourage
stewards
stepping
##iversity
redund
redemption
austrians
anybody
weston
advises
adviser
nationalists
##ucose
weehaw
##rology
occult
booker
booked
##enny
schoolhouse
idios
##inders
mediated
raisins
136
tito
classifications
classmate
collar
arrests
##osserman
midlo
midsum
##jectory
##ancies
waterways
waterfront
evenings
breech
blackpool
humble
humiliation
waymon
versatile
entities
incremental
geek
144
cores
corrupt
corrosion
topical
captors
captives
halves
halmah
##ysis
##awak
gloves
glucose
glosserman
differing
morator
moose
lastly
streaming
hurdat
delighted
periodical
##scan
patience
pattillo
entertained
solbak
##clature
##ugs
##ugumi
##pared
promotions
promoter
promulgated
swap
swamps
communism
routinely
champagne
sentinel
initiate
stillwater
100th
##lla
historiography
rockies
replies
replication
lowlands
squir
squares
banded
sidekick
##ographies
curving
contrasted
frenchman
nevermind
authorization
fireball
firebr
federations
goodman
goodwin
goodwill
internationalist
obsessed
professed
radios
postulated
soundscan
##ambe
233
crossroad
wheels
wheeled
popularly
presses
programmer
222
225
latino
petits
pettit
266
cym
facades
statistically
fortun
fortuna
doncaster
activates
activism
royalties
mi6
purified
purification
limerick
ballcourt
irving
hama
hamra
hammett
horace
horrible
travellers
equator
connell
announces
technologically
electrons
electropop
tenuous
272nd
sonia
sonata
primrose
readiness
excelled
needle
rangef
beginnings
courtroom
briain
suffers
bows
frontals
##ippers
insights
insecurity
directorate
philips
philanthrop
burr
wallonia
voicing
matures
##ombe
specializes
discoveries
cerat
ceramics
circuits
rhone
lynn
lyndon
lyceum
seaward
galim
galway
merton
narayana
##iership
verpa
##coons
nucleoplasm
nucleotide
311
vocational
auditions
auditory
colonisation
copious
stationary
informant
apology
apopt
apathetic
hallam
halluc
halladay
berry
berger
denardo
reborn
rebelled
rebecca
separat
parliaments
hostages
achille
hygro
hygiene
memphis
harding
saladin
archaea
hitfix
##yne
interval
duong
premiership
silicon
derided
derrick
holt
holster
pastry
ulama
ulisse
talmud
cruises
indications
indicator
lengthened
5000
rainy
rainband
practiced
institutes
regimental
norms
moses
necroph
lowering
horseback
##zej
likeness
quicker
wildly
erich
erased
ernie
pauline
kilogram
quarterdeck
potro
potato
potomac
egyptologist
docks
##vertently
hospice
capitalism
hoist
pacing
##ggi
balista
fishhook
physique
dike
linnaeus
cycling
cyclonic
##bandian
namesake
removes
deepwater
bodied
montage
366
365
ranadev
cattar
spacey
greenwood
dollodon
oxen
oxides
##downe
uncomfort
boyd
dubium
penned
babu
scotti
anthologies
ninety
ninjas
oceans
selfish
exhale
jeunesse
gotten
makeshift
haircut
disperse
seville
californian
mortuary
marketplace
consistency
hussein
junin
juniors
punj
punitive
francophone
colorless
publishes
celebrates
mastered
emergence
powell
magnus
benoit
benitez
bombings
caishi
logged
investigators
aerob
aeropl
schedules
astree
322
castleton
husbands
gallagher
pathetic
envoys
accompanies
70th
gaunt
pleaded
undead
undesirable
imagines
imaginative
romero
colder
plotting
wounding
financing
metalwork
adventur
rhyming
miley
translocation
rushden
bedrock
attends
1820s
vehemently
pulses
rescind
branching
cancellation
##cendo
protesting
rammed
470
bolts
molina
grohl
luzon
colouring
analysed
44b
habitation
chronicled
responds
37th
munitions
munster
liberated
progressively
communicating
##ovici
recommissioned
grassy
surveyed
climates
illustrator
1814
intersections
concentric
intelligentsia
dreamworks
1802
murdering
tuning
alleging
overseen
articulate
torpedoed
etudes
slept
stepson
stepmother
dura
durable
landslide
proposition
##holder
kaibab
admirer
spotless
extracted
490
unknowingly
polymer
tendons
kenton
impacting
emphasising
repeating
sisko
koreans
weakest
belongings
compounded
64th
converts
shareholder
deployments
bullpen
beautifully
dismissals
vicente
riddle
##ridges
defends
darvin
darryl
##metics
1207
trusting
trustee
philosophies
555
jonny
reservation
senses
carlton
brule
gaines
##brella
memorials
56th
ethic
karen
karros
bellamy
calculator
reconstituted
applicant
applicable
mythical
mythological
icefrog
crashes
attorneys
priestley
honorable
570
bernie
##bla
updating
1796
1797
earthquakes
maclean
conducts
bhu
bharat
racquet
racetrack
raccoons
hellen
juanita
73rd
cartoons
cartridges
hinder
ncap
1647
1649
kitsunets
alfonso
experimented
wrestlers
disappearing
970
formulaic
1777
wicked
roses
maputo
1108
wisden
sundays
crypt
recreate
interacting
716th
kenny
innermost
downloaded
miriam
cruiserweights
corresponded
correspondent
hanged
polling
1756
1125
cinemas
gateway
mulberry
remarried
immigrant
815
mahatma
mahabhar
inspirations
appointing
kelvin
unfamil
1764
##ozi
wrongly
instructs
cosmetics
marcia
therapist
wealthiest
steamship
photographer
traum
trajectory
absorb
dimitri
rumble
790
utilising
vegetable
tsar
tsugumi
ornate
hydroelect
hydrophob
995
ventus
ventured
algae
heatseek
880
carbonate
doctorate
cavaliers
felipe
wiccan
graceful
630
##oulos
accommodated
1629
advisors
collaborations
collaborators
patronised
sulfonium
##ulsive
metallicity
erica
folding
mantelli
sediments
seduct
throated
flowering
satisfactory
hulls
parameters
050
740
attributing
1135
1138
spirituality
diplocyst
catering
nurses
clockwise
carpet
sicilian
suicides
1237
cuillin
parasitic
salvos
68th
saras
poisoned
harshly
ribs
unpro
unpublished
abdication
harmful
84th
theoretically
clinched
surgical
installments
1630
vacation
enhancing
1784
ahmed
covent
depressing
supplemental
triangulation
binds
diesel
hollis
kongo
saban
sabre
sabbath
surely
##scopy
stucco
anchorage
recipients
prefecture
rebellious
920
101st
diagnostic
sparks
canonical
coordinate
inhabiting
bouvet
cassino
##balance
fulfil
nuzman
ravine
santo
atomics
brackets
liquids
swimmer
escorting
ppcli
picnic
bethel
brutus
preface
prefects
quantum
obliv
1701
electronics
kirkpatrick
jacobi
dahlonega
paddy
revolving
contradicted
okay
rigging
tutelage
velvet
hubble
pinned
chromat
tagline
friedman
intermedius
johanna
arresting
summons
philippine
precipitated
sultanate
muddy
muddling
naive
heirs
megalosaurus
bruno
saxophone
pyramidal
mallory
todt
tolerate
tolerant
stimulation
residual
bosnians
codfish
fulvius
concurred
1743
penetrated
ionization
ionizing
serbia
assumptions
simpler
redeploy
consciously
chiapas
assyrians
obscured
complemented
murders
fragmented
ecuador
baptiste
coffeehouse
lantern
lanai
stallions
buffy
huggins
pelagius
##rhifer
disrupting
crescendo
prevalence
scenarios
enlargement
dalmat
dalglish
yamazaki
seamlessly
outdated
morphological
afforded
microscopically
bunbury
poker
glamour
predictable
overwhelmingly
presbyterianism
habs
pillar
sags
whitney
reverted
clashes
eligibility
randomly
hatching
kinzer
konkan
fronts
1115
antagonists
fuselage
molds
##urgical
decisively
populist
glacial
unfortunate
exchanges
exchanging
1737
tatto
chilean
medicines
villainous
workshops
galaxies
dissenters
scandinavia
wireless
unconventional
##ipeg
manifestation
maiden
profoundly
cushion
pileus
pileggi
tampico
##folozi
flawless
peerage
basalt
petrograd
affectionate
hairstyles
melancholic
##runner
reorganisation
mendip
mendota
mendelssohn
1714
gamespy
superstition
haunting
encompasses
inhibitors
nmr
pentathlon
pencil
vanderbilt
unprepared
stupa
reworking
iranian
apostles
apostolic
babylon
ambulances
karamoko
harvesting
creeps
creepy
havilland
tumor
##wait
##broken
consecration
kidnap
kidnapped
umbrella
umfolozi
vassals
outpost
millimetre
distortion
cracked
arbeiderblad
hadrosaurs
diminishing
moulds
zoos
spillways
contends
contenders
posthumous
reversibility
syllable
dragged
furiously
rebounded
await
awaited
embarrassment
wielding
prowess
perpendicular
terrific
inflation
atherstone
kiel
nolan
nomenclature
stirring
leopold
levees
dredged
loftleid
breathing
omnivorous
fluoride
fluorescent
ayurved
dhangars
hdz
pluralism
bobcats
bobcaygeon
armenia
avatar
aristocracy
fetus
kvaternik
wrecks
##rinka
reelection
clicking
worsening
coleraine
solicitor
copyrighted
vulgaris
catalogues
lambeosaurine
bouncing
hmcs
hedge
kaiu
murchad
pallas
tapered
vivien
wesley
andrzej
shiina
adolescent
perfection
bestselling
mohamud
coulthard
lansing
lansdowne
nikki
vizier
viziers
stoats
arbitration
arbitrary
diverged
shortlist
shortlisted
berkley
berkovici
typesetting
spectroscopy
microlight
microlights
leviathan
cinematography
cinematographer
erroneous
erroneously
bellerophon
wynne
unimpressed
francesco
leverage
revamped
slovenia
burgesses
crawley
ignorance
illegally
crystalline
nicolas
montenegrins
cohesion
gcse
nalbandian
tyrrell
rewrite
frightening
chadderton
enriquillo
##antyo
undermined
syrrann
bayonets
misleading
intruder
culling
karaoke
tjoa
uterus
asymmet
reissued
enactment
adherents
wendy
bramantyo
inflammatory
discredited
luthorst
polygamy
wrestlemania
eclipsing
nostalgia
kasparov
bureaucratic
auspices
cognitive
drifted
nayavada
suryanar
tahiti
uniquely
toxins
stamper
isthmian
chiranjee
suzume
neoceratopsian
newsted
disorganized
weissweiler
winnipeg
effigy
refresh
facelift
donnchad
motorsport
digestive
undeniable
polypeptide
unfavorable
mathematician
brainwashing
aylwin
ayrshire
biodiversity
bullying
cirrhifer
cagayan
cahill
courier
dallas
dwayne
ezra
erotic
ganesha
giesme
greeks
giuseppe
hanneman
iteration
izezi
kuwait
kailash
koppen
leningrad
melee
mcentire
nellie
puebla
pinochet
qadri
sichuan
sennacherib
sincere
trolley
tautiska
tattnall
vatatzes
vacuum
weren
wawrinka
xavier
yauta
zndh
zambia
æsthetic
theakston
inadvertently
inexpensive
unharmed
onondaga
steroids
asphalt
asnelles
reestab
reynolds
bequest
beaucaire
angrily
shizhong
shabaab
seizure
recounting
hertfordshire
grangetown
ammonia
commencement
disrepair
disintegr
carolyn
caramanica
overgrown
branagh
upbringing
interspersed
threshold
minerva
miniseries
monazite
monothe
guillaume
guadalupe
airworthiness
metabolism
jujutsu
discontent
redundant
weehawken
idiosyn
midlothian
midsummer
halmahera
moratorium
solbakken
firebrand
crossroads
hygroscopic
rainbands
cattaro
uncomfortable
kitsunetsuki
mahabharata
unfamiliar
hydroelectric
hydrophobic
heatseekers
dalmatia
loftleidir
syrrannites
suryanarayana
chiranjeevi
a3
ailing
aunt
bp
bj
bate
bant
bast
banc
bison
bourn
bump
bpi
btec
c4
caged
cerv
cuff
cinta
dice
dune
dys
dung
danced
dolan
ej
ein
eec
epp
euse
eberg
erupt
fain
ferv
fitch
fumes
fabled
ffi
gt
gly
gome
gild
gird
gull
gma
groom
gilling
glyn
gantry
hq
hz
hac
hates
hague
huss
hott
hector
henson
hagg
ith
ist
ios
iph
iifa
jab
jade
kp
kes
kif
kines
kash
kob
kells
kesh
kano
kook
lame
lure
lime
lops
lask
lips
lakota
lagr
mish
maus
mune
mersey
moul
mowing
nis
nop
nate
nud
nord
nio
nese
nuns
oer
oven
ome
ousted
piv
pant
pact
pint
pains
pbs
piny
pasc
pesc
pardon
rr
rb
rf
rz
rack
rue
rents
rames
rute
rica
rko
riley
rizz
sig
soun
sass
samp
ssp
sked
sify
salsa
sizable
tf
tø
tad
tant
tire
tile
tup
taff
troy
tempt
tara
tapers
tusc
ull
uci
vom
vall
vip
vach
vend
vince
vines
vices
viva
vogue
vagu
votta
viper
vfx
wode
wax
wett
wtt
wiley
walsh
xin
ya
ys
yus
yelin
yaku
yogy
ze
zz
zach
µg
æth
##rav
##rina
##ranted
##eanor
##num
##dell
##aided
##list
##lau
##oos
##oine
##oqu
##oors
##oters
##ooms
##oji
##won
##wap
##watch
##wau
##wah
##wives
##wbl
##wester
##wicke
##iose
##cical
##cars
##copes
##kern
##kaya
##tor
##tub
##tiz
##tail
##takes
##bra
##bys
##bius
##bbel
##birth
##uin
##uth
##uke
##gis
##gur
##game
##gade
##gits
##gfried
##hh
##hy
##hen
##hav
##hart
##haven
##haws
##sbury
##year
##yub
##pul
##page
##pens
##mable
##mson
##macy
##millan
##va
##van
##vic
##vre
##vir
##vance
##fr
##fight
##fold
##foot
##xist
##xication
##zak
##zjan
##jun
##jud
##juri
##đman
thw
thy
thou
thang
##eri
##eran
##erning
##inter
##inies
##inians
##eday
##onry
##ndike
##eson
##esia
##eslau
##orate
##orina
##orthy
##atons
##atille
##enish
##enment
##enbaum
ini
##arin
##arse
##arium
##arash
##arves
##arck
##armel
unle
unice
unsp
unhe
unoriginal
unaffected
unaided
##alam
##algo
##itir
##itism
##itably
##itivity
##itimate
##itiveness
##asim
##asso
##isen
##isia
toan
tobe
##ouan
##icom
##icious
##icles
##icirc
##ional
##requ
##elman
##elred
##elets
##ildu
##ilitary
##eco
##ecourse
##thong
##thyl
##thankar
##thesia
##stab
##staff
##static
##stridge
##stellar
##amble
##amoni
onion
##uran
##urra
##urious
wasson
##leir
##leval
##rox
##rold
##rown
##rovn
stur
stab
stout
stub
stele
stacy
stocks
stumbled
forne
##eti
##etable
##etoric
wharves
asin
ascent
##iratory
##olod
##olides
##ivol
##ivities
##teras
##terweight
##terdam
##teriors
##idin
##idered
##idio
##ithe
##ige
reilly
beard
begr
befriend
##owment
##owered
##oween
alge
alger
alison
withheld
withoos
##imas
##imah
##imney
##chral
##chella
##chemical
##utable
bye
byrd
fry
fraz
friar
coniston
conifer
##emouth
##emias
##ersville
ate
atum
atia
atroc
atamoni
atrox
##otal
##otations
##otzen
##otuber
anan
chal
chich
chie
chases
chicken
chatham
chimney
heel
##usium
##uswap
##ulus
##ulary
##estine
##estream
##andestine
shen
shamp
shrew
sheds
shook
shaping
shouting
shankar
shuswap
##aines
##osh
##osal
##osene
comf
comical
##avec
##avak
##agara
##umas
seab
seism
sepul
proton
progen
suther
suzu
##ctica
deact
deformed
##essential
206
##opic
##opard
nept
neko
##rius
##apa
##apion
##apnel
##apuri
##appling
org
ortiz
##unity
##unks
##units
##tsfield
##illation
##illard
##ifiable
##ifrat
arbor
arjun
arisen
exteriors
##therly
##akann
##akti
##akarta
##ocum
##oclon
##berra
##bergen
lea
leary
##aburra
##abulary
##uds
prud
prague
printers
trident
trapping
tramps
trunks
spins
sported
spyn
spatial
spuds
enfil
##artial
##geki
notew
##ectic
##ovny
##antour
##antouan
##ellant
recession
recitation
##ianus
##ordial
##aveeran
herbs
hermit
herpes
herrera
clif
clans
clone
clancy
clandestine
butch
##ustomed
adept
twain
contended
boyle
boidin
##achim
##outi
##ptides
mani
manic
mangal
manzan
scw
scaling
scroll
scalers
allstars
allotted
grouse
grady
graff
grappling
resin
resided
resusc
amie
##quil
peru
perons
percept
peridium
rox
timetable
fender
comma
##ogical
##ageo
marj
mares
marxist
##ollen
hasbro
becker
serapion
appease
appalling
agron
aguda
##tek
##text
goode
evoke
##elyn
disused
disability
methyl
offenses
carver
careless
carleton
carantouan
weiz
weights
weighted
imam
overcoming
overtones
brink
branson
breslau
upris
upbeat
upheld
outcom
outbur
outset
outlying
outtakes
cang
canned
canopus
canberra
centaurus
centrosaurus
coats
coarse
northerly
precept
precent
prejud
decib
decried
##prenn
indeter
##rices
intercon
interstellar
flam
flick
flare
flanag
floyd
flares
##ibouti
##kee
intoxication
earns
parry
parades
##actor
##actions
charing
formats
formulated
joachim
blames
blunt
blizz
blooms
##ribers
knit
knighted
accred
accuse
accustomed
thematically
##manlike
assures
rematch
consumes
thrash
howards
regal
regent
regimes
warranted
engler
filthy
recorder
genetics
genomics
peh
minervois
seasonally
starsp
starvation
##grave
dayton
daytime
bug
buildu
endure
endless
endowment
numeric
auctioned
emmet
emulate
emmett
elusive
batchel
winfrey
posse
monash
monosp
monotyp
monoclon
southwards
relevance
reputed
repuls
repatri
repulse
wherever
defici
defunct
maury
maaveeran
brobbel
subunits
guan
schoon
schne
dratch
draper
drills
drilled
surrogate
epox
laity
##licity
opium
generates
phased
strap
setlist
polly
impacted
impartial
addiction
addington
quint
longstanding
longyear
10m
##anea
##aneous
originates
transitions
transiting
transactions
armaged
belem
belting
bellev
britons
artwalk
terrif
invari
instalment
##likon
creamy
cremation
operatives
milwau
##oyne
johns
##atches
critiqu
meta
metabolic
nearer
porto
portals
infancy
infinity
infinite
infrequ
##tales
continual
signified
likeable
194a
distorted
distantly
distillation
156th
slit
slick
slocum
##sporina
##derella
provence
##ernach
famicom
juana
edo
edison
edna
edibility
cran
shipment
expo
exports
discount
discerning
steer
damon
annapolis
barley
grouping
gerrold
helga
rederi
redgrave
respiratory
advise
advising
owning
officiating
header
headpiece
headmaster
booklet
##ructural
effected
commandant
##aux
##auer
idle
campin
finalised
##indled
servers
greene
gregar
##ahi
characterize
meditation
raja
rafting
liters
litigation
protester
classifies
##mshaven
childcare
childbirth
collisions
colloqu
myres
midwest
confess
shorten
shortstop
##ontally
bret
breeder
restor
avenge
blackwell
extensions
humane
detained
detector
detonation
reachable
octaves
octavian
##appa
geographical
christgau
147
corona
corinth
correction
gunner
gunboat
topography
##ashed
godfrey
deathbed
halley
halpert
##awful
glor
glazed
25b
256
252
257
morchella
moravec
mochan
keel
demoted
demeanor
destinies
societal
organism
organelle
##byen
##ortsmanlike
refine
housewives
antwer
antoine
##scenes
exploding
footed
footstep
promotes
busque
busoni
harwich
swells
swelled
swollen
handel
handles
ledger
realms
legate
soma
someday
militant
fared
farrell
farcical
##inkled
localised
##gerald
lawful
lightweight
calidas
histories
replicated
lowman
banding
bandmates
sayuri
curb
curs
currency
associating
resultant
countered
contraction
claimant
claimants
clemson
behest
superiors
helpful
firearms
despatches
castanea
trem
proficient
radically
radha
competitiveness
216
nava
naves
238
walt
##luk
##luent
propellant
goldstein
goldwyn
covert
coverts
228
224
fleury
latitudes
hao
haul
grandiose
donny
freeing
freeport
activating
affluent
ageing
##arnau
##arnabh
palencia
miike
mikh
purgits
modernize
lookout
limantour
labels
ballistic
iris
hamas
hamlets
hamifrat
burnu
horroc
horrific
traveller
righteous
connotations
illiter
thoughtful
woodwork
electrom
electorate
tenacity
509
271
279
sonate
primordial
broadford
readable
excimer
netted
netting
casing
declan
courtly
viruses
civilizations
streetcars
directorial
turin
starship
burj
burgeon
matted
odessa
procure
processed
##ucleated
ideological
rhine
rhetoric
animator
animators
rupert
predyn
narrates
narahar
narasim
selo
selecting
verify
biologist
##version
315
bayud
identifiable
averted
copacab
informally
apg
processions
wrist
wrinkled
inspires
estimating
creatively
currants
halloween
sanh
berthed
denies
denham
dengeki
hunwick
memor
hardline
hardwicke
widmore
drawback
keyes
salle
salted
salib
saloon
hitters
closes
faulted
faulty
duat
duff
henstridge
madras
stoppage
deriving
dominates
holed
holbro
pastiche
satin
focal
snapped
ulaid
ulleval
##garh
launcher
##oleum
cutter
cutscenes
flybys
unionist
reasoned
investing
investiture
clearances
##ermined
macmillan
observance
necks
khouw
negation
plattsburgh
paints
painful
mustangs
indianapolis
symons
erastian
republished
judah
judici
economist
potter
##umbles
republicain
hof
hooters
hozjan
balt
balkan
establishments
happily
semitism
semicirc
injuring
injected
diageo
garris
touchback
hui
huang
samarium
carolinas
ourselves
deepe
deepest
contractors
watts
completions
senora
participant
examinations
autism
otway
otters
otrant
louvre
naturalized
60th
immersed
immersion
immunity
dubrovn
penny
robotic
babies
livingston
musicals
puff
anthems
ninja
exhumed
ensign
jerkins
##steen
380
jejuri
jeopard
##racker
professionalism
disposal
credibility
pianos
paired
empathy
empowered
battling
cornic
cornish
djibouti
methodical
methodologies
guarding
hawkes
purposely
hussey
camden
junkers
pitkern
pittsfield
takeshi
emerald
festivities
meaningful
attracts
seriousness
magnate
magnates
bombay
donegal
##ettos
337
logistics
hospitality
schedeen
dumped
counterpoint
326
325
rowed
gallup
fitwatch
springsteen
lifestream
melted
undated
reinstate
documenting
policemen
conceptual
##ylvanian
stadion
pictorial
chemically
compression
907
909
ratified
ratios
##monuclear
390
39th
thirst
cheke
cheating
fruitful
pennsylvanian
massey
masarnau
translations
multiplicity
dismounted
bedford
bullets
rescuing
jacksonville
ramoji
ramgarh
alternated
entertainer
stadiums
symbion
locker
wearer
maximilian
silvery
jimmad
lottery
bonnie
kratos
scraps
scramble
scriptures
savings
tonners
shrimp
shrapnel
entrusted
ghettos
lieu
unsigned
dressings
luk
luigi
##ocrator
##ocrisy
domestically
76th
munro
reinforcing
reinforcement
planting
legality
nestor
nestling
muscat
elevator
domesticated
pushes
terminate
terminals
cabbage
##avenous
intersect
straits
clarity
columba
columbian
tunisia
allegro
mechanized
mechanization
oversight
chairs
fati
fatally
fatimah
barrowman
doubling
##alyptic
narrowing
admirers
admirals
wilhelmshaven
drafting
soloist
bearings
cameraman
favourably
cooked
palestinians
deploying
cleaner
bullied
lucius
##seni
ridot
riddick
defendant
faiths
shelves
mindless
1208
rodrig
atmospheres
stockton
reservations
sensors
sensual
sensitivity
grayson
kingsley
462
catcher
ethical
ethics
miguel
migrant
jeffries
rubinstein
410
cinderella
ringing
##uffle
drammatic
dependence
bernardo
1798
dwindled
ps2
bhakti
elders
mandible
mandler
mandarin
racially
racecourse
conceal
incidentally
patrolled
540
hellenic
niall
niagara
platformer
730
731
barton
##ekker
isabela
1645
motorised
960
nichols
adapting
972
971
marlon
marlins
1773
1774
solidified
iguanodont
rotterdam
siegfried
wickford
oneself
fluency
rosa
##fortune
initiating
phillip
jerseys
sapper
yeats
716
packing
alienated
symbolise
symbolism
symbolically
kurds
sinful
supremacy
1603
principality
sortied
exercising
bathroom
hanau
ilan
polluted
levitating
1758
1129
hypocrisy
jayma
jayatille
kitase
preyed
phoenice
cavities
##relian
mahwah
maharash
taizong
kelp
randall
unnumbered
customized
696
warmly
wrongdo
antonius
instructing
dodson
thermonuclear
conquer
transforms
transforming
stretcher
daun
photographing
katrina
laden
traill
substitution
automated
automatons
sanguin
stemmed
clothed
oriana
utilize
utilizes
1212
paralleled
misfortune
sadleir
tsonga
circumstance
dynamite
hydrostatic
tigernach
blowin
leukemias
precedence
transitioning
1220
1229
harvested
queensberry
choirs
cavalcade
prohibitions
hatteras
sherlock
overwhelm
930
insurrection
understandable
1623
1624
directorship
collaborate
collaborative
collaborator
walkersville
oakland
pinkney
siak
sulfate
sulfides
answering
recurrence
collapses
citizenship
070
##nsberg
1612
1611
sleepy
mentality
paramilitary
surprises
1662
horizontally
mamluk
##ramatic
1132
avoids
cornerstone
##worthy
infrastructural
hobart
blacksmith
pierce
forbids
twinned
remarking
restriction
bombardments
pulls
1235
1230
disturbances
895
lamin
lamby
commemoration
ordinated
yankee
wetland
barrymore
weaponry
benny
goro
tuber
tuđman
welterweight
tricky
implicit
coffer
passionate
harmless
harmolod
wonderland
840
theorists
tolls
clinics
commonsense
marginally
installing
loudspe
780
1782
1787
ahmad
decayed
1651
refugee
condemn
860
sabine
sabres
shielding
consultants
commemorates
commemorating
commemorative
kenji
raghav
chronology
deputies
yielding
partnerships
sparrow
brilliantly
fascists
fascinated
overlord
nicely
nicaea
ravaged
ravinder
santos
coincidence
kissy
ppm
picasso
pecking
thorndike
##iraja
suitability
resolue
resolving
brutally
sovereignty
riata
tubular
channing
chanonry
decept
revolves
synthesize
zanzibari
celia
rigor
tutorial
shirtless
recalling
mineswe
confrontations
sympathies
010
consolidate
preserves
chromosome
donaldson
widows
affiliation
philippe
rothschilds
egged
nuts
manipulates
triumvir
hampering
constituent
fiest
##rophe
parenting
warnock
1279
127th
allegation
codified
esport
jagger
ydll
chaak
carnivorous
concurrency
penetration
bypasses
prestwich
spawning
intravenous
serbian
overtly
receptive
persistence
convictions
dioceses
telescopes
transcriptional
lorraine
sankat
rewarding
chien
chopra
leafy
gothenburg
1692
obscurity
murdoch
vulnerability
fabulous
lecturing
quitting
rawlings
treasurer
sanctuaries
hooks
bhairavak
cockburn
cocktail
hazael
mesa
pelvic
pelusium
tortoise
beaufort
disruptive
endorsements
guarantees
distinguishes
cgw
eclectic
gainsborough
icp
icons
tedious
seamus
tranmere
tranquil
scotsman
outdoors
1725
corridors
praying
predictions
737s
blended
relayed
1160
swinging
weaknesses
mottram
nigam
nostrils
tentatively
##trans
grenade
relaxation
outfitted
swiftly
verdi
contemporaneous
akrad
dentist
mentor
convenience
1679
glacier
glaciers
forecasters
spoils
buckets
supervisors
craftsman
craftsmanship
duchovny
hideout
honeyeater
kerb
kerosene
explanations
penalized
mcmillan
drowning
kooper
masturbation
rampant
maidan
ridiculed
pouring
stiffened
beetles
sewers
screams
flavored
petrochemical
insurgent
supernovae
gestation
pandit
vhf
reorganized
tracey
rochelle
upgrades
assignments
filmmaking
infiltrated
153eu
135xe
antibody
agaricus
contemplative
partitioned
smashed
apostolides
surprisingly
filefish
havel
havana
pistons
vestry
compatibility
irrigated
oddly
ornithologist
spontaneously
fitzgerald
ibargur
lalich
lingering
mwanga
mtb
mingrelian
renegade
unicode
spheres
hernia
##pticism
grasping
affirmation
inserting
pesca
reversing
capablanca
artifact
henriette
embarrassed
chestnuts
wolverines
phylogeny
dwellers
yokoi
unlawful
nebrius
exaggeration
lending
reliably
evolve
odoratus
apologized
apologize
mascot
libretti
abolitionist
pedalier
forecastle
gpu
hidalgo
tirthankar
stirred
fractured
adulthood
antarctica
flexibility
insistence
dismayed
omnisc
lutheran
fluorine
sulfuric
legitimately
ayyub
cigars
pontprenn
svan
ucla
inquirer
chaytor
plurality
bromwich
morelos
proprietor
mckidd
voluntarily
nominees
zimmermann
farewell
lusts
mithrav
##csa
steeger
mcgill
alexandria
embroidered
anatomical
aurora
othniel
ramsay
skepticism
woolf
thieves
inevitably
anesthesia
shoop
shoemaker
overthrown
subscribers
laurel
transplantation
crompton
magistrate
apocalyptic
wreckage
aegis
nanob
uganda
##igenie
anxious
smuggling
restlessness
refurbishment
firecracker
posterior
vikings
mcguinness
malayalam
sovetskaya
cautionary
enlightenment
mysticism
intermittently
bellerive
lignotuber
sutton
##owski
alderley
intestines
roosting
slovenes
burgoyne
violinist
crawford
ignorant
categorised
astronauts
illegitimate
crystallography
montenegrin
cohesive
dheera
faye
tyla
tyler
zionist
zionism
upholding
indulge
showcased
beheaded
kheops
dissatisfied
dissatisfaction
luxury
luxurious
kaufman
kaufmann
cisterns
bismarck
cwt
foothills
lombardo
shropshire
##agnetic
serpent
##epecki
humiliated
salaam
multinucleated
camouflage
melodramatic
obstructions
tornadoes
cigarettes
cereal
cordelia
dartmouth
molloy
sarsens
tynan
almina
ansari
chewing
herodianus
intolerance
agnew
uprooted
refineries
encyclical
wrangler
mclean
venerated
testimonial
tarantino
syncret
astrosporina
gharapuri
muangthong
netherlandish
paleontologist
jakobsson
evangelical
entrepreneurs
dumping
foals
igual
ouw
rallied
ramblin
rosenbl
rickshaws
wnwbl
yukon
##nasite
##functional
inundated
forfeits
reappear
alkali
suvarnabh
leptoceratops
scaffolding
alluvial
grinding
roommate
apprehend
disorders
indispens
indefinitely
intertropical
genealogical
sobri
transparent
handwriting
farsund
caldwell
miyamoto
figurines
lydekker
biomech
unsatisfactory
ruthenian
hodgson
kamalakann
inaccurate
asiaticus
psittacosaurus
a320
bastnasite
bancroft
bournemouth
cervical
dysfunctional
eppley
eusebius
ebergotzen
gtx
gomez
gilded
gillingham
hacarmel
hussars
hottest
haggerty
ithaca
iphigenie
kpj
keswick
kifino
kinescopes
kobe
keshiraja
kookaburra
[...]
