<s>
<pad>
</s>
<unk>
<mask>
!
"
#
$
%
&
'
(
)
*
+
,
-
.
/
0
1
2
3
4
5
6
7
8
9
:
;
<
=
>
?
@
[
\
]
^
_
`
a
b
c
d
e
f
g
h
i
j
k
l
m
n
o
p
q
r
s
t
u
v
w
x
y
z
{
|
}
~
£
¤
¥
§
¨
©
ª
«
®
¯
°
±
²
³
´
µ
·
¸
¹
º
»
¼
½
¾
¿
×
ß
æ
ð
÷
ø
đ
ı
ł
ŋ
œ
ƒ
ǃ
ɑ
ə
ɛ
ɡ
ɪ
ʌ
ʻ
ʼ
ʽ
ˈ
ˌ
ː
α
β
γ
δ
ε
ζ
η
θ
ι
κ
λ
μ
ν
ο
π
ρ
ς
σ
τ
υ
ψ
ω
а
б
в
г
д
е
ж
з
и
к
л
м
н
о
п
р
с
т
у
ф
х
ц
ч
ш
щ
ъ
ы
ь
э
ю
я
і
ј
қ
ҡ
ө
ե
ב
י
،
ء
ا
ب
ة
ت
ث
ج
ح
خ
د
ذ
ر
ز
س
ش
ص
ض
ط
ظ
ع
غ
ف
ق
ك
ل
م
ن
ه
و
ى
ي
پ
ک
ی
अ
आ
इ
ई
उ
ए
ऑ
औ
क
ख
ग
च
छ
ज
ट
ठ
ड
ण
त
थ
द
ध
न
प
फ
ब
भ
म
य
र
ल
ळ
व
श
ष
स
ह
ा
ि
ी
ॉ
ो
ौ
।
॥
२
६
ন
ল
া
ર
କ
ଙ
ଜ
ଡ
ଣ
ତ
ଧ
ନ
ପ
ବ
ମ
ର
ଲ
ସ
ହ
ା
େ
ୱ
உ
க
ங
ச
ட
ண
த
ந
ன
ப
ம
ய
ர
ல
ள
வ
ா
ி
ு
ெ
ை
௩
గ
ు
౯
ಂ
ಃ
ಅ
ಆ
ಇ
ಈ
ಉ
ಊ
ಋ
ಌ
ಎ
ಏ
ಐ
ಒ
ಓ
ಔ
ಕ
ಖ
ಗ
ಘ
ಙ
ಚ
ಛ
ಜ
ಝ
ಞ
ಟ
ಠ
ಡ
ಢ
ಣ
ತ
ಥ
ದ
ಧ
ನ
ಪ
ಫ
ಬ
ಭ
ಮ
ಯ
ರ
ಱ
ಲ
ಳ
ವ
ಶ
ಷ
ಸ
ಹ
಻
ಽ
ಾ
ು
ೂ
ೃ
ೄ
ೕ
ೖ
ೞ
ೠ
ೡ
೦
೧
೨
೩
೪
೫
೬
೭
೮
೯
೵
ം
ക
ഗ
ത
മ
ല
വ
ാ
േ
ൗ
ർ
ං
ක
ත
ද
න
ප
බ
ම
ය
ර
ල
ව
ස
හ
ා
ැ
ෙ
า
າ
စ
မ
ာ
ა
ი
ᄀ
ᄂ
ᄃ
ᄅ
ᄆ
ᄇ
ᄉ
ᄋ
ᄌ
ᄍ
ᄎ
ᄏ
ᄐ
ᄑ
ᄒ
ᅡ
ᅢ
ᅣ
ᅥ
ᅦ
ᅧ
ᅩ
ᅪ
ᅬ
ᅭ
ᅮ
ᅯ
ᅲ
ᅳ
ᅴ
ᅵ
ᆨ
ᆫ
ᆯ
ᆷ
ᆸ
ᆻ
ᆼ
ማ
ኛ
ា
–
—
‘
’
‚
“
”
„
‟
†
‡
•
…
′
″
›
₨
€
₹
℃
←
↑
→
↓
−
√
╮
╰
□
▪
▬
►
▻
◆
●
★
☆
☺
♂
♥
♦
♫
✉
✌
✫
❤
➧
⦁
、
。
《
「
」
【
】
あ
い
お
か
こ
さ
し
す
せ
た
っ
つ
て
と
な
に
の
は
ま
め
や
ら
り
る
わ
を
ん
ア
イ
ウ
エ
キ
ク
ケ
コ
サ
シ
ス
タ
チ
ッ
テ
ト
ニ
ネ
ノ
ハ
ヒ
フ
ヘ
ホ
マ
ム
メ
ュ
ョ
ラ
リ
ル
レ
ロ
ン
・
ー
㎡
一
上
下
不
专
业
东
中
为
主
之
九
了
事
于
云
五
京
人
他
付
仙
代
以
们
价
任
企
会
传
但
位
体
何
作
供
保
信
們
借
健
免
入
全
公
六
兰
其
内
冬
决
出
分
刊
列
利
到
前
力
办
加
動
務
北
区
區
十
午
单
南
厂
县
又
及
发
取
古
只
可
台
号
司
各
合
吉
名
告
和
品
員
商
問
單
四
团
围
圍
土
在
地
场
型
培
基
場
塘
売
夏
多
够
大
天
太
如
委
字
季
宁
它
安
官
定
客
家
富
實
小
少
尔
届
屋
展
山
岛
川
州
工
巴
市
师
平
年
幸
广
庆
应
度
康
建
开
式
强
彩
律
後
徽
心
快
思
性
您
情
成
我
或
戶
户
所
手
扭
技
报
拉
括
拳
授
推
提
支
收
政
教
整
文
料
斯
新
方
於
旅
日
时
昌
明
星
春
是
時
景
更
最
會
月
有
服
期
木
本
村
来
林
果
格
案
業
楽
榔
權
次
款
止
正
氏
水
求
江
決
沙
河
油
治
津
活
测
浙
海
消
深
清
温
港
游
湖
源
灣
炮
爭
物
特
球
理
甘
生
產
用
田
由
留
疆
登
發
的
盡
破
硬
確
磡
祖
福
科
程
種
站
第
策
算
管
範
粉
終
絡
網
総
线
终
经
者
而
联
聯
肃
能
自
至
與
航
般
苏
英
范
荔
蒙
藏
蘇
西
要
覽
角
解
訂
託
話
詳
誌
認
請
議
计
认
训
话
貨
販
費
資
賣
購
贵
赛
跆
蹴
軽
软
辦
辽
过
运
近
这
送
通
速
週
道
邨
邵
郵
都
重
野
錄
链
销
間
阿
陕
雷
電
需
青
鞠
頭
題
领
食
首
验
高
黑
鼎
龍
龙
！
（
）
，
🌅
🌟
🌸
🌹
🌺
🏻
🏼
🏽
👀
👇
👈
👉
👊
👍
👏
💐
💔
💝
💪
🔥
😀
😁
😂
😃
😄
😅
😆
😇
😉
😊
😋
😍
😎
😒
😛
😜
😢
😦
😨
😩
😲
🙁
🙂
🙏
🤣
🧚
##ು
##ಂ
##ಗ
##ತ
##ರ
##ವ
##ಾ
##ಕ
##ಮ
##ಪ
##ೕ
##ಶ
##ಞ
##ನ
##ಜ
##ಯ
##ಲ
##ದ
##ಬ
##n
##t
##e
##l
##c
##u
##a
##k
##y
##ಸ
##ಥ
##ಳ
##ಡ
##ಹ
##ಷ
##ಚ
##ಟ
##s
##r
##9
##7
##2
##ೂ
##ಃ
##೯
##೪
##೨
##ೖ
##ಋ
##ಣ
##ಧ
##ಎ
##ಓ
##ಫ
##0
##8
##ಭ
##p
##ಖ
##ಅ
##ಇ
##i
##h
##ೃ
##o
##w
##d
##ಐ
##ಆ
##m
##ಘ
##z
##1
##ಠ
##೦
##ı
##ಒ
##೬
##3
##4
##g
##b
##6
##5
##ಛ
##ع
##ر
##ض
##೫
##೧
##v
##f
##е
##р
##ф
##о
##м
##у
##л
##и
##т
##x
##೭
##ಝ
##ಢ
##j
##೩
##ಊ
##ι
##ν
##ο
##ς
##೮
##ʻ
##к
##ы
##г
##з
##б
##ч
##н
##¸
##q
##д
##х
##с
##ي
##ا
##ि
##य
##ा
##¾
##ಏ
##¨
##ª
##ो
##क
##ण
##च
##ƒ
##×
##ᅳ
##ᄉ
##ш
##ʌ
##ɡ
##°
##ಔ
##ь
##в
##¯
##ل
##م
##س
##ت
##ح
##λ
##ೞ
##ø
##ಈ
##ش
##ᅦ
##ᆨ
##ᅡ
##ल
##ब
##ळ
##ी
##α
##π
##τ
##σ
##μ
##ಉ
##د
##ق
##ー
##ム
##の
##ಙ
##а
##श
##म
##ц
##ह
##त
##േ
##ാ
##ത
##മ
##ം
##ഗ
##ല
##😁
##😂
##😃
##😜
##😆
##ᅥ
##ᆫ
##ᄌ
##ᄃ
##ᅵ
##र
##ग
##ث
##÷
##³
##ю
##щ
##ж
##я
##★
##ಽ
##ج
##ب
##ة
##п
##द
##व
##ى
##ங
##க
##ு
##ச
##प
##ଙ
##କ
##ା
##ड
##ᅧ
##ᅢ
##ɛ
##و
##ك
##º
##し
##て
##い
##ま
##す
##ف
##®
##🙏
##🏼
##न
##ن
##😄
##😅
##ө
##ெ
##ல
##ி
##ா
##ய
##ב
##ෙ
##ා
##ල
##ක
##ර
##ط
##غ
##ए
##ク
##リ
##ス
##マ
##ラ
##イ
##フ
##ء
##▬
##स
##ア
##ノ
##ज
##ट
##ص
##ᅮ
##ᆼ
##ᄀ
##κ
##υ
##ρ
##ᆯ
##¹
##ه
##ಱ
##ð
##¤
##थ
##ᅩ
##ウ
##ン
##ロ
##ト
##コ
##ζ
##ω
##ೄ
##😀
##🏻
##θ
##ন
##ی
##಻
##η
##ख
##👍
##🔥
##æ
##œ
##भ
##👈
##ː
##छ
##と
##か
##ら
##²
##🤣
##फ
##ष
##ठ
##💐
##ᅪ
##ᄐ
##خ
##−
##ß
##ε
##β
##ध
##೵
##ᄋ
##ॉ
##י
##ன
##ை
##ん
##इ
##ᅯ
##ौ
##ම
##න
##こ
##に
##た
##わ
##る
##►
##ル
##ର
##ᅣ
##£
##シ
##エ
##キ
##த
##→
##ز
##େ
##ତ
##і
##ា
##ᄒ
##າ
##せ
##ବ
##ଧ
##ᆻ
##ᄂ
##♂
##ł
##आ
##ई
##ハ
##テ
##ョ
##э
##ヘ
##ᆸ
##ம
##ண
##ட
##ˈ
##ə
##ය
##қ
##😨
##ැ
##ᄎ
##ッ
##౯
##ک
##💪
##ଡ
##ମ
##δ
##ᅲ
##ᄅ
##ظ
##¼
##ත
##ස
##ذ
##ᆷ
##ᄍ
##ᅴ
##っ
##ᄇ
##வ
##ள
##ŋ
##ɪ
##ᄑ
##ュ
##ニ
##ъ
##₹
##😩
##💝
##な
##お
##✌
##😎
##ଲ
##ե
##➧
##२
##া
##ল
##㎡
##½
##❤
##¥
##😢
##😇
##レ
##タ
##を
##😍
##ർ
##め
##🌸
##ヒ
##ψ
##は
##६
##ホ
##ව
##ද
##හ
##👏
##👊
##ケ
##ං
##🏽
##ந
##╰
##ଣ
##γ
##ు
##గ
##า
##🌺
##©
##🌅
##ማ
##ኛ
##ҡ
##බ
##ǃ
##ᄏ
##ɑ
##ᅭ
##ᅬ
##😉
##ନ
##ʼ
##☆
##😋
##ൗ
##±
##😊
##ˌ
##ප
##ர
##👇
##उ
##ହ
##あ
##り
##မ
##ာ
##စ
##پ
##ଜ
##サ
##メ
##↑
##ა
##ი
##ર
##ೡ
##ப
##😒
##🧚
##ಲಲ
##ಾರ
##ಂದ
##ಾಗ
##ರು
##ನನ
##ತತ
##ಗಳ
##ೂೕ
##ದದ
##ನನು
ಪರ
##ುವ
##ಂತ
ಮಾ
##ುತತ
##ದು
##ಕಕ
##ಾನ
##ಂದು
##ದಲಲ
##ಂಡ
##ವರ
##ದರ
##ಯಾ
##ತರ
##ವು
##ಾಲ
##ಟಟ
##ತತು
##ವಾಗ
ಮಾಡ
##ಾಯ
##ಕಷ
ಸಂ
##ಕರ
##ತಯ
##ಗಳು
##ೕರ
##ಕೂ
##ವಾ
##ಂಬ
##ೂರ
##ಲು
##ಂಗ
ಮು
##ರುವ
##ಮಮ
##ೕಶ
##ರಾ
ನೕ
##ೕಕ
##ಯಲಲ
##ಷಟ
##ಸದ
##ನಾ
##ದದಾರ
ರಾ
##ಕಾರ
ಮತತು
##ಳಳ
##ಂದರ
ಮೂ
ಸಾ
##ಗಳನನು
ಕೂ
##ೕಳ
##ರಸ
ಎಂದು
##ವನನು
##ವರು
##ತು
##ಗೂ
ನಡ
ಕಲ
##ುವು
ಕಾರ
##ಚಚ
##ರೕ
##ಾದ
##ೕವ
##ುತತದ
##ನು
##ಾವ
ಸಮ
ಬಳ
ಹಾಗ
##ಲಾಗ
##ಾಸ
ಸರ
##ಂತರ
##ದದು
ಸು
ಕರ
##ಯಾಗ
ಕು
##ೕಲ
ಅವರ
ಹೂ
##ೂೕಗ
ಕಾ
ನೕಡ
##ಕೂಂಡ
##ಬೕಕ
##ದೕ
ನರ
##ದಯ
ವರ
##ಗಳಲಲ
##ಧಯ
##ಡು
##ನಲಲ
##ನಯ
##ಪಪ
##ಮಾ
##ಬಬ
##ಗರ
##ಲೕ
##ಕತ
ರಾಜ
##ಹು
##ಗಗ
##ಪರ
##ನಸ
##ಂಟ
ಹಾಗೂ
ನಮಮ
ಹೕಳ
ಆರ
##ಾಕ
ಆಗ
##ಸತ
##ಡಯ
##ಕೂಳಳ
ಹಚಚ
##ಸುವ
ಎಂಬ
##ದಧ
##ಸಥ
ಆದರ
##ರಗ
##ಣಣ
##ೂರು
##ವೕ
##ಯೂ
ಒಂದು
ಇಲಲ
##ಂಕ
ಜನ
ಗು
##ಯನನು
ಅವರು
##ಂಗಳ
##ನಗ
##ಮಾನ
ಅವ
ಮೕಲ
##ೕಯ
##ೂೕಡ
ವಯ
20
##ಗಳಗ
ಮಹ
ಎಲಲ
##ದಂದ
##ಲಕ
##ೕಗ
##ad
ಚತರ
##ೂೕಟ
##ತನ
ಇದ
##ಕಾ
##ಸುತತ
ಭಾರ
ಕೂಡ
##ಳು
##ಖಯ
##ಾವು
ಬರ
##ರುತತ
##ಬೕಕು
##ಂಧ
ಸರಕಾರ
##ದದರು
ಸಥ
##ದೕಶ
ಅಭ
##ುವುದು
##ದರು
##ಾರು
##ಬಹು
##ಲಯ
ವಶ
##ನೕ
ಪು
##ತಾ
ಅರ
##ಳಯ
ಕಾರಯ
##ಂಪ
ಬಗಗ
ಸಹ
##ಟರ
ದನ
##re
##ಟಟು
##ಟಕ
ಬಂದ
##ೕನ
##ಳಗ
##ಜನ
##ಂಚ
ವರಷ
##ವಾದ
ಹು
##ಚಾರ
ಭಾರತ
##ಳಸ
##ಧಾನ
##ಲಾಗದ
##ಾಪ
ಮನ
ಮುಂದ
##ನನೂ
##ಕು
##ಸಯ
##ರುವು
##ದದರ
ಅದ
##ಲಾ
ಕಾಲ
##ಡಡ
##ೂೕರ
##ಸರ
ಅಲಲ
##ಡಸ
ರೂ
ಪರತ
##ಲದ
##ೕತ
##ಷಟು
##ಕಷಣ
ನನನ
##ಸದರು
##ನನಡ
##ಯೕ
##ಧಕಾರ
##ದಲ
ತು
ಸವ
##ಾಳ
ಜಲಲ
##ರಯ
##ೕಟ
##ಂಭ
ರಾಜಯ
##an
ತಮಮ
ಪೂ
##ೃತ
##ವದ
##ಾಮ
##ಟನ
##ಬಹುದು
ಅನು
ಸೕರ
ಕಡ
ಈಗ
##ೂಂದ
ನೂೕಡ
re
ಬಂಗಳ
##ಾಣ
##ುರ
##ಾಟ
##ವಾರ
ಅನ
ಕನನಡ
##ಳದ
ಬಲ
mo
##ವಣ
ಹೕಗ
ಕೖ
##ಕಟ
##ರಲಲ
##ಾಡ
##ಷಯ
##ಸಲು
##ಾನು
##ಾಗದ
ಹೂೕಗ
##ಾತ
201
##ರಾಮ
##ಷಣ
ಹೂರ
ಇದು
ತರ
##ವೂ
ಮತತ
##ತಗ
ಅಂತ
ಜೂ
ಮೂಲಕ
##ಸಟ
##ಾಜ
##ಕರಣ
ಉತತ
##ೕಂದರ
##ೂೕಪ
more
read
##ರಮ
ಎರ
##ಕೂಂಡು
ಹಂದ
ಸೂ
ಬಜ
##ದರೂ
ಎಂದ
##ವರಗ
ಕಾರಣ
ಬೕ
##ಕಸ
##ಾಹ
ಆಯ
##ಗೂಂಡ
##ಮಾರ
ಮುಖಯ
ನಲಲ
ಪರಶ
ಶರೕ
##ಕಕೂ
##ಂಜ
ಪಡ
ತನನ
ದೕಶ
##ನಂದ
##ಮಗ
##ದಾರ
##ದಂತ
ವೖ
##ಡುಗ
ಕಲಸ
##ದರಂದ
##ವಾಗದ
ಚು
##ಲಪ
##ಕರಮ
##ಾಯಕ
##ಟು
##ರಣ
ಮಾರ
##ಧಯಕಷ
ಎಸ
##ಹತ
ಹೂೕ
ಉಪ
ಮಾತ
ಮೕ
##ಗಳಂದ
##ಮನ
ರೖ
##ವಲಲ
##ನಾಡ
##ವನ
ಗರ
ಹಾಕ
ಬಜಪ
##ುತತದದ
ನಡಯ
ಅಥ
ಕಾಂಗ
ನಾನು
ನಂತರ
ಅಧಕಾರ
##ದಾಗ
ದೕ
ಯಾವು
ಪಕಷ
##ಎಸ
ಕಾಂಗರಸ
ಬಳಕ
##ಲಸ
ಮೖ
ಬಂಗಳೂರು
ಕೕಂದರ
##ವಾಸ
##ಯು
##ೕತರ
ಸನ
##ಲೕಸ
##ಬಂಧ
ಕಷ
ಹೂಸ
##ಮು
##ನಾವಣ
ನಗರ
ಅಥವಾ
ಎನನು
##ಹಸ
##ಯಾದ
##ೂಂದಗ
##ಸಸ
ಯೂೕ
##ಮಕ
ತಳ
##ಮರ
ಹಲ
##ಗಾರ
ಮಾತರ
ಕಾಣ
ಹೂಂದ
##ಹಾರ
ಜೕವ
##ಮಾಣ
ಚುನಾವಣ
ಅಪ
##ತಯಲಲ
##ೂಂದು
ದೂರ
##ಜಯ
##ತಸ
ಬಾರ
ಮಕಕ
ವದಯ
ಸಲ
##ಯಂದ
##00
##ar
ಒಂದ
##ಡಗ
##ತಯನನು
ಕೕಳ
##ಜಞ
ಹಚಚು
##ಸಲ
ಗೂ
ಮೂದಲ
ಅದರ
##ಯರ
ಸಾಧಯ
##ೕಜ
ಪೂಲೕಸ
ತೂ
##ಾತರ
ಸಂಗ
##ಾರಥ
##ುತತಾರ
ಸಚ
ಸದ
ಕರನಾ
ಬಯಾ
ಸೂೕ
ವರು
ಹಣ
ದೕವ
ಸಂಬಂಧ
ಆಸ
##ಾಯತು
##ರೂ
##at
##ರುತತದ
ಕೃ
ಭಾಗ
ಸಪ
ದಾ
##ಕರು
##ಭವ
##ೕಷ
ಪರೕ
ನೕರ
ಮರ
ಅಧಯಕಷ
ಮಾತನಾಡ
ನೕವು
ಸಟ
##ಂಶ
ಕರನಾಟಕ
##ಕನ
ಪೂರ
##ಗು
##ಕಾಶ
##ಲೂ
ಎಂಬು
##ಯಯ
ತಂಡ
ಶು
##ುವಂತ
ಕಂಡ
##ದನನು
ರೂಪ
##ೂೕಧ
ಇದೕ
ಕಷೕತರ
ನಾವು
##ಲಾಗುತತದ
ಸಥಳ
ಗರಾಮ
ಆತ
ನಟ
##ೂೕಷ
##ೖಲ
ಮಾಡದ
ಕಟಟ
##ಸದದಾರ
ಕುರ
##ಧಾರ
ದೂ
ಸಂಸಥ
ದು
ಯಾವುದೕ
##ಯಾಪ
##ಶನ
ಬಡ
##ವೃ
##ಯದ
ಹಸ
##ಚನ
##ಯೂೕ
##ಹಲ
ವಚಾರ
##in
ಅದು
ರೕ
ದರ
##ರುವುದು
##ಯಾನ
ವಯಕತ
ಕಂಪ
ನಮಗ
##ಲನ
##ಂಥ
ಬಸ
ಅತ
ಮೂೕ
ಸಂದರ
ಶಾಲ
##ಣಯ
##ೖಕ
ಬೕರ
ಹರ
ಇನನೂ
##ಪಡಸ
ತುಂಬ
##ann
ವರುದಧ
##ವಾಮ
##ುತತರುವ
##er
##ಯಾಸ
ಕೂೕಟ
##ಶಯ
ಎರಡು
##ada
ಆರಂಭ
##ಭಾ
ಮಾಡುವ
ಸಾಲ
ದಾಖ
ಕಾರಯಕರಮ
ಬಹು
ಗಳ
##ಸತು
ವಯವ
ಶಾಸ
##ಯಾರ
##ಬರ
ತಗ
##ತವ
ಸಂಪ
##annada
##ಂಬರ
##ೖನ
ವಶವ
ಪರದೕಶ
ಪತರ
ಇದರ
ಸಾರ
ದೂಡಡ
##ೂೕನ
ಅವರಗ
##ಕಕಾಗ
ಸೕ
ಚನನ
ಮುಖ
ನನಗ
ಸಂಘ
ವಷಯ
##ಪಡ
ಅಗ
##ಮಂತರ
ಕುಮಾರ
##ಂತಹ
kannada
ವೕಳ
##ುವುದಲಲ
10
ರಾಷಟ
ಇಲಾ
ಲಕಷ
ನಡಸ
19
ವೕ
ಕಳ
ಅಸ
##ೂೕಲ
ವಾರ
ಪರಕರಣ
##ಡಕ
##ುತತವ
ಗಣ
##ಳತ
##ಾಲಕ
ಕಲವು
##ಷಠ
ನಡದ
ಭಾ
##ia
ಪದ
##ರಾಗ
##ಾಂತ
##ೂಬಬ
ನಾಯಕ
ಬಳಸ
ಮತ
ಪರಯ
ಪಡಯ
ಸೕವ
##ಗೂಳಳ
ಬೕಕ
##ಮತ
ಬು
##ಮುಖ
##ಷಟೕ
ಕಡಮ
##ಸು
ಪಟಟ
ನಯಾ
ಯುವ
ಜೕವನ
##ೕಖ
##ದನ
##ದಗ
ವಧಾನ
##ನನೕ
ಪರಧಾನ
ವದಯಾರಥ
ಉತತರ
ನಗ
ವವ
ನರದೕಶ
##ಲಲಲ
ಚರ
ಸಾಧ
ಶವ
##ತಪ
ಆರೂೕಪ
##ew
##ಗೂಳಸ
ತಪಪ
ಎಲಲಾ
ಇಂದು
##on
ಯಾರ
##ಮಸ
ಸಗ
ಆಡ
ನಡುವ
##ಯದಲಲ
ಸಚವ
ನಯ
ಎಂ
##ಮೂ
ಸಮಸಯ
ಆಟ
##ಹತಯ
ಸಥಾನ
ಕಳದ
##ಭಯ
##ೂೕಕ
ಮುಖಯಮಂತರ
##ಸಕ
ಯು
ಗುರು
ಘಟನ
ಜಲಲಾ
##ಜಞಾನ
##ತತರ
##ಮಾರು
##ರಕ
##ದುಕೂಳಳ
ಅವರನನು
ಸಂದರಭ
##ಾಬ
ಇರ
##ೕಸ
ಅತಯ
##ಕೕಯ
##ಲಗ
ಶರ
ಯಾವ
ಬಹ
ಉತತಮ
##al
ಎದು
##ೃಷಟ
ಸದಸಯ
ಕರಮ
ಸಕಕ
##ದಲು
##ೕಡ
##ews
ತೕರ
##ಪತರ
ಬಟಟ
ಮಾಹತ
in
ವಶೕಷ
##ಸದದ
##ಯಾಗದ
##ಯನ
ಪಾಲ
ಸಲಲ
##ಕರಯ
ಅದನನು
ಆದ
ಹರಯ
##ಮಾನಯ
##ವಯ
##ೂೕಗಯ
ಸುದದ
##ುವುದ
ಪಾತರ
##ಕಯ
ವಯಾಪ
ಬದಲ
ಹಚಚನ
##ಡದ
##ವೕಶ
ಎರಡ
ಉದಯ
ಪರಣ
ಮಧಯ
ವಯವಸಥ
ಮಂಡ
ನಡದದ
##ಲಲೂ
##ನನನು
ಪರಾ
ತಳಸ
##en
ಸುಮಾರು
ಭೂ
ಮೂಲ
ಗೂೕ
ಮಗ
ಪರಸ
##ಣಣು
ಸನಮಾ
ಮಕಕಳ
ಹಾ
ಡಾ
##ಕವಾಗ
ಹಲವು
ತಾ
ಭರ
ಮಟಟ
##ದುಕೂಂಡ
ತಂದ
ಫಲ
ಬಡುಗ
ಕೂೕ
##ಯಾಣ
ನಾ
ಜನರ
ಅಧ
##ರೕಯ
ಪರಮುಖ
ನರೕ
ಮಾಡಲು
##ಾವಣ
##ರಾಟ
ಇರುವ
ನಾಗ
ನರವ
##ಸಕೂಳಳ
ಇನನು
ಶೕ
ಕುರತು
##ುತತದದಾರ
##ಕತಯ
ಅಭವೃ
##ಂಗಲ
##ೂರತ
ವಭ
##ಜು
ಗಾ
##ೕಪ
ನೕರು
200
ಮಂಗಳ
ಆಫ
##ಾರಂಭ
ಸಾಕಷ
ಉದದ
15
##ದಾನ
##ೂರನ
ಇತತ
##ುವರ
ಗರಾ
ಕಾಯ
##ಟುಂಬ
ಒಬಬ
##ಬಲ
ನೕಡದ
ಮಂದ
ವವಧ
ಪರಮಾಣ
ಅನನು
ಮಾತು
ಹನನ
ಜೂತಗ
##ಎಂ
ವಾಹ
ಇದದ
ಅವಕಾಶ
ಕಯಾ
ಮೂರು
ಸೕರದಂತ
ಸದದ
##ಪತ
ಪರತಯ
ಮನಸ
ಇತರ
##ಪಟಟ
##ದುವ
ಬಾಲ
ಪರೕಕಷ
ಭೕಟ
ಬಯಾಂಕ
ಬಗ
ಹೕಳದರು
ಹಸರು
ಅಂಗ
ಮಾಜ
ಎಂದರು
ಜಾರ
ಇಲಾಖ
ಬಡುಗಡ
##ನಕ
ಗೂತತ
##ವತ
ಏಕ
ಜೂತ
news
##ನರ
##ಬಾರ
ಜಡ
##ದದರೂ
ಆನ
ಕಂಡು
ಸಾವರ
##ಪುರ
ಭಾರತದ
ಸಂಖಯ
ಇದನನು
ಸಾಮಾನಯ
##ೂೕರಟ
##ುತ
ಬದು
ಕುಟುಂಬ
ವರಗ
12
##ಾಗಲೕ
ಅಗತಯ
2018
##ಾಯತ
ಜಾಗ
##ಲಯಲಲ
##ಾದರ
ಇವರ
##om
ಅನೕಕ
##ಜಕ
ಮೖಸ
ಪಂದ
ಒಳ
##ಸಲಾಗದ
ಉದ
ಸಂತ
##ಪು
ವಾಹನ
ಒತತ
ಸಭ
ಸದಧ
ಶಕಷಣ
##ಾಗುತತದ
ನಾಲ
ಸುತತ
ವೃ
##ಕಟಟ
ವರಷದ
ಭಾವ
##ಸುತತದ
##ಚಗ
##ಕರಗ
ರಸತ
ಎನ
##ೕಶವರ
##es
ನನ
ಅನುಭವ
##ಭಾವ
##ನನಲಲ
##ವಾಗುತತದ
ಉತಪ
ಮುಗ
##ೕವಲ
ರಾಜಕೕಯ
ಇಂಡ
##ಶಚ
ಚಕಕ
ಸರಕಾರದ
##ಬಹುದ
ಸಪರ
ಕೕವಲ
##ದದರಂದ
ಅವು
##ತರು
ಪೂಲೕಸರು
ಪಂಚ
##ಾದರೂ
##dia
##ೂಪ
##ರಂಗ
ಅಲ
##ಾಲಯ
ಭಾರತೕಯ
ಗಂಟ
##ರಂದು
##ic
ದೕಶದ
ಯೂೕಜನ
##ಸಕೂಂಡ
##ಮಯ
ಅರಥ
ಒಪಪ
ಹಸರ
ಯಶ
ಅದೕ
##ಯರಥ
ಕಥ
ಜಗ
ಸಂದರಭದಲಲ
ಆಯಕ
ಮಹಳ
ಸಂಪರ
ಇಡ
ಅಭಯರಥ
ಶಕಷ
ಮೂೕದ
ಅಭವೃದಧ
##ೖಟ
ಸಮಾಜ
ಆರೂೕಗಯ
ಮಳ
ಇದಕಕ
ನರಮಾಣ
ರಸ
ಭಾಷ
##ರಾದ
ಬಂಧ
ಅನನ
ಬಂಬ
ಇದರಂದ
##ೂರಣ
##ವಾಹ
ಇತತೕ
ಇತ
##or
##ಯಾಲಯ
ಎನನುವ
ಕವ
ತೂೕ
ಹಬಬ
ವನ
ಸಾರವ
##ಕಲ
##it
ಹಡ
##ಗಾಗ
##ರಲಲಲ
ತಯಾರ
##ಸವಾಮ
ಕೂಟಟ
ಅಮರ
ಮುಂದನ
ಎಂಬುದು
ಪಾರ
ಮಹಳಯ
ಬಹಳ
ಸಾಗ
##ನಾಥ
ಅಂದರ
ಧರಮ
ಕರೕ
##ಡನ
ಪರಣಾಮ
##ಬು
ನೂೕ
ಮನಯ
##ರುಗ
##ಳವ
ಜಯ
##ರನನು
##ದೂ
ಕೃಷ
ಜಡಎಸ
ಮದುವ
ಮುಂಬ
ವಾಸ
##ಣದಲಲ
11
##ುತತಾ
ಅದಕಕ
##ತಕ
ಸಾಮಾ
##ಜಜ
ಚತರದ
##ಕುಮಾರ
ತರಗ
ಎಚ
##ದರಶ
ಇಬಬ
ವವರ
ನಜ
##ಂಟು
ಚರಚ
##ದಾಯ
ಕರಯ
##ಂಡು
ನಂಬ
ಬಂದು
ಬಾ
##ಸವ
ಕಾಲೕಜ
ಏನ
ಗಮನ
##ak
##ದರಶನ
##ಾನೂ
ಆಸಪತರ
ವಧಾನಸ
ಇಂದ
ಸಾಮಾಜಕ
ರಾತರ
ಮಾರು
ಅಂದ
##ಗಳಾಗ
##ತವಾಗ
ಏರ
ನಂತ
##ುವಾಗ
##ರನ
ಗಡ
ಬರುತತ
##ರಂದ
##ಗರಹ
ವಾ
18
##ಳಳಯ
30
ಹೕಳದದಾರ
ಮಾಡದದಾರ
ಇಷಟ
ಪಾ
ಪರಕಾರ
##ಜಾ
ಜಲಲಯ
ಪರತಭ
ಸವಲಪ
ರಾಮ
ಹಾರ
ಆಚ
ಸಾಹತಯ
##ುಲ
##ಾರಾ
##ದದಾನ
ಸುರ
ಅಡ
ಸಾರವಜನ
##ಲವ
##st
##ಾಭ
##ಸತರ
ನಾಯ
##ಮಾಡ
ವಜಯ
##ವನನ
ತಲು
ಪರಕಟ
##ಗೂಳ
##ಹನ
ಗುಣ
ತಂಗಳ
ಸಣಣ
##ಮೕ
##ದದೕನ
ಪರವಾಸ
ವರದ
ಇಂತಹ
##ೂೕತಸ
ಹಂತ
ಮೂರ
##ವಾನ
##ರಾಜ
ಗಲ
##ಲಲಾ
ಬಯ
ಹಾಲ
ನೕತ
ಸಪರಧ
##ಪಪು
ಬರುವ
##ಗಳೂ
ಜನರು
ಹನನಲಯಲಲ
##ಧಯಮ
ಮೂದಲು
##ಟಟದ
ಅಂತರ
##ವುದು
##ಸತಕ
ಸಮು
ವರೂೕಧ
ಈಗಾಗಲೕ
ತಾಯ
ಟರ
##ಸುತತಾರ
ಇವ
##ದಲಲರುವ
ವೖದಯ
ಪಕಷದ
ಸಮಯ
ಬಳಗ
##ದಲಲೕ
ತಲ
ನಗರದ
ಬಣಣ
ಲೂೕ
ದಕಷಣ
##ತಯಂದ
##ಲಾಗುವುದು
ನು
##ೕನಾ
##ವಾಡ
ರು
ಹೕಗಾಗ
##ರಾಮಯಯ
ಆಹಾರ
ಬಳಗಗ
ರಾಜಯದ
ತೕ
ಅತಯಂತ
ಅಮ
##ಪರೕ
ಮಾನ
ಹೂೕರಾಟ
##ಯಾತ
ಕಂಪನ
ಸೂಚ
##ನಯನನು
##ಲಾಗತತು
ಉದದೕಶ
ಕಚ
##ಾಸಗ
ಆತಮ
ಎಂದರ
ಮಾಧಯಮ
##le
##ದದದ
ಮಾರಗ
ಮಲ
##ಚತರ
ಚಾಲ
ಮಲಯ
##ೂೕಣ
ಮಾಡುತತ
ವರಷಗಳ
##ಸತಾನ
ಕಷಟ
ಸನೕ
##ಾಲೂ
ಪಾಕ
ರಂಗ
##ಸಥಾನ
ನಮ
ಪರಶನ
ಖರೕ
ಇನನ
##ೖಸ
ನೂೕಟ
##ವಸ
ರಾಷಟರ
##ಂಕರ
ರೖತರ
ಎನನ
##ಂಡರ
ಪರಯತನ
##ಯಾಯ
ನಲ
25
ವಧ
ಮನಯಲಲ
##ಹಾಸ
ಮಾಡಕೂಳಳ
##ಯೂೕಗ
ನವ
##ಡಯೂೕ
ಪುಸತಕ
##ಣಗ
ಹುಡುಗ
##ದುಕೂಂಡು
ಪರಯಾಣ
ರಾಷಟರೕಯ
ಮಾರುಕಟಟ
ಒದಗ
##ತಂತರ
ಮೂಡ
##ತೂ
##un
##ಷನ
ಯೂೕಜ
##ಕಕಂತ
ಹಲವ
ಕೃಷಣ
ಲೕಖ
ಮೖಸೂರು
ರಚ
##ಂಸ
ಒಳಗ
##ಗಡ
ಸುಲ
ಆಗದ
ರೕತಯ
ತುಂಬಾ
##ವಳ
##ಣದ
##ಹಮ
##ಟಲ
##ಕಕು
##ಸುವಂತ
ಇಂಗಲ
ವಸತು
##ಡಾ
ಪೂಜ
ರೂಪಾಯ
##ತತನ
##ಲಲು
ಸಾಕಷಟು
##ಸುತತದದ
##am
ಕರಕಟ
ನೕಡುವ
##ಾಪುರ
ಸದದರಾಮಯಯ
ಸವಾ
ಇದೕಗ
ಒಂದೕ
ಕೕರ
ಹಾಗಾಗ
ಕನ
##ದಕ
ಸಂಪೂರಣ
ತಾಲಲೂ
com
ಮಾರಾಟ
ಕಣ
##ುವನ
ದಾಖಲ
##ಸರುವ
ತಂತರ
ಇಲಲದ
##ಚಛ
ಸವಾಮ
ಬಳಳ
14
ನೕಡದದಾರ
ಏನು
ಸಥಳೕಯ
##ion
ಪರೕತ
##ಬೖಲ
ಪರಗ
##ಕೂಡ
ಕಣಣ
##ವನನೂ
ಸಹಾಯ
ಕಚೕರ
ಎಲ
ಅಧಕಾರಗಳು
ತಾಲೂ
ತಳಸದರು
ಎಲಲರ
ಮನಗ
ವಮಾನ
ಡಸ
ಆಡಳತ
ನಂದ
ಇವರು
ಕರು
ಸಂಬಂಧಸದ
ತಂ
on
ಸದಯ
##ರುವುದರಂದ
##ಗಳವ
ಬಂದದ
ಕುಮಾರಸವಾಮ
##ಸುವುದು
##ಾರಟ
ಸತಯ
ಗಾಂಧ
ಕೂರ
ಸಮಮ
ಜಾಲ
ಆಕರ
##ಕದ
ಬದ
ರೕತ
ಪರಚ
ವಕ
ದೕಹ
ಚಂತ
ದಾರ
ಪರಶಸತ
##ಸಕೃತ
ತನ
ತಳಸದದಾರ
ಅಂಶ
ಸಂಗೕತ
##ೂೕಸ
ಪರವೕಶ
ದನಗಳ
ಇವು
ಹೖ
##ಕತಸ
ಹಲವಾರು
ಕಾನೂ
ಇತತೕಚಗ
ಪರಸಥ
ನಾಲಕು
ಮೂಬೖಲ
ಕಪ
##ಬಂದ
ಮಾಡಕೂಂಡ
ತೕವರ
ಪೂರಣ
ಬಟಟು
ಬಳಯ
ಆಶ
ಮಸ
ದೃ
##ೂರನಲಲ
ಕಲಪ
##ಯಾಂಡ
ಸೂೕಮ
##ವರನನು
ನವದ
ನಯೂ
16
##ಸಬೕಕು
##ಾಗದದ
ಅರಜ
ಆರಥ
ಧಾರ
ತಮ
##ಯಂತ
ಅಭಮಾನ
ನರವಹ
##ಕಗ
ಠಾಣ
##ur
ಹಂಚ
##ದದದಾರ
##ಪರಾಯ
ಹಣಣು
ತಲುಪ
ಮುನನ
##ಧು
ದಾಳ
ಹಾಸ
##ed
##ವಂತ
ಕರಾ
##ವುಡ
##nat
##ೂೕದು
##il
ಟೕ
ಗಾಯ
##ಸನ
ಪಂಚಾಯತ
ಅವಳ
ಆದೕಶ
ಸಂಜ
ಎಚಚ
ನಾನ
ಪರಹಾರ
ಶಾಸಕ
ಕೂಲ
ಹಚಚಾಗ
ಶಟಟ
13
ಚಂದರ
##aka
##ಕೃತ
ಖರೕದ
kar
ರಂದು
ರಕಷಣ
##ವಣಗ
ಖಾಸಗ
ಸಬಬ
ಫೂೕನ
ಆಧಾರ
ಪರಾಣ
ತೂೕರಸ
ಹುಡು
##ol
ನಡಸದ
ಒಟಟು
ಟವ
##ೂೕಜ
ಸಮತ
ಅವನ
ಯೂೕಗ
ಎನನುತತ
##ಯಾಕ
ಕಾರಯಕರ
ಗಣೕಶ
ನವದಹಲ
ಎಷಟು
##ರುವಾಗ
ದನಗಳಲಲ
ಕೖಗೂಳಳ
##ರಲ
ಕಾರು
ಬಂಬಲ
##ಬಬರ
##ಪಾಲ
ಸಬಬಂದ
ವೃತತ
ನರೕಕಷ
ಎಂಬುದನನು
ದನಾ
##ದದದು
ನಲದ
##ವೃತತ
ಅಷಟ
ಓದ
##ಟಸ
##ಹಳಳ
ಹತತ
ಮನು
##ವರಗೂ
##ಾಂ
ಚುನಾವಣಯಲಲ
##ನದ
##ುವಾರ
17
ವಜಞಾನ
ಒಳಳಯ
##ಚತ
ವಭಾಗ
ಮತತೂಂದು
ಪೕ
ರಲಲ
ಹೕಳದ
ಫರ
##ೕಕರ
##ಬಾರದು
##nataka
ಇಲಲನ
ಶಕತ
ಭಾಗವ
ಕಮ
ಕಾಲೕಜು
ಹಾಡ
ಅಪಪ
ಯಾಕ
ಖು
ಸುಲಭ
ಸಂದ
ಪರಾರಂಭ
ಸಪಷಟ
ಪರದರಶನ
ಜನಪರ
ಮಾಲ
##ೂೕದ
ಆಲ
ದೕಪ
ಕಾವ
ಮಾಡದದ
##ಲದದಾರ
ಕನಸ
ಮೕರ
karnataka
ತಳಯ
##ಾಚಾರ
##ುತತತತು
ಮೃತ
ಸಕ
##ೕಕರಣ
th
ಉಂಟ
##ಸುತತದದಾರ
##ುವುದರ
##ನಾಗ
ಬಾಗ
##ಣಾ
ಅಶ
##ರುತತಾರ
##ತದ
ಮಾದರ
##ಳಕ
##ಧರ
ಮಂಜ
ಪಡದ
ರೂೕಗ
50
ಸಮರ
ಗರಾಹ
ಸನಮ
ನೕಡದರು
ಶಾ
ಬೕಳ
ಅಂಕ
ಸಂಪರಕ
##ಬಡ
ಮಕಕಳು
##as
##ಾಯಣ
ಫೂೕಟ
ವಹಸ
ಪರಸರ
ಗುರ
ರಾಹು
ಸಥಾಪ
ಉದಯೂೕಗ
ಬಂಡ
##ಚರಣ
ಮರು
ಲಭಯ
ನರೕಂದರ
ದುರ
##ತಾರ
##ುವುದಾಗ
ಸಾಧಯತ
##ಮಂಟ
##ಧನ
ಬರಯ
ಯಾ
ದೕವರ
ಸೃಷಟ
ನರದೕಶಕ
ಬದಲಾವಣ
##ent
ತರಳ
ರಾಯ
##ಬೕಕಂದು
ಸಮಯದಲಲ
##ಚು
ಸನೕಹ
##ಸದದು
ಪಾಕಸತಾನ
##ದದಾಗ
##ಸದಾಗ
##ೕನು
##ಂಪರ
ನನಪ
##ೂೕಹ
##ಸುತತರುವ
ಅಭನಯ
##ಂಡನ
ಇಂಥ
##ೂೕಶ
##ಜರ
##ದದವು
ಸುಂದರ
ಹಮಮ
##ಕೂಲ
##ುವುದರಂದ
ಅವಧ
##ರುತತವ
ಸೂಕತ
ಒಟಟ
ಇಡೕ
##ಯಾಮ
##ಗಳಾದ
##ೕಗಡ
ಹುಟಟ
ಸಂಭ
ವದೕಶ
##ಸದರ
ವಸತ
ಅಲಲದ
ನರಧಾರ
##ುತತದದು
##ವಾಗದದು
ಜತಗ
ಸಾಧನ
ನರಾ
##ಚಚು
ಚಕತಸ
ಮಾತನಾಡದ
ಇನ
ಪತರಕ
21
##ಡಯುವ
##ಆರ
ಆದರೂ
ಇದರಲಲ
##ವರಣ
ಓಡ
ಮಾಡಲಾಗದ
ಚತರದಲಲ
ಬೕಡ
ಚಟ
##ುಟ
ಬದುಕ
ರಮ
ಪರಶೕಲ
##ing
ಪರಮ
##ಚರ
##ುತತಲಲ
ಚನನಾಗ
##ಘಾತ
ಮನವ
ನಯಮ
ನೕರನ
ಸಟಾರ
ಅಭಪರಾಯ
##ಗಲ
ಮುಖಂಡ
ಲೖ
ಲೂೕಕ
##ಹೂ
##ೂರಪಪ
ಆಟಗಾರ
ಉತಪನನ
ಸಲಹ
ನಲದಾಣ
ಉಳದ
ರಂದ
ಸೖ
ರವ
ಯಡಯ
ಉಡು
ರಾಜಯದಲಲ
##ಬೕಕಾದ
ವಯಕತಯ
ವದ
ಹಂದೂ
ಹತತರ
ಚಲ
##ವಾಗತತು
##ುವುದನನು
ಹೕಳಕ
ಹೂಂದದ
ಸಂಕ
ಲಕಕ
ನಾವ
ಶನ
##ೃತಯ
ಐದು
ಪರಚಾರ
ಸೂರ
ತೂಂದರ
ರಾಹುಲ
ಆಮ
india
ಯಡಯೂರಪಪ
ಪತತ
##ಸಗ
ಮಹಳಾ
ಮುಂಬೖ
##ಗಾರಕ
ಕಾನೂನು
##ೂಟ
ಕುರತ
##ಷಕ
##ಸದದರು
ತಡ
##ಲಾಯತು
ಪಲ
ತಮಳು
ವೕರ
ದಾಖಲಸ
ಸಮುದಾಯ
ಕೂಡಾ
ಮಾಡದರು
##ಗನ
ಕಷೕತರದಲಲ
ಜಲಲಯಲಲ
ಭದರ
ತೂಡಗ
ನಯಾಯ
ತನಖ
ಇಲಾಖಯ
##ಧರಸ
ವೕಗ
ಮುಕತ
ಮುಂದುವ
ಅದರಲಲ
ಕತತ
ರೕತಯಲಲ
##ವಾಯತು
##ರದ
ವಯಸಸ
##ra
ಸಹಕಾರ
ಆರಥಕ
ಬದದ
ಜನರಗ
##is
ಸೂೕಮವಾರ
##ಮನಸ
ಇನನೂಂದು
ಪರೕಮ
ವಯಾಪಾರ
ಮಾಡುತತದ
ಬಾಯ
##et
ಆಕ
ಹೂಂದರುವ
2017
ಪಂದಯ
ದೂರು
ನೂ
ಹದು
ಒಮಮ
ಹಳಳ
ದರಶನ
ಮೕಲನ
24
##ಗಳೕ
ಇಂಡಯಾ
ನೕತೃತ
ವಹ
##ವೂಂದು
ಪತ
##ೕಮ
ಮನುಷಯ
ವದಯುತ
ಪರಷ
ರಕಷ
##ಬಟಟ
ಪರತಕರಯ
ಜಾತ
##ಾಗರುವ
##ೕರಾ
##ಾರಾಷಟ
ಕಾರಯದರಶ
ಸಂಭವ
ಇಬಬರು
ಘಟಕ
##ುತತದದರು
##ಾಗದದಾರ
ದಶ
##ಕರನನು
##ದೕಪ
ವಲಯ
00
ಗರವ
ಏರಕ
ಲೂೕಕಸ
ಹೕರ
##ಕೂಳಳುವ
##ಾಂತರ
ನಾಟಕ
##el
ಹಂದನ
ಪೂರವ
ಸಂಶ
ತಂಡದ
ಕೂೕರ
ಶಾಂತ
##ೂೕತಸವ
ರನ
ಆದದರಂದ
##ನೂ
##ದದೕವ
##ೕಣ
ದೕವಸಥಾನ
##ಬಸ
##ಂಟರ
ಉಲಲ
##ag
##ರುಷ
ಗದದ
##ವಂದ
ನಯಾಯಾಲಯ
##ಹಾಕ
ಸಂಚಾರ
ಬಹುತ
ಅಮಮ
##ೕಶನ
ನಷ
ಕಲಾವ
ಮಾಡಬೕಕು
ಸಎಂ
##ಭೂ
##ವಾಗರುವ
ಕೂನ
ಗುರುವ
ಜಾ
##ನಗರ
##ಲಲದ
##ಣಣನ
ಲೕಖನ
100
ದಹಲ
೧೯
ಸವೕ
##ಶರ
ಉಳ
ಪಾಟ
ಸಂಸ
##ಕೂಳಳಲು
##ಪದ
ಕಾಡ
ಅಳವ
##ರುವುದಲಲ
ಕೂೕರಟ
ಬೖಕ
##ಣಸ
ಪುಟಟ
ಹೂತತ
22
ಭಾರೕ
ತಗದುಕೂಳಳ
ಪಕಕ
ಹುದದ
ಉತಸ
ಚುನಾವಣಾ
ಹೃ
ಶುಕರ
##ತನಸ
23
ನಾರ
##ಯಾಗುತತದ
ಕಳಗ
ಪೂೕ
##ay
ಕಳು
##ಂಜನಯ
ಎಲಲರೂ
ಹೂಡ
ಲಾಭ
ನರಮ
ಕಷೕತರದ
ಉಡುಪ
##india
##ದದದರ
ಮುಂತ
##ct
##ಸಂ
ಯಶಸವ
ಊಟ
ವಡಯೂೕ
##ರಸುವ
ಜನಸ
##ಾಬಾದ
one
##ಾಗರ
ಗರಾಮದ
##ಸಕೂಂಡು
ಪರತಭಟನ
ಜಾಲತಾ
##ಯೂಬಬ
##ಫಟ
ಕೕ
ಖಾನ
##ಾಸು
ಸಾಮಾನಯವಾಗ
ಹತಯ
ಸಂಶೂೕಧ
ತಂದು
##ಶಮ
ಪತನ
##ಎಲ
ಎರಡೂ
ಪಟ
ದೖ
ಸಮೕಪ
ಆಪ
ಬೕಡಕ
##ಭಾಗ
##ಮರಾ
ಬಂಗಳೂರನ
ಬೂ
ಅಷಟೕ
ಬಹುತೕಕ
ಕರನಾಟಕದ
ಗುರುತಸ
##ಂದರಲಲ
##ರಷಟು
ಮಾಡುವುದು
ಇತಯಾದ
ಉದಾಹ
##ವಂದು
ಅಧಯ
ಪಟರ
##ನನಾ
##ಕಾರಣ
ಉತಪಾದ
ಹಡದು
##ಲಾಗದದು
##ou
ನಟಟ
ಪರಚಯ
##ಯಲ
ದೕವಾಲಯ
##ಾಯು
ನೕಡಲು
ಸವಾತಂತರ
ಮಲಲ
ಮುಂತಾದ
ಎನನುವುದು
ಸತ
ಅಮರಕ
ನವಾಸ
##ಾಗುವ
ಜತ
##ತತವ
ಎರಡನೕ
##ನಂತ
##ವರಾಜ
ತರಬ
##ಲೖನ
##ವಲಲದ
##ಣು
ಸಲಭಯ
ರೂೕ
##ಗಳೂಂದಗ
##ಾವತ
ಯಾರು
ಸಮಾರಟ
##ುವಟಕ
ದೃಷಟ
##ಸುತತವ
ತಂತರಜಞಾನ
ಭಾರತದಲಲ
ಗಳಸ
##ಥಯ
ಖಂಡ
##ೃಹ
ಉದಾಹರಣ
ಗಲಲ
ಕಷಣ
ದೕಶದಲಲ
##ಮಗಾರ
ಲಂಗ
##ಬೕಡ
##ೃಷಣ
ಜಞ
ಅಕಕ
ವಚಚ
ಕಟಟಡ
ಬಂದರ
ಶರೕರ
##ವಾಣ
ಜೂೕಡ
ಅಧಯಯನ
ಮಂಗಳೂರು
ಶುಕರವಾರ
ಘೂೕಷ
ಕಾಮಗಾರ
ಪರದೕಶದಲಲ
ತಂಗಳು
##ಯಾಂಕ
##ಾಯಸ
ಬಾಲವುಡ
ಎಡ
ಶನವಾರ
##ha
ತರುಗ
ಬಾಲಕ
##ಗಳನನ
oneindia
ಸಂಸಕೃತ
ನಮಷ
ಪರೂ
ಕೃತ
ರಕತ
ಇತಹಾಸ
##ವಲ
ಆತನ
ಸುಪರೕ
##ಯಾಗದದ
to
ದಲ
ವಯಾ
##ಫಲ
##ಂತು
##ಾಮು
ಟಕಟ
ಭೂಮ
ಸಂಭರಮ
ಬೖ
28
ಬುಧ
ನಯಂತರ
ಅಂತಮ
ಸರಯಾಗ
##ೂನ
ಸಂಚ
ಜೖ
##ಬಲಲ
##ುತತೕನ
ಬೕಕು
##ಕೂಟಟ
ಅತಯಾ
ಪರತಯೕಕ
##ಬಹುದಾಗದ
ತಾರ
##ಂಜನ
##ಗಳನನೂ
ಮಠ
ಚಟುವಟಕ
ಸಂಗರಹ
ಜನಪರಯ
##ನನತ
##ಗೂಂಡದ
##ಸಲಾಯತು
ವಸತರ
ಪುರುಷ
ಅಕಷ
ಕರೕಡಾ
##ದದೕ
ನದ
ಪರಪ
##ಯೂಂದ
ಪರಭಾವ
##em
##ಕಕಕ
##ಕೂಂಡದದಾರ
##ುವುದಕಕ
ದೃಶಯ
ಇಟಟು
ಗಮನಸ
ಬರಾ
ಅಂಬ
ಫೕಸ
ನೂರ
ಮಕಕಳಗ
೨೦
ಹಾಡು
ಸಂಬಂಧಸದಂತ
##ಥಮ
ಕೂನಯ
ಸಂಘಟನ
ಶತ
##ಪನ
ಅಪರ
ಪರಕಾಶ
ಸಂತೂೕಷ
ಬರುತತದ
ಫೂೕಟೂೕ
ಇತತು
ಸಾರವಜನಕ
ತಾಣ
##ot
ಆಚರಸ
ಚಾ
ಶೂೕ
ಮಾಡರುವ
##ಾಸತರ
ಬೕಗ
##ತನಧ
##ಾರದ
##ಸಸು
ಪಂದಯದಲಲ
##ತಾಂಶ
ಬಂಗ
ತೂೕಟ
ಪರಸಥತ
##ುತತಾನ
##ುತತೕವ
ಸಹಜ
ಚೕನಾ
ಗುಂಪ
ನವಂಬರ
ಜಾನ
ಮಳಗ
ನಮಮನನು
ಬಂಕ
##ೕಧ
##ಗಳಗೂ
ವಂಕ
ಕಲವರು
ಹೂೕದ
##ಂಭೕರ
ಎದುರಸ
ವದಯಾರಥಗಳು
ಎತತ
ನೖ
##ಕಾಲ
ಬರಹ
ಇರುತತದ
ವಯಕತಪಡಸ
##ವಾಳ
ಫಲತಾಂಶ
ವಧಾನಸಭ
ಜಞಾನ
##ದೕವ
##ಸೂ
##ದಕಕ
##ಸಬಹುದು
##ಾತಮಕ
ನಾಡ
##ುವುದೕ
ಶರಮ
ಮಂತರ
ಉದಯಮ
##ಬೕಕಾಗುತತದ
ದನಾಂಕ
ನಗರದಲಲ
ಮುಚಚ
ಪುತರ
ಸವೕಕರ
##and
ಮಾಡುತತದದ
##ರಾಧ
ಮುಂದುವರ
ನರಮಸ
ಅಂತಹ
##ch
##ಯಾಗದದು
ಖುಷ
ಜುಲ
ಆಯೂೕಗ
ಬುಧವಾರ
##ೂೕದರ
##ದಲಲದ
ಉಗರ
##ವೂೕ
ಮಂಗಳವಾರ
ಪಟರೂೕಲ
##ಡರ
##ವೕರ
ವಯಕತಪಡ
ಸಭಯಲಲ
ಬಚಚ
ಒತತಡ
ಆಗರ
ತಕಷಣ
ಬರದ
ಜುಲೖ
ಜಯೂೕ
26
##id
ಸಮಾರಂಭ
##ಸದಧ
##ಯುಕತ
ಶುರು
ಇಂದನ
ಅಂದು
##ಾಗದದು
ಖರ
ಮಾಡದರ
2016
ಪಡದು
ವಚಾರಣ
ಗಂಭೕರ
ಯಾವುದ
ಗಳನನು
##ಎಫ
##ದಲಲೂ
##ನಲ
##ಪಾ
ಅರಣಯ
##ವಂದರ
ಗುರುವಾರ
##ುತತಲೕ
##ವಾಗುವ
ಆಗಸಟ
ಯಾವಾಗ
ತಳದು
##ೕದ
ವಧಾನಸಭಾ
pr
ಪರಕರಯ
ಸಾಮರ
ಕಸ
ದನದ
##ವಾಬ
ಬಳವಣಗ
ಪಾಟೕಲ
##ಳಳು
ಪೖ
##ಡುವ
ಪರಥಮ
ಎನನುತತಾರ
ಉಳಸ
ಮಧ
ಆದಾಯ
ತಾನು
##ೂೕದಯ
##ೕರಣ
ಜೂನ
##ಂಬು
ವಶವವದ
ರೖಲು
ಹಾನ
27
ಪರಾಥ
ಉಪಯೂೕಗ
##ತರಗ
ತಾಲೂಕನ
##ಕಷನ
##ಯಾಗದದಾರ
ಅಕರಮ
000
ತಾವು
##ದದಾಳ
ಕಡಗ
ನಡಯುತತದ
ನಗದ
ಕನನಡದ
ಪರಾಥಮಕ
ಪೂೕಷ
ಎನನುವು
ವಶವವದಯಾಲಯ
ನನನನನು
40
of
ಮಂಜು
ಕಣಣು
ಅಡಡ
##ಣಯಲಲ
ಡೕ
##ಹೂೕಗ
ಸನನ
ಅಪಾಯ
ಆತಮಹತಯ
##ಮೂರತ
ಮೂತತ
ಕುಳ
ತಪಪು
ಭಾಗವಹಸ
ಕಂಗ
ಹಳಯ
ಭಾನ
ಕಾರಯಕರಮದಲಲ
ಅನುಕೂಲ
ಆರು
ಗಳು
ಜಲಲಾಧಕಾರ
ಭಕತ
##ಭುತ
ಕಾರಣಕಕ
ನಷೕಧ
ಸತತ
ಭರವಸ
the
ಹೃದಯ
##ಯಾಗರುವ
ಕುತೂ
##ವರುವ
##ವನನೕ
ವರಷಗಳಂದ
ಸಂಘದ
ಯೂೕಜನಯ
ಸದಾ
ಆನಲೖನ
##ೂಳಗ
##ೂಮಮ
ವಯವಹಾರ
ಕೕರಳ
ಕಾರಯಾ
ವತರ
ಬನನ
ಶಬ
ನರಧರಸ
ಭವ
ರೖತರು
an
##ೕಕಷ
ಭಾನುವಾರ
ಆವರ
##ಮೂಗಗ
##ಪರದೕಶ
##um
ಪರಸತು
##ಗೂಂಡು
ಖಾತ
ಎಷಟ
ಬಾಕ
ನರಂತರ
##ಪಪನ
ಬಾರಗ
ದವ
ಆಯೂೕಜ
ಸಪಟ
##ೕಖರ
ಶವಮೂಗಗ
ಅವನು
ನಷಟ
ಲೕ
ಕುಟುಂಬದ
ಶಾಲಾ
ವಾದ
ಸುರಕಷ
ವವಾದ
ವೕದಕ
ಹಳ
##ತವದ
ಸಪಟಂಬರ
ಸೕತ
ಒಡ
ತೂೕರ
##ಾಂಗ
##ig
ರಜ
##ಕಷಮ
##ಬೕಕದ
ಕಚಚ
ಭಯ
ಹಕಕು
ಸಡ
ನಾಗರ
##ದಯಂತ
ಸಾಧಯವಾಗ
ಉದಘ
ಸಾಧಯವಲಲ
ಮೃತಪಟಟ
##ಶೕಲ
ಹೖಕ
##ಾನಸ
ಮಾಡಬಹುದು
ಅರಧ
ಮಾನವ
##ಂಚನ
ಇಳ
ಸಬ
ಮಾನಸ
ತೕರಮಾನ
ವಜ
##ವಾಬದಾರ
ರಾಜಕಾರಣ
ಸಂದೕಶ
ಯಕಷ
ಹಂದು
ಬದಲಾಗ
##ಂತೂ
ದೂರಯ
##ಾಲು
ಹಲಲ
##ಲರುವ
ಕಾರಯನರ
ಸುಧಾರ
ಹಾಜ
##ಷಯಾ
ನಮಮಲಲ
ಕುತೂಹಲ
ಎನಸ
ಇಂಗಲಂಡ
##ಯವರ
ಜಲ
##ೂೕಷಣ
ಹೂರಗ
##ಾಧಕಾರ
ಅಧಕ
##ನೂೕ
ನಂಬಕ
##oo
ಬಳಗಾವ
ಅವಧಯಲಲ
ಹೂರಟ
ಕೂಂಡ
ನೕಡಲಾಗದ
##ಂತರಕ
ನಾಮ
ಹತತು
##ಹಾ
ಹಾಗು
ch
ಹೂರತು
##ರಾವ
##ಪರಲ
ಅಜ
ಮತದಾರ
ಪರಸತುತ
ನಟಟನಲಲ
ಯುದಧ
ಟಸಟ
ತಾನ
##ಾಧ
ಅಳವಡಸ
##ಯಲಲರುವ
ಹೖದರ
ಆತಂಕ
ಪರಸತ
ತಾಲಲೂಕನ
ತಂತ
ಸಂಸಥಯ
ಅತಯಾಚಾರ
ಎತತರ
ಪಶಚ
##ಾವರ
##ಪಾಡ
ಕಾದ
##ನಾದ
ಪದವ
ಅಂಗಡ
ಚಲನ
ಇಂಟ
ಸಂವ
ಮುಸಲ
ಭವಷಯ
##ಶಾಲ
##ಹಕ
##iv
ಕಲಯಾಣ
ಗಟಟ
ಅನುದಾನ
##ಜುನ
ಬೕಜ
ವಾತಾ
ಘಟ
##ಮಮನ
ಅಲಲನ
ಚಾರ
ನಕರ
##ತಯಾಗ
ಸವಯ
ಕಳಳ
ಘೂೕಷಣ
##ಲದದು
ಪುರಸ
##ಸಲಾಗುತತದ
ಪರದೕಶದ
ಶಶ
##ss
ಜೕ
ನತಯ
##ಲಂಗ
ಆಸಕತ
ಟೕಕ
ಕಾರಡ
ಬಜಟ
##ರೕಲ
##ಗತ
ಸಾಂ
ಆನಂದ
ತರಬೕತ
##ಾಟಸ
ನಯಂತರಣ
ಮೖತರ
##ಯೂೕಜನ
ಕಾಲದಲಲ
ಸೂಚನ
ಮಂಡಳ
ಅನಸ
ಹಂಡ
ಸರವ
ಗುಂಡ
ತರುವ
ಮಣ
##ುಗಳು
ಮೂದ
ಕಾಳ
##ಡಯಲು
##ov
ಹಾಗಯೕ
ಶತಮಾನ
ಬಂಗಳೂರನಲಲ
ವಶವಾಸ
ಎಲಲರಗೂ
ಸರಳ
ಬಳಳಾರ
##ವರತ
ಮಡಕ
##ರವ
ಪಡಯಲು
ಕೖಗೂಂಡ
ಹಣಕ
ಟಯಾ
##ಪೕಟ
ಯಾರೂ
ಕಾಶಮ
ಅವಶಯ
##ಹರಸ
##ಸತತು
##ೂೕಳ
ಕಾಶಮೕರ
ಪರತಷಠ
ಹೕ
##ಮಂತ
ಸೕರದ
ಅಲಲದೕ
ಕಲಲ
ಮಾಹ
ಲೖಂಗ
ಚಂದ
ಶೖ
ನಡಯುವ
ಪರಯೂೕಗ
ಜೕವನದಲಲ
ಹೂಟಟ
##ಯವ
ಗಂಗ
ಬುದಧ
ರಮೕಶ
ಸಫ
##ರಾಜು
29
ವಕಟ
ಸಂಗತ
ಜವಾಬದಾರ
##ರೂೕ
##ಪಕ
ಪಡದುಕೂಂಡ
ಒತತಾಯ
ಎಫ
ಬಲಯ
##p9
##ವಾಗಲದ
##ಾದಯಂತ
ಖಯಾತ
ಉನನತ
ಇನನಷಟು
ಫಾರ
##ಬಹುದಾದ
ಕಟ
##ಗರು
ಬಜಪಯ
ಗುಣಮ
ಟೖ
ಚತರರಂಗ
ವಶವದ
ಹೖದರಾಬಾದ
ತಂಗ
##ಫೂೕನ
ಸವಾತಂತರಯ
##ಾನಂದ
ಅನಂತ
ಸಾಮರಥಯ
ಬಾಳ
##ುತತಮ
ಮೂರತ
ಕರಸ
##ೂೕಷಠ
ಎಕಸ
ಆಸಪತರಗ
ಜು
ಗರಭ
ಎದುರು
ಎಚಚರಕ
ಕೂಡಲೕ
ಪಶಚಮ
##ಳನ
##ಗಾನ
##ಯಾಲ
##ೂರಗ
ವನಯಾಸ
##ರೕಟ
ಯೂೕಚ
##ವರಲಲ
ಸವರ
ನೕಡರುವ
ವಷ
##ಪಕಷ
##ರುವುದನನು
ಒಲ
31
##ಯರು
ಮಾರಚ
##ದದಲಲ
500
ಭನನ
##ಶವರ
ಪುಟ
ಇಸ
ಕೖಗ
##ಶೕಖರ
ಪರಸದಧ
ಇತತೕಚನ
##ಗೂಳಸುವ
ಸಾಮ
ಪೖಕ
ಇನಸ
ಜಪ
ಅತಯುತತಮ
##ಚಂದರ
ದಂಡ
##th
2015
##ತಃ
ಅದರಲಲೂ
ಸನಮಾಗ
ನಾರಾಯಣ
ತರು
ಹಗ
ಗರಾಮೕಣ
ಪತರಕರ
ಸದಸಯರು
##ೕರಘ
ಹೂೕಗುವ
ಸರಕಾರಕಕ
ಅಪಘಾತ
ಮಹಳಯರು
ಬಳಕದಾರ
##ದಂದಾಗ
ನಾಯಕರ
ಪುನ
##ಂಗಡ
ವಂಕಟ
##ರಾಷಟ
ಎಂದೂ
ಕನಷಠ
ಲಂಕ
##ದಾಯಕ
##ಹರ
ಹಾಕಕೂ
ವಾಣ
ನೕಡುತತದ
ಜಮ
##ೂಲ
##ಾವಳ
ನರದೕಶನ
##ೕಜನ
ಹೂತತು
##ಜೕವ
##ಕೂಂಡದದ
ಕಂಪಯೂ
##ಮೂಲ
199
ಅಬ
ಬರಸ
ಶರಣ
ಕೂಹಲ
ಲೖಂಗಕ
ಗೂೕಪ
##ನನಾಗ
##ೂಂದನನು
##ಬಳ
ಆಚರಣ
##ಪೂರ
dun
ಗೃಹ
ಮಹಾನ
ಸಥತ
ಅವುಗಳ
ನಡಯಲದ
ಸಲು
##ಶಾಸತರ
##ap
ಮಾಡಕೂಂಡು
ಮೂಲದ
ಬೕಕಾದ
ನೕನು
ಗಲುವು
##ಂಕಣ
ನೂೕಡದ
##ವನನಪಪ
ಕಳುಹಸ
##ಗಳಲಲೂ
ಕಯಾಮರಾ
ಸಂಪುಟ
ನಡುವನ
##ಲಕಷ
##ir
##ರುವುದಾಗ
ನಾಯಕರು
ಮರಯ
ರಡ
##ure
ಕಾಣಸಕೂಂಡ
##ಘರ
##ಲಾರ
ಸುದೕಪ
##ation
##ಸಟರ
ಸುಖ
ಇದದರ
con
ಮಾಡದದು
##ಕತಯನನು
##ಬಾಲ
ಕೂಳಳ
ಹುಟಟು
##ುತತದದಂತ
ಪರತಯೂಬಬ
##ಯಾಗುವ
ಶಾಸಕರ
ವರತ
##ಕಾಡ
ಮಲಗ
ಬೃ
ತುಮ
ಏಕಂದರ
ಇದದು
ಸಾವನನಪಪ
ಬಂದಾಗ
bp9
ಮತದಾನ
ಕುಳತು
##ದೂಂದಗ
ನೂತನ
##ೕರು
##ಾಸತ
##ಮೕಲ
ಮಹಾರಾಷಟ
ಅದಭುತ
ಎಂದೕ
dunia
ಎನನಲಾಗದ
ಬದರ
##ನಾಡು
ಕುಳತ
ಇಂಗಲಷ
ಶಂಕರ
ಸವಾಗ
##ಬೕಕಾಗ
ಶಾಸತರ
ರಸತಯಲಲ
ಚಾಲನ
##ವಕ
##ಡಯೂ
##ುಗಳ
ಜನಮ
35
##ಬುಕ
ನವೃತತ
ಪರಭ
ಮನಸಸ
##ಖರ
ನರಮಾ
ಸಹೂೕದರ
##ಕತರ
ಬರಟ
ಮಾತನಾಡದರು
ಪರತನಧ
ಮಾತಾ
ಕಾಮ
ಜಾರಗ
ಹುಡುಕ
ಅನಾ
ಇರಲಲಲ
ಏಪರಲ
##ಯಕತ
ಸಹಾಯಕ
ಶರೕನ
ಮನಸಸು
ಹಾಸನ
ಹೂೕಟ
st
ಕಲಯ
##ವದಲಲ
ಧಾರಮಕ
ವಾಪ
##ವಗ
ಅಚಚ
ಒಂದರ
ರಡಡ
ಮತತಷಟು
ನೂೕವು
ಹಂಗ
ಸಾಕು
ಲಕಷಮ
##ವತತು
##ist
##ವೕಂದರ
ಆಫರ
##ಯಾಹನ
ಅನುಸ
ಸಸ
ಸಂಕಷ
ಕಂಪನಯ
##tt
##ow
ಪಾಠ
ಇಟಟ
ಡಸಂಬರ
##ಲಕಕ
ಕೂಡುಗ
ಜಗತತ
ಆಹ
ಆಳ
ತಾಲಲೂಕು
ಕತ
ಅನವಾರ
ಸಾವರಾರು
ಗಂಡ
ಯಾದ
ವಸ
##ದುರಗ
ಮೂಡಸ
ತಾಳ
ಸೕರಸ
##ಧುನಕ
ಹಜಜ
ಸವಚಛ
##ಣಕ
ನೂೕಡದರ
ಚರಮ
ವೕಕಷ
ಆಸತ
##au
ಎಲಲವೂ
ನಡಯತು
ಭಾಷಣ
ಧವನ
ಜಾಲತಾಣ
ಕಾರಯನರವ
ಲಾರ
ರಚನ
##ಲನಲಲ
##ಬಾ
##ಟಂಗ
ಪರಯತನಸ
ವತಯಂದ
##ಗಾರರ
ಸಚವರ
ನವಾರ
##ಶಃ
ಚತರಕಕ
ಮರಳ
ಜೂೕ
ಸುಪರೕಂ
##ಂಧರ
##ಕಟೂೕ
ಮಾರುಕಟಟಯಲಲ
ತುಮಕೂ
##ೃದಧ
##ment
ಸಮುದರ
##ಕಾಂ
ರೖತ
ಮಾಡುತತದದಾರ
ಅನುಮಾನ
##ತಾನ
##ೕನೂ
ಕಳದುಕೂಂಡ
ಕೂಂಕಣ
ಜನರನನು
ಹಸರನಲಲ
##ಗೂಳಸಲು
##ಮಗಳ
ಅನವಾರಯ
ಸಮಮೕಳ
ದಲಲ
ಉಲಲೕಖ
ತಜಞ
##ಸಾಯ
##೦ದ
ಸೕವಾ
ಬದಧ
ಸುವ
ಬಗಯ
##20
ತಳಸದ
ಅಲಪ
ಸೂಪರ
ಪರಮಾಣದಲಲ
##ವಶ
##ನಾದರೂ
ಬಹರಂಗ
ಮಧಯಾಹನ
ಲಾ
##ುವನನು
ಕಂಪಯೂಟರ
##ರಾಂಶ
##ರಗೂ
##ಟದ
ವಾಸತವ
ಮುಂಚ
##ಕಟೂೕಬರ
ಕಾರಯಾಚರಣ
ಚಕ
ತರಯ
ಅಧಕೃತ
ಆಕರೂೕಶ
ಎಣಣ
##ಯಾಗತತು
ಮೕನು
ತಗದುಕೂಂಡ
ನಂತು
##ುಡ
##ಕೂಂಡರುವ
ಗರಾಮದಲಲ
ಪದಧ
ಸಮಾನ
ಹುಬಬ
ಕಾಪಾಡ
ಮೂದಲಾದ
##ತೂಡಗ
ದಶಕ
ದವೕ
ಕಪಪು
ಗೂಂದ
ಎಂದದದಾರ
ಆಯು
ವವಾಹ
ಸಂಘಟ
ಪದಕ
ಮಂಡಯ
ನರದ
ಸಂಪಾದ
##ಬುರಗ
ಶೕಘರ
ಯಕಷಗಾನ
ಮಳಯ
ಮಂಚ
ಸುಳಳು
ಮೂದಲೕ
##ಸುತತೕನ
##ರಥ
ಹಾಲು
##ಪಟ
ಗಾಯಗೂಂಡ
ಔಷ
ಸಂಸದ
ಅಂಥ
ಅಕಟೂೕಬರ
ನಡಯುತತರುವ
ಜೕವನದ
ಆಹವಾನ
ಹಕಕ
##ಲೕಸರ
ತಗದು
ಪಾಲಕ
##ದಲಲಯೕ
##ೕಷನ
ವಮರ
##ಂಠ
##ದವರು
##ಾಲಯದ
ಭರಷಟ
ಇಂಜನಯ
##ತಮಕ
ಅಕಷರ
##ಸುತತಾ
ಇಷಟು
##ಬೕಕಂಬ
ಹಚಚುವರ
ಮಟಟದ
##ುವಗ
ನುಡ
ದಾಟ
ಆಗುತತದ
ಗುಜ
ಬಳಕಗ
ಭಾವನ
ವಾತಾವರಣ
ಪರವಾಹ
##ಜನಯ
ಜಯಂತ
ಉಂಟು
ಟಕಸ
ಧರಸ
ಕಾವೕರ
ವದಯಾ
ಬಾಬ
ಮದಯ
ಹರಸ
ಪರಜಾ
ವಾಣಜಯ
ಆಕಯ
ವೖಯಕತ
ಸುಲಭವಾಗ
ಕಡಡ
##ೂೕಚ
##ಬಬರು
ಕಾರಯಕರತರು
ಕೂೕಲ
ಅಪರಾಧ
ನಯಾಯಾ
##ುಗಳನನು
ಪರಪಂಚ
##ವೕಟ
ತಮಗ
ಪರವಾಗ
ನಡಸದದಾರ
##ಯೂಂದಗ
##ುತತಗ
ಸರಯಾದ
ಫೕಸಬುಕ
##ತಯು
ತಕಕ
##ಾವನ
ಕುಡಯುವ
ಬೃಹತ
ವೖದಯಕೕಯ
ಹಚ
##೦ತ
ಮಾನಯ
ಪುರಾ
ಉಪಸಥ
ಶುಭ
ಬದಲು
ಭಾಗದಲಲ
ಮಹತವದ
ನರಸ
##ವನು
##ಯೂಟ
ಜನವರ
##ರಾಷಟರೕಯ
60
ಮತತೂಮಮ
ಅಡುಗ
##ಸಾ
ಹಣವನನು
ಕಶ
ಸಳಯ
ಅಧಕಾರಗಳ
ಶರೕನವಾಸ
ಹಬಬದ
ಕರೕಡ
ತೂರ
##ವೖ
ಅರಸ
ಪಾಪ
ಕೕಳದ
ಅರು
##ವಾದರೂ
ಅಂತಯ
ಗೕ
ಚುನಾವಣಗ
ಪಡದುಕೂಳಳ
ಗುಜರಾ
ಡರ
##ವಾದರ
ಟಕಸಾಸ
ಕಠ
##ul
ಕುಸತ
ರಾಮನ
ವದಯಾರಥಗಳಗ
ಸಾಯ
ನಡಸುವ
ಅತತ
##ಮಟ
ಖಾಲ
ಕೂಟಟು
ನೕಡದದ
ಸಮರಥ
ಇವಲಲ
ಕಕ
ಹತ
##ದಲಲನ
ಮಹತವ
ಸವಾರ
ವಭಾಗದ
ಯಂತರ
##ಟಟಗ
ಕಲಬುರಗ
ಭರಜರ
ಮಯಾನ
ನಡಸಲು
ಉಪಾ
ಮಯಾ
ಹದದಾರ
ಮಾಡಲಾಗುತತದ
ಬಳಸುವ
ಮಾತರವಲಲ
ದೕವೕಗಡ
ಏನೂ
ನೂರಾರು
##೦ದು
ಮಾಡುತತಾರ
ಪಠ
ನಡಸದರು
ಇಂಟರನ
ಮುಖಯಸಥ
ಬದುಕು
ಮೂರನೕ
##ಹದ
##ಬೕಕಾಗದ
ನರೂಪ
##ತತದ
ವಮರಶ
ಭಟ
ಚಕರ
ಮೖದಾನ
ಚಲನಚತರ
##ಮಮದ
ರಾಜಯಾ
ಹಣಕಾಸು
ಅಳ
ಭಗ
ಅಭನಯದ
##ನಯಂದ
ಅತಥ
ತಂತರಾಂಶ
##ನಾಂಗ
ಕಲವೂ
ಗಳಯ
ರಾವ
ಪೂಲೕಸರ
ಶವಕುಮಾರ
ದಟಟ
ರಹ
ಕರಣ
ವಾಲ
##ುವಂತಹ
##ಂಘ
##ಸದಂತ
ಶಕಷಕರ
ಮಡ
##ುತತರುವುದು
##ಾಸನ
2014
ನೕಡಬೕಕು
ಅನುಮತ
ಪೕಠ
ಕಬಬ
ತೖಲ
ರಕಷಣಾ
ಪೕಟ
ಗೂತತಲಲ
ಇದದಾರ
ಬರಗ
ಶಾಪ
##ಫರ
ಸಮಾಜದ
ಜಗತತನ
ಮಹಳಯರ
ಮುಂದುವರಸ
ವಲ
##ಗಂತ
ಚನನದ
ಡೕಸಲ
2013
ಕೂರತ
ಬಾಸ
ಗಾರ
ರೖಲವ
ಅನನೂೕ
##ರತ
##ಗುಣ
ಸಾಂಸಕೃತ
ಮಂದರ
ವನಯ
##ಗದ
ಪರಕ
ಹೕಳುವ
ಪರಶನಸ
ಪರಸಾದ
ಔಷಧ
##ುವಾದ
##ರಾಡ
ರಾಶ
ಸಂಪರದಾಯ
##ನಲಲರುವ
##ಗೂಳಸದ
ನಕ
ಅವರಲಲ
##ವಡ
##ನಯಾ
##ab
##ang
ಕಲವೂಮಮ
ದಂಪ
ವಯಾಪತಯಲಲ
ಕಾಲೕಜನ
ಯಲಲ
ಲೂ
##ೕತು
ಸೖಕ
ಸಕರಯ
ಮತತತರ
ಒಂದಷಟು
##ೂೕದಯಮ
##ಪರಸ
##ಾರಕ
ಆಸಟ
ಸಂರ
ಮಟಟದಲಲ
ನೃತಯ
##os
ಅಮತ
ಸಂವಧಾನ
##ಸಲಾಗ
ನೕರವಾಗ
ವಭನನ
ಡೖ
ಫೖನ
ಸಯಾಂಡ
ಪರಯೂೕಜನ
ಆಯತು
##ತಪಾದ
ವಳ
ಒಳಗೂಂಡ
ಕಲಲು
ನೂೕಡಲು
ಏಳು
ಸಭಾ
ಕಲಕ
##ದಯನನು
ಕೂಡುವ
ಪರಸಪರ
ಬೕಸರ
ಅಣಣ
ಪಂ
ಪಾಸ
ಚಂತನ
##ಯವರು
##ಸುವಲಲ
ಗೂಗಲ
ಲೂೕಕಸಭ
ಮಾಹತಯನನು
ವಬಸ
ಯಾತರ
ಮೂವರು
##ೖಡ
ಗಂಟಗ
ಪಾರಕ
ನಾಳ
ರಾಜಧಾನ
ಅವಳು
ಚತರೕಕರಣ
ವಯಕತಪಡಸದರು
ಹಯಾ
sh
##ಯಲಲದ
ನಾಶ
ನಯೂಸ
ಅಖ
ಇದದರು
ಏನೕ
ಮಹಾ
ಮುಟಟ
ತನನು
ಬಂತು
##ತಗಳು
##ದಲಲದದ
ನೕಮ
ಅವುಗಳನನು
##ಪಣ
##ವತರ
ಚತರವನನು
ವಚಾರದಲಲ
ಗಳಲಲ
ಸಾಹತ
ಹಾಕದ
ಸಾರಗ
ನೕತೃತವದ
ಸಾಹಸ
ಕಂಬ
ಅವರೕ
ಅಮರಕದ
ಸರಸ
##ಯವರಗ
ಇದೂಂದು
ಸಥಳಕಕ
ಮಕಕಳನನು
ಸೕತುವ
ಡಾಲ
##ಯಾದರೂ
##ಲಪಟಟ
##ಡಯಂದ
ಸವಾಮೕಜ
ಕನಸು
ನಾಲಕ
ಉಳಯ
ಲವ
ಕಾಣಸಕೂಳಳ
##ಬಂದದ
ಕಡಡಾಯ
80
##ೂಡ
ಮಾಡದದರು
##ದದದರೂ
ಹಚಚಳ
ಉಪಸಥತರ
##ce
ಕೂಪಪ
ಕೃತಯ
ಪಡಸ
ಅಸಮಾ
ಜಮೕ
##ರಬೕಕು
##ನೕಯ
##ಾಜಪ
ಶುದಧ
ಮುಂದುವರಯ
ಕಯಾನ
ಬಾಡ
##ವಾಗವ
ಅಕಾಡ
ಗಾಳ
ಮಗು
ಸಾಂಸಕೃತಕ
##ಗಳಗಾಗ
ಸಚವರು
ನವೕ
ಮುಳು
##ಯಲಲೕ
ಸೂರಯ
##ೂೕಮ
##ers
ಅಸಮಾಧಾನ
##ದಂದಲೕ
ಅನವಯ
ಐಪ
ತುಮಕೂರು
##ುವುದರಲಲ
ವಶಷಟ
ಮೕಟರ
ಬಹಳಷಟು
ಆಧುನಕ
ಹೂರಬ
ಮಾತುಕತ
ಉಪಾಧಯಕಷ
ವರಾಟ
ತರಸ
ಪರಢ
##ಸುತತದದರು
ಶಾಲಯ
ಭಾಗದ
##ಲಾದ
ವರಷಗಳಲಲ
ಶಾಸಕರು
ಬರೕ
ವಕೕಲ
ತಮಳುನಾಡ
ಲೂೕಕಸಭಾ
ಪರತಭಟ
and
ಮಡಕೕರ
ಜಾಹ
ಮೃ
ಹಂಸ
ಕಾಫ
ವೕತನ
ಸಕರ
ಜಾಗೃತ
ಉಚತ
##ಕೂಂಡರು
ಪಟಟಣ
ಸವಂತ
##ಯಾಯತು
ಐತ
ಬಂದದದ
ಬಲಲ
ಪರದರಶ
##ಗರಗ
##ಂಕಾರ
##ಸುತತೕವ
##ಭಾಷ
ಲಕಷಣ
ಅನಲ
ನೕರನನು
ಬಸವ
ಚನನೖ
ವೕಳಗ
ಇರುವುದು
ಧಯಾನ
##ವರೕ
ಕೂನಗ
ಶಬದ
ತಾಲೂಕು
ಕನನಡದಲಲ
ವಾಟಸ
ಪರಜ
ಮುರ
ಕಲವೕ
ನುಗಗ
ನೕತೃತವದಲಲ
##av
##೦೦
##ದಯೕ
ಕಡತ
ಖಚತ
ಭಾಷಯ
ವಬಸೖಟ
ಕನನ
ಪಂಜ
##ಬನ
ಐಟ
##ಚಕ
ಸಂಕಷಟ
ಡಜ
ದಕಕ
##ದಾಡ
##ದದದರು
ಬಣಣದ
ದುಡ
ಒಪಪಂದ
ಟವೕಟ
ಕರತವ
##ೕಟು
ರೂಪದಲಲ
ಪರಮಾಣದ
ಕೕಂದರದ
ಹಸತ
ಆಗರುವ
##ಸತುವಾರ
ಇರಸ
##ಾದೕಶ
ಅಪಾರ
45
ನೕಮಕ
ಹೕಳುತತಾರ
ಖರಚು
##ದಾ
ದೕರಘ
ಸಮಾ
##ಾಲದಲಲ
ಚತರಗಳು
ತರಕಾರ
ಯುವಕ
ನರದಷಟ
##ಳನನು
ಗರಂಥ
##ಶಚರಯ
##ಹಮದ
ತಳದ
ಅವಲ
ಸಕಕರ
##ರಾಗದದಾರ
ಹಾದ
##ೖರಯ
##im
ಒಕಕೂ
ಶೕರ
##ಫಾರ
ದುಬಾರ
ತನಕ
ಸರಣ
ಉಪನ
ಪಡಯುವ
ಕೂೕಪ
ಜಗಳ
##ಡಯನನು
ಅಲಲಂದ
ಇದರಂದಾಗ
ಚೕ
ಹಂಬ
ದನಕಕ
ವಾರಷಕ
##ಯುವ
##ೖವ
##ಫಕ
ಅಂಚ
##ಲೕಷ
ವೖರಲ
for
ಪಾವ
ವೃದಧ
ಸತರ
ದನಗಳಂದ
ಸನೕಹತರ
ಮಂಜುನಾಥ
ಬಲಾಕ
##ೂೕತಸಾಹ
ಕರಾವಳ
##ರಬಹುದು
ಕರಗ
ಗರಹ
##ಮಚ
##ವಾಗದದ
ನರವಹಸ
ಕಠಣ
ಬತತ
ಪರಾಯ
##ಕರಾಗ
ಕರನಾಟಕದಲಲ
##ದಧಯ
ರಾಘ
ರುಚ
ರೖತರಗ
ಫುಟ
ಪೂೕಸಟ
ಭಾರತಕಕ
##ೂೕರಡ
ವಾರಡ
ಭಯೂೕ
##ಕೂಳಳಬೕಕು
ತಗದುಕೂಂಡು
ಅಷಟು
ಬಎಸ
ಕುಡ
ತೂಕ
ಏನೂೕ
ಸುರೕಶ
ಆಗಮ
ಸಂದರಯ
##news
ಚಕಕಮಗಳ
ತಂಗಳಲಲ
##ಾದಲಲ
##ಾನಯ
ಕುಂದ
ಅಂತಾ
ಪರತಯೂಂದು
##ttp
ಸದದು
##ಸರು
ಉಪಸಥತರದದರು
##ಗೕ
##ನದಲಲ
##ಲಾಟ
ಮಾನಸಕ
ಎದದು
##ೖದು
ಸೂಕಷಮ
ಮಾತಾಡ
##ಕೂೕಟ
##ಹಲಯ
ವೖಯಕತಕ
##ಮಮು
##ೂಬಬರು
ಮಟಟಗ
##ರಾಂತ
ಮುಂದಾಗ
ಹೖಕೂೕರಟ
ಅಂಡ
ಓದು
ಡೕಟ
ಅಭಯಾನ
ಸಪಂದ
ಹಂತದಲಲ
ಅದರಂದ
ಕಲಸದ
ಅಭಯಾಸ
ರಸತಯ
##ai
##ಯೂೕಜ
ಇರುತತ
##ಮೂೕ
ಆಶಚರಯ
##ಯಸ
ಅದಕಕಾಗ
ಬರಾಹಮ
##ಖಯಾತ
##ಕಾಂತ
ಕಾರಯಕರಮದ
ಭರಷಟಾಚಾರ
ಇವರಗ
ಕಾಸ
ಪದೕ
ಸೖನ
##ತಮ
##pl
ಅವನಗ
ಮನೂೕ
ಸಲುವಾಗ
ಶಕತಯ
##ದವರಗ
##ಯಾದರ
ಮುಖಯವಾಗ
ತೕರಪು
ಕಂಡುಬ
ಬದದು
ಹಗಡ
ಬೕದ
ಆಕಸ
ಧವ
##ವಾಗಯೕ
##ನಾಮ
ಆಗುವ
ವೖದಯರು
ಗೂಂದಲ
##ಬೕಕತತು
de
ರಾಜೕನಾ
ಸಲುಕ
ಆದಯ
##ಕೂಂಡದ
ಸಾಲನಲಲ
ನಗರಸ
ಸವಾಗತ
##ದದಂತ
ನರವು
##ಸಲದದಾರ
ಸನಮಾದ
ಪರಮೕಶವರ
ಉಸತುವಾರ
ತಪ
ಇರಬೕಕು
ವಯತ
ಸಂಪೂರಣವಾಗ
ಬಹಾರ
ವಷಯದಲಲ
##ನಾತಮಕ
ಕಲವೂಂದು
ದೕವರು
##ಷಠಾನ
ಸಂಭವಸದ
ಪೖಪ
06
##ಕೂೕ
##ಲಕಟರ
ಇಂಗ
##ಶರೕ
ವಶವಕ
198
ಸಮೕಪದ
ಭಯೂೕತಪಾದ
ಅರಜುನ
ಅಂದಾಜ
ವಂಚ
ಸಮಗರ
ಹೂಡಕ
##all
##ಸಕೂಳಳಲು
ಬಬ
ಬರು
ಪರದೕಶಗಳಲಲ
ಸಕಕದ
##ಜಲ
2008
ಅನುಸರಸ
ಕಳಯ
ಶಸತರ
ಪರೂೕತಸಾಹ
ಯಾಕಂದರ
ಸಾಕ
ಆರಸ
##ಬೖ
##ಕೂಟ
ವಹವಾ
ಖಾ
ಇಲಲವೕ
ಗೂೕಡ
##ib
ಬಲಗಳು
ಪಾಂಡ
##ಎನ
ತುಳು
ಇಬಬರೂ
ಉತಸಾಹ
##ಾಜಪೕಯ
ಐತಹಾಸ
ದಾವಣ
ಪಟಟು
ಸಮೕಕಷ
ಕಲಸಕಕ
ಕಂಪು
ಬುಕ
ಕಜ
##ರವರಗ
##ದುರ
ಮಾಡುತತರುವ
ಹುಬಬಳಳ
ಗುಜರಾತ
ಆಂಧರ
ಅಂತಾರಾಷಟ
ಸಥಾನಕಕ
ಶರೕಕ
##ಬರಗ
ತುರ
##ಲೕಟ
ಒಟಟಾರ
ಫೕ
##ನಗಳು
##ಗಯ
##ಂಗಸ
ಸವತಃ
ಪಕಷಗಳು
##ಂಗಣದಲಲ
ಭಾಗವಹ
ಕಂದ
ವಾಜಪೕಯ
ಸೕನ
ಸಮತಯ
ಈಶವರ
##ureau
ಶುಲಕ
ಸಂಸಥಗಳು
ಹೂೕಟಲ
ಜೖಲ
ನಧಾನ
ಹಡದ
ಸಂಸಕ
##ಕಾಲಕ
##ಬೕಕಾದರ
ಅಂತಾರಾಷಟರೕಯ
ಫೂೕ
##ಡಯಲಲ
ಇದಕಕಾಗ
ಗಳಗ
ಚಂಡ
ಕಲಾ
ಅನುಷಠಾನ
ಅಧಕಾರಕಕ
ಪಾಲಗೂಂಡ
##ಾಗತತು
ಆಸಟರೕಲ
##ೕಯರ
ಸಲಲಸ
೨೦೧
ಪಾದ
ಶಬರ
##est
ಕಾರಯಕರತರ
ಟಪಪು
ನೕಡದದರು
ಮಂಟ
ರಾಗ
##aj
ಮುದರ
ಪರಾಧಕಾರ
ಕಾದಂಬರ
ಸಂಗರ
ಹದ
ಕಾಡು
ಚಾಂಪ
ರಾಜೕನಾಮ
ಅಡಗ
ಬಸಸ
ಪರಕರಣದ
ಇರಲ
ಹಗಗ
##ವಾಗರುತತದ
ಸಾಬ
ಆಗಾಗ
ಪರಸತಾಪ
ವಫಲ
ಮೂಟಟ
##ಾವೕಶ
ಪರಗಣ
ಗೂೕಲ
ಶೖಲ
##ುಕ
ಸಂಖಯಯಲಲ
se
ಬಾವ
ಪುನರ
ಪೂಜಾರ
ದುರಂತ
##ಮುತತ
##ಯಾತರ
ಸುಮಮನ
ಈಗಲೂ
##ಗಾರಕಾ
ನರವಹಣ
ಬದುಕನ
ಹಸರನ
ಹನು
##ಮಠ
ಗರಾಮಸಥ
##ನಯು
ಪಲಾಸ
ಉದಾಹರಣಗ
##di
ಶಕಷಕ
ಆಸಪತರಯಲಲ
ಮಶ
##ಮದ
ಕವನ
ವಚತರ
##ರುಳ
##ನಲಲೕ
ಪರಕರಣದಲಲ
ದಾವಣಗರ
ಪಾವತ
ಮಧು
ಆರೂೕಗ
ಸಯಾಂಡಲ
ಯೂ
ಆಕಾಶ
ಮಚಚ
ಪರಂಪರ
ಹೂಣ
##ಸುವುದಲಲ
##ಖಂಡ
##emb
ವಯಕತಪಡಸದದಾರ
ಸವತಂತರ
ವಯಾಪತಯ
ಮಾಲೕಕ
ಸಾಫಟ
ನೕಡಲಾಗುತತದ
ಪರತದನ
ಟೕಂ
ಇಂಟರನಟ
ಮಗುವನ
ಚಂದರಶೕಖರ
ಘಟಕದ
##ವಾಲ
ಚಮಚ
ನಹ
ಮುಸಲಂ
ಮುಂಗ
ಕಾಯದ
ನರಾಕರ
ಸನನವೕಶ
ಐತಹಾಸಕ
##50
##ತಯದ
ಕುರು
ಗುಡಡ
ಕೂಡಗು
ಯಾವಾಗಲೂ
ಸಮಾಧಾನ
ಪಂಡ
##ಮಾಲ
ಪೂಲೕಸರಗ
ಶಾಲಯಲಲ
ಸಮಮಶರ
ವಷಣ
##ಮಲ
ನೕಡದದು
ಬಂದದದು
ನಜಕಕೂ
32
ಧನ
ಒಳಳ
##vi
##ಯಾಟ
ಹೂೕದರ
ಎಕರ
ಕಾಲದ
ಬರಾಹಮಣ
ಅಹಮದ
ಸಾವು
bureau
##ನವರ
ಸರಕಾರವು
ಓಡಾಡ
ಸಸಯ
##ಟಟರ
ಎದುರಾಗ
ತಾಂತರಕ
ಮಹಾರಾಷಟರ
2011
ಸನೕಹತ
70
ವಾಯು
ಸವರೂಪ
ಇಂಧ
ಭವನ
##ಯತು
ಅದೃಷಟ
##ice
ಕಾರಯನರವಹ
ವಯತಯಾಸ
ಮುತತ
ಆಗತತು
ಪರಗಣಸ
##ore
##ಗಾರರು
ಟೂ
##ಾದರು
ಶಾಲಗ
ನೂೕಂದ
ಅಮೕರ
ಧಾರವಾಡ
ಅಶೂೕಕ
ಪರಷತ
ಮನನಾ
##ಕಷೕಪ
ಮೂೕದಯ
ಅಸಾ
##ದಂದು
##ಯುಸ
ಪಾರಟ
ಅಭಮಾನಗಳು
ಶೂ
##ಪೕ
##ಎಂಪ
ಕಾಲು
ಅವರಂದ
##ಂಕು
ಕೖಯಲಲ
ಪಕಷಗಳ
ವೕದ
ಶರೕಮಂತ
ಬಂಧನ
ಅಪರೂಪ
ಮಾಡಕೂಡ
ಮುಂಜ
ನರವೕರ
ಸದಸಯರ
ತಟಟ
ರಷಟು
ಹಸರನನು
ಮುಳುಗ
ಮಟರ
ಶೂಟ
ಚತರದುರಗ
ಕಾರಣವಾಗದ
ಇದಲಲ
##ಬಳಳ
ಗುರುತ
ವರಗಾವಣ
ತಾತ
ನೖಸ
ವಯಕ
ಬಜಪಗ
ಪಂಜಾಬ
ಸೖಟ
##ಪಾಯ
##ಪಡಸದ
ಜಾಗತಕ
ಠಾಣಯಲಲ
ದನಾಚರಣ
ದಲತ
##ಕಾಂಕಷ
ಉಪನಯಾಸ
05
ನನಪು
ವಸತುಗಳನನು
ಧೖರಯ
ಎಂಬಂತ
ವಭಾಗದಲಲ
ಈತ
##ನಮೂಲ
2009
ರಣ
##ಂಪು
ಬಲಗ
ಅಪಲಕ
ಪಟಟಣದ
ಕರತವಯ
##ಕಯನನು
ವಶೕಷವಾಗ
ನಲಸ
ಗದದು
ದಾಸ
ಬೂೕ
##ಾಗಲ
ಅಗರ
ನಯಂತ
##ಹೂಳ
ವರಣ
ಒಂದೂಂದು
ಸಗುತತದ
ಈಡ
ಕಾನ
ಆಗದದು
ಮುಖಂಡರು
##ಚತವಾಗ
ಪರಾರಥ
ಪರಕೃತ
ದೕಹದ
ಪಟಟಯಲಲ
ಸುತತಮುತತ
ಕವತಾ
##ವಚ
##ಂದಾಗ
##ುವಲಲ
ಬಂಡವಾಳ
ನಶಚ
##us
ಸಾಂಪರ
ಮಹೕಶ
##ಟಟುಕೂಂಡು
ಹನನಲ
ಶೖಕಷಣ
ಅಹ
##ಪಸ
##ಾರಹ
ಸಮಾವೕಶ
ಸೕರಪಡ
ಕಲಸವನನು
ಪರಗತ
ಕಳಸ
##ಸದೕ
ಕಾರಮಕ
ಮಾಡುವಂತ
ಪರಸಾರ
ಫುಟಬಾಲ
ತನಗ
##ik
ಕಲಬ
ಪದಮ
ಉದಘಾಟ
ಅಮಾನ
ನೕಡುವಂತ
ಕಲಾವದರ
ಅಜಜ
##ತಗಳ
ಬರಟಷ
ತಲಾ
##ವರೂ
ಈಗನ
ಗಾತರ
ಜೂೕರ
fil
ಡಕಕ
##ಮಂಡ
ಆಗಮಸ
ಅಲಲಗ
ವಜಯಪುರ
ಶೕಕ
##ಶಂಕರ
ತಾನೕ
ಬಬಎಂಪ
ಸಂಶೂೕಧನ
##ds
ಶರೕಷಠ
##ಗೂಡ
ಹೂರಡ
ಎನನುವುದನನು
ಏನಾದರೂ
ಸಮಾರಟಫೂೕನ
##ಾಚ
##ಕೂಳಳುವುದು
ಜಾಮ
##ೖರ
ವವೕಕ
##ೂೕಷಠಯಲಲ
ಕಾಣುತತದ
ಹರದು
##ಷನಲ
ಆವೃತತ
ಬಳಲ
ಮರವಣಗ
ಮುಗಸ
ವಶಕಕ
ತಗಯ
ವಯಕತಯೂಬಬ
ಧನಯ
##ಯಾಳ
ಮೂಹ
ಮಲಯದ
ಪರಶೕಲನ
##ಂಖಯ
ನೕಲ
##ದಾರಥ
ಎಂಜನಯ
ಶಚ
##ಲೕಬೕಕು
ನಜವಾದ
ಉಂಟಾಗ
ನರಂತರವಾಗ
ಊರ
##ಲರ
##ಸಲಾಗತತು
ನರಣಯ
ಬರದು
ಅಸತತವ
ಗರಾಹಕರಗ
ಮರಣ
ಮರದ
ಸಮುದಾಯದ
ತಳಳ
ಮತರ
##ಯತ
##ಟಗ
ಹಾಗೕ
ಸಾಲು
##ction
##ರುವಂತ
ಅರಹ
ದೂರದ
##ಘು
ಚಾಮ
##ದಾಸ
##og
ಪೂರೖ
ಗುಣಮಟಟದ
ಮಾಡತ
ಇಲಲಗ
ಹೂರತ
ತರದ
ಸೂೕಲ
ಸೕಮತ
2006
ಬಾಗಲು
ಕಯಾನಸರ
##ತರಾಗ
ಕುಲ
ದರಜನಯ
ವರುದಧದ
ಗೂೕವಾ
ಸಂಕೕತ
ಸಾಂಪರದಾಯಕ
##ಗಳಂತ
ಪರವರ
ಹೂಳ
ವಾಪಸ
ಕೂಪಪಳ
ಇದದರೂ
ತಡಯ
ತಳದುಕೂಳಳ
ಪಾಲಗೂಳಳ
ಆಶರಯ
ಮಹಾನಗರ
ಜನಾಂಗ
ಪವತರ
ವಾಕ
##art
ಪಾಕಸತಾನದ
ಭದರತಾ
##ಯೂಬಬರು
ನದದ
ಮೕಳ
ಉತಸವ
ಬಂಟ
ಬಾಹ
ಇಂಧನ
##ಹಬಬ
##ಕರಾದ
ಕೂಗ
ಕೂಲಲ
ರದದು
##ಭವೃದಧ
ಜಲಾ
ತಾವ
##ಸಲಾಗುವುದು
ರಾಜಯಪಾಲ
##ರಾಜನ
ಬೕಸಗ
ಕಂಪನಗಳು
ಮೕರಗ
http
ಉರ
ಯತನಸ
ರಾಜಕುಮಾರ
##ಕುಳ
ದುಷ
ಸಾಗರ
ಹದನ
##ಂದೕ
ಪರಾರ
ಸಗುವ
36
ತೕರಥ
ಅರುಣ
ನೖಸರಗ
ಹಡಯ
##ಗಟಟ
ಮಾಡಲ
ಸವಾಲು
ಇಂದಗೂ
ಏಳ
ಬೂೕಧ
ಯತನ
##ುತತರಲಲಲ
##ಾಡಳತ
2010
##ದೂಳಗ
##ಾನದ
##ಗೂಂದು
ಮಚಚು
##ಮಾಂಡ
ಚಾಲಕ
ತಯಾ
##op
ಉದದೕಶದಂದ
ಡಾಲರ
ಚಕಕಮಗಳೂರು
film
ಸಂಗರಹಸ
ab
##ಪೂರಣ
ನರಲಕಷ
##ವದಯ
##ಮಣ
##ಾರಾಮ
##ೂೕಲನ
ಕಾರನ
ಅಧಕಾರಗಳಗ
ಬದಲಗ
ಮೂಲಗಳು
ಏರಪಡಸ
ಟರಾ
##ಕನಲಲ
ಎಲಕಟರ
ಬೕಟ
##hi
ಕಷೕತರಗಳಲಲ
ಗಣಪತ
ಮಧಯಮ
##out
ಕಾಳಜ
ಡವ
##ಕಷತ
ನಯಾಯಮೂರತ
ದೂೕಷ
##ಭಾರ
##ಯಾಡ
ಬಳದ
ಚತರಗಳನನು
##ನೕತ
ನಸ
ನಕಲ
ನಡದು
ಸಂತರಸ
ಪಲಾಸಟಕ
ನಕಷ
##ಯಲಲೂ
ಮೂೕಹನ
ಸತೕಶ
ಇರುವುದಲಲ
ಎಂಟು
ನಧನ
ಜಾಸತ
##har
ಮಾಡಲಲ
ಕೂಳ
##ಯಾಗಲದ
ಪುರ
ನರದೕಶನದ
ಯುವತಯ
##ಾಲದ
ಕಣಣಗ
ನಯಾಯಾಧ
ಇಪಪ
2012
ನೂೕಟು
##ಕಕರ
ಕೂಠ
##ರಸಟ
##ದರುವುದು
##eat
##ಗುರು
ಅಗನ
ಸಫೂೕಟ
ರಾಮನಗರ
##ತನದ
ಕಳದುಕೂಳಳ
##ಂಬುದು
ಟನ
ಹಣಣ
##ಸದವು
##ಸುತತದದು
ಬಹುಶಃ
150
ಅಚಚರ
ದಸ
ದಹಲಯ
ನದರ
ಸಸಟ
##ೂೕತತರ
##ದದಕಕ
##ಯುತ
ಕಳುಹ
ಹಲಲು
##ೂೕಚನ
ಆಗರಹಸ
ವಚನ
##ನಯೂ
ಜನರಲಲ
ಯುಗ
ಹೂತತಗ
ನಾಟ
ಶವರಾಜ
##ುನ
##ಟೂ
ಪರಯಾಂಕ
##ುತತದದರ
ಸಂಸಥಗಳ
##ಬರವರ
ವದಯಾರಥಗಳ
ಗರಾಮಾ
ಅಂಬೕಡ
##ವಾಗಲಲ
ಸಂಜಯ
##ಯೂಂದು
ಪರಕರಣಕಕ
ಯಶಸವಯಾಗ
ಎಳ
##ಕಷೕತರ
ನಡದದದು
ಅಂತರಜ
##ಸಂಗ
ಪರೕತಯ
ಶೖಕಷಣಕ
ಜರುಗ
ಸಕಸ
##ವೕಶನ
##ter
ಓವರ
ತಾಪ
##ತಗಳನನು
ಅಂಬೕಡಕರ
ಅಭಯರಥಗಳು
ನಂ
ಹವಾ
ಎಚಚರ
ಕಟಟು
##ಖಾನ
##ರಾತರ
ಸುರಯ
ಹುಲ
ಅಂಗವಾಗ
ಪರಸಂಗ
##ವೂಂದರಲಲ
##ಮಕಕ
ಅನಾರ
ಭರತ
ಫಬರವರ
ಭಾಸ
##ದದನನು
ಪರಾಂತ
##ಾಯಡ
##ವಾದು
##ಾಪಕ
ಪೂರೖಕ
ಯಾರಗ
ಕಾವಯ
ವಶವಕಪ
ಪದಾರಥ
ವಾಗ
##ದಂದಲೂ
ನೂೕಡುವ
ಯಾರಗೂ
ತೕರಾ
ಹಂಚಕ
ಆಯೂೕಗದ
ವಲಸ
ರಾಧ
ಗರೕ
##t1
ಕಾರಮ
##ಗಳಗಂತ
ಬರಲು
ಬರೕಕ
ದೃಢ
ಇಳಕ
ಉಪಪು
ಕೂೕಡ
ಹಾಗಾದರ
ಮೂೕಟ
ಲಂಡನ
ಅವರೂಂದಗ
##ಬಳಳಾಪುರ
##ಪರಭ
ಕಾಂಗರಸನ
ಬಸವರಾಜ
ಮೖಸೂರನ
ಹಂದುಳದ
ಅಣ
ಹಾವ
##ಸಲಲ
##ಗಳನನೕ
ಎಂಬುವ
ಬಳಸಕೂಳಳ
ಮಗಳು
##ವೂಂದನನು
##ಚೕ
ಬಂದರುವ
ವರಷಠ
2019
ಔಟ
##ರಡ
##ಲಕೂೕಟ
ಆಕರಷ
ದೃಷಟಯಂದ
ಆಗಲಲ
ಮೕಸ
ಭಕತರು
ಬಕಕ
ಸೕನಾ
ಅಯಯ
ಆಚಾರ
ಚಲಲ
ಚಪಪ
ಕರಕ
ಅರವು
##ಟಟನ
ದುಃ
ಮುಂಬಯ
##ಭೂಮ
##ೕನೂೕ
ಅಂತರರಾಷಟರೕಯ
ಗುಂಪು
09
ಪರಜಞ
ಅತೕ
ಹರಡ
197
ಬಳಸಕೂಂಡು
ಛಾಯ
##ಭೂತ
ಸಂಟರ
##ದಂತಹ
ನಾಗರಾಜ
ಯಾವುದೂೕ
ಪರಬಲ
ಪರಾಮಾಣ
ಹಟ
೧೦
ಬದಲಾಯ
ಟರಂಪ
ಮದುವಯಾಗ
ಬಾಂಬ
ಸರಬ
ಹೂೕಲಸ
ಒಲಂಪ
ಮಾತನ
ಸೖಕಲ
ಉಸ
##ut
ಸಂದರಶನ
ಎಷಟೂೕ
ಪರಣಾಮಕಾರ
ನಗರಸಭ
ತತವ
##ೂೕದಲಲ
ಜಲಲಾಡಳತ
ಕಡಲ
ಕೖಗಾರಕ
ಮದು
ಸಯಾ
##ಸುವಾಗ
ಬೕದರ
ಮಾಲನಯ
ಸಾಫಟವೕರ
ಎಐ
ಲಭ
##ಮಂದರ
##ಾನಕ
ಉಪಕರಣ
ಹಣದ
ಗೂೕವಂದ
ವರಗದ
ಜಾಲತಾಣದಲಲ
ಎಮ
ಗುತತಗ
ಜಮಮು
##ಂನ
##ಕಳ
ಕಾಲೕಜನಲಲ
ಕುರತಂತ
ವರಷದಲಲ
ಹಾಕುವ
ಬಡಡ
##ವತತ
ಅಕಾಡಮ
##ಾವಧ
ದೂರಕ
ದೖಹಕ
is
ಆಯಾ
ಸಜಜ
ಮುಂದಾಗದ
ಅಲಲಲಲ
ದಾಖಲಾಗ
ಪಾಲು
ಅಂದನ
ತುರತು
ದೕಪಾವಳ
ನಡಯಲರುವ
ಮಗನ
ರಾಯಚ
ದಾನ
ನಭ
##ಲೂೕ
ಕಳದು
ಕಡಮಯಾಗ
ಅನನೂೕದು
ಬಾಗಲಕೂೕಟ
##ಾಲಡ
ಪರಶನಗ
ಸಥತಯಲಲ
ಚುನಾವಣಯ
ಸಾರವಜನಕರ
ಸುವರಣ
37
##ುತತಾಳ
ಸಾಲನ
ಸಮಾರಂಭದಲಲ
ಸಾಮಗರ
ರಫ
ಅನುವಾದ
ನಾನಾ
ಲಂಗಾಯತ
bp9news
ಮುನನಡ
##ನಾಶ
ಅಭನಂದ
ಮಠದ
ಆವರಣದಲಲ
##ುಗ
##ಲಡ
ಸನಮಾದಲಲ
ಅಡಯಲಲ
no
##ತತಾ
ಸಾವನ
ಸನಾನ
ಸೂೕಲು
ನೕರಾವರ
ಆಟದ
##ುವುದಾದರ
ಹಂಪ
##ಪಾದ
ಸಥಳದಲಲ
ಕಣಕಕ
ಕಮಲ
ಅವಲಂಬ
ಅಂಟ
ಬಯಾನ
ಪರೕರ
##ವಾದದದು
##ುತತದದೕನ
##ಸಕೂಳಳುವ
ಒಳಗಾಗ
ಅಫ
ಜಲಪ
ತೃ
ಎಲಲವನನೂ
##rab
ಸುರಕಷತ
ಒಂದರಡು
ಡಜಟಲ
ಪೖಪೂೕಟ
ನನು
ಹಾಳ
##oc
ಕೂಂಚ
ಬಯಾಟಂಗ
ವಯವಸಥಯನನು
ಟೂರನ
ಲೖನ
##ೂೕಜನ
##ವರಕ
ಬಳಕು
ಬಂಗಳೂರ
ಕಾರಯಕರಮವನನು
ಎದುರ
ಮುಗದ
ಹೂೕಗಲು
ಒಳಳಯದು
ಅಡಕ
ಕಮಮ
##ಕೂಂಡರ
ಮರಳು
ವಸತುಗಳ
ಕರಾಂತ
75
ಪಕಷಕಕ
ಬಟಟರ
ಆಘಾತ
##ಾರಾಜ
##ತಯೂ
##ate
ಗಂಡು
ಹೕಳದದರು
##ಸುತತಾನ
ಪುಣ
ಸನಮಾನ
##ಕನೂಬಬ
ಅನಯ
ತಡಗ
##ಬಾದ
ಜನತ
ಹೂೕಗದದ
ವೖಜಞಾನ
##ುತತದದವು
ನರದೕಶಕರು
ಮಾತುಗಳು
##ಗಳಾಗವ
ಕೂೕಲಾರ
ಜಾವ
ತಮಳುನಾಡು
ಪಠಯ
ಸಂರಕಷಣ
ಮೕಡ
ಮಹಳಯರಗ
ಕತತು
ಶಫಾರ
##ರಡು
##ಷಕರ
ತರಲು
ಬಯಾಟಸ
ತಂಡವನನು
ಒಬಬರು
ಮೂೕಡ
ಸಂಬಂಧಪಟಟ
ಗೂತತಾಗ
ಉಲಲಂಘ
ಗಂಭೕರವಾಗ
ಮಾರಕ
ದುಃಖ
ನಂಬರ
##ಪಾತ
ಇರಬಹುದು
ಚಾಂಪಯನ
ಜಾತರ
ಅದೂ
ಪಡದದದಾರ
ಬಹುಮಾನ
ಲಕಷಾಂತರ
ಹವ
##ಬದಧ
##ಂಗಟನ
ಹಚಚದ
ಬಂಗಳೂರಗ
ಗುಣಮಟಟ
ನಮೂ
ಪಯಾಕ
ಪುಣಯ
ಶರಮಾ
ಫೖನಲ
ರಾಘವೕಂದರ
ಬನ
ಭೕ
##ಜಗ
##pe
ನರಬಂಧ
ಧರಮದ
ಮುಂಬರುವ
ಕೕರಳದ
ಚಾನ
##if
ಸದಯಕಕ
ಹಂಡತ
ಇಂಜನಯರ
ಎಸಟ
ವಬ
ಸಂಪನಮೂಲ
ಸಾರವಜನಕರು
ಬಂಗಾಳ
ಉಡುಗ
ಬಟ
##ರಷ
##ಂಗಾಣ
ಏಕದನ
ವಾಹನಗಳ
ಜಾತಯ
ಉತಪಾದನ
ಆಂಡರ
##ಲಟ
ಬದರಕ
90
##ವಂಬ
##ರುಪ
ಬಳದು
ಕರುಕುಳ
ರಾಜಯಾಧಯಕಷ
ಆದಯತ
ಆಸಟರೕಲಯಾ
ಅಪಲಕೕಶನ
##ರಸಲು
##ಲಾತ
ತರವು
ತೕಜ
ಸಳ
##ವಧಯ
ಸುಧ
ಲಕಕಾಚಾರ
ಸವಾಲ
ಬಾರಯ
ಅಭವೃದಧಗ
ತಲುಗು
300
ಭೕಕರ
ಸನಾ
##ೂೕಡು
##ನಂದಲೂ
ಕಾಣುವ
ತಂಡಕಕ
su
ವಟ
##ುತವ
##ಳಲಲ
##ಚಕರ
ಸಮೂ
ಶತಕ
ಹನ
##ಲುಗ
##ಲಯನಸ
ಯಾವುದು
ಸುಪರೕಂಕ
##ಪರದೕಶದ
ಟಾಪ
ಬನನಲಲ
##ಪಟಟು
ಪರಾದೕಶ
##ದರುವು
##ಕಸಲ
ಒಪಪಗ
ಇವತತು
ಒಡಯ
##ಂಭಾಗ
ಅಗತಯವದ
ಬಂಧಸದದಾರ
ನಾವಲಲ
ವಂಕಟೕಶ
ಗರಾಮಾಂತರ
08
ele
ಟೂರ
ಮಮ
##ತಂಡ
##ಶಾ
##ಲಯದ
ಇಸಲಾ
ವಷಯವನನು
ಕಾಯಲ
##ದೂಡಡ
ಜಯೂೕತ
ಗುಡ
ವಶಾಲ
ಬಂದದದಾರ
ನೕರನಲಲ
ಸದಧತ
ಈಡೕರ
ಫಯಾ
##ವದದು
ಸಮಸಯಗಳನನು
ನರಮಾಪ
ಧನಯವಾದ
##ಕಯಲಲ
##ress
##ಷಯನ
##ಲಪಡ
ಪುತತ
##ly
ರಾಷಟರಪತ
ನೕಮಕಾ
ಕರದೂ
ಹೂಡದ
##ತಾಪ
ತಮಮನನು
ಜಲಪಾತ
ಇರುವುದರಂದ
ಬಂದಲಲ
ಕಾರಣದಂದ
ರಾಶಯ
ವಾಷ
ಶಾಖ
ಜಾಹೕರಾ
ತಕಕಂತ
ಹಜ
ಹಗರ
ಸಥಗತ
ಯೂೕಚನ
ತೂಡ
##ನನಲಲಾ
ಎಂಬುದರ
ಇವುಗಳ
##ಗುಣವಾಗ
ನಾನೂ
##ಲಕಸ
ಪುಡ
ಪರಾಚ
##ದವು
##ಣಯನನು
ಕೂಚಚ
ವರುದದ
ಯಾರಾದರೂ
ಮೖದಾನದಲಲ
ಆಗರಹ
ಆಗದದ
ಪರಕರಣಗಳು
ನಾನೕ
ಲೕಟರ
##ಗಮ
##೦ಡ
ಜನಾರ
ಬರಹಮ
ಕಾಣಬಹುದು
ತಯಾಜಯ
##ದಾರರು
ಶಾಲಗಳಲಲ
ಪಾಯ
ವುಡ
##ric
##prab
ಕನನಡಗ
ಕಯಾಲ
ಪಟೕಲ
ಕುಂದಾಪುರ
01
ಗೕತ
ತುತತ
ಬಡಸ
##ವಾಸದ
ಶರೕಲ
ದುಬೖ
ಕಳಗನ
by
ಗಯಾ
ಜಂಟ
ಚೖ
ನಚಚ
##ಜಾನ
ಬರೂೕ
ದನೕಶ
ಗೂತತು
ಶುರುವಾಗ
ಗರಾಹಕರ
##prabha
ph
ನಪ
##ನಲಲೂ
ನಾಗರಕ
ತಲಂಗಾಣ
ಜಪಾನ
33
ಹದರ
##ವರಷ
##ಮಾರಗ
ಆಮೕಲ
ಅಬದು
ನರಸಂ
ವಯಕತತವ
38
ಪಯಾ
ಯನನು
ರವಾನ
ಹಣಣನ
##ಫಾ
ಗಳಸದ
ಇಳಯ
ಚಾಕ
ಧಾರಾ
##ರಜ
ಹಂತದ
ಒಕಕೂಟ
ಪಲೕ
##ಲೖ
ಒಂದೂ
ನದಯ
ಮಣಣು
##ಚಯಾ
##ವತೕಯ
ಇನನತರ
##ನಹಳಳ
ಸಂಹ
ದಾಖಲಾಗದ
ನಗದು
ಶೂಟಂಗ
ಘನ
ಸಖ
ಇಂಡಯನ
ಜನಸಂಖಯ
ಸವಯಂ
ರಷಯಾ
ಪರೂೕ
ಮುನಸ
ಜನಸಾ
07
ಉಪಪ
ತಗಗ
##are
##ಫೂೕ
##ಯಲಲನ
ತರಗತ
##ಯಾತಮಕ
ಪತರಕರತ
ನರಮಾಪಕ
ಆಶಯ
ಬಾದ
ಮಾಸ
##ನಾಳ
kannadaprabha
ಕಪಸಸ
ಯಾದವ
ಸಂಧ
ಕೂಡದ
ಬಟಟದ
comment
ಲಭಯವದ
##ಷಪ
ಮಾಂಸ
ಪೂರಕ
ಸುದದಗ
ಯಶಸಸು
ಎಂಟರ
ಮಾಡತತು
ಪಡದದ
ಹಾಕದದಾರ
##ುತತದದೕವ
ಸಂಸಥಯು
ಪರಾದೕಶಕ
##ಕಕೕ
ಗರಷಠ
##ೂೕಹರ
ಭಾಗವಹಸದದರು
34
ಜಾಕ
ಮಣಣ
ಬಹುಮತ
ಕೂೕರಸ
ಪುನಃ
ಆಕರಮ
ವಶಪಡಸ
ಮಾಡುವಾಗ
ನಂಗ
ರೂೕಡ
ಹೂೕಗುತತದ
ಪಡದರು
ಅಧಯಕಷರಾಗ
ಶಾಶ
ಕರದುಕೂಂಡು
ಹೂಂದದದು
ಹಾಜರ
ವಸಟ
ಶಲಪ
ಸೃ
##ಾಯನ
ವೖಶ
ನಂತರದ
ಅಖಲ
55
ಊರು
ಸ೦
##ಯನನ
##ದದಳು
ರಾಣ
ಸರಯಲಲ
ಪಾಲಗ
ಸದಧಾಂತ
##ಧರಸದ
ನಯಾಯಾಧೕಶ
ಪರಯಾಯ
ಸಂಭಾ
ಜಾರಕ
ಪಯಾರ
##ಲಯಾ
##ಧಯನನು
##ಬರಹಮ
ಆರೂೕಗಯದ
##ಯನನೂ
##ಷೕಕ
ಬಂದರು
##ರುವುದಕಕ
ರುದರ
ಆವ
ಫಂಡ
ರಯಾಲ
##ac
##der
##ಎಂಸ
ಅಭಯರಥಗಳ
filmib
ಶವರ
##ಯೂಳಗ
ಸಲಮಾನ
ದೕವಾಲಯದ
ಭಾಷಯಲಲ
##ill
ಸನಸ
೨೦೦
ತದದು
ರೕವ
ಹೂರಡಸ
##ತಗಾಗ
ಮರತು
ದುರಗ
##ುವುದೂ
ಪಾತರದಲಲ
ತಳದುಬಂದದ
filmibeat
ಟಕ
ಭಕತರ
##ತಾಳ
##ೂೕಪಾಲ
ಅಸಹ
ಮಂಡಳಯ
ಗೂೕಪಾಲ
ಜರಮ
ಸಾವಗ
##ಗಳಲಲನ
ಗಲುವನ
ಜಾಹೕರಾತು
ಅಬಬ
ಮೕಟ
ಪರವತ
##ಕರಸ
ಹೕಳಲಾಗದ
##ಕಾಟ
ಶರಾ
ಸಕಲ
೧೨
##ah
##ವಾಗುವುದು
ಸಂಬಳ
ಕೂಟ
ತನನದೕ
ಸಚನ
ಅಭಪರಾಯಪಟಟ
ಜೖಲು
ಸಬಐ
ಶಾಕ
##ಹೂೕ
##ುವರಗ
##ಗೂಳಗ
##ಕಕೂಂದು
ಆಧಾರದ
ಹುಟಟುಹಬಬ
ಸಮಮೕಳನ
ಆಪರೕ
ನಧ
ಕರೖ
ಮೕಲೂ
ನಲಲಸ
ಸೕವಸ
ನೖಸರಗಕ
ಇಳಸ
##ದದೂ
ನಯಾಷನಲ
about
ಒಣಗ
ಕಛ
ಸಮನ
##ವೕಯ
ಯೂೕಧ
ನಾಡನ
ಎಟ
##ಧಕ
##ವೕದ
ಸಂಸಕಾರ
ಶಾಶವತ
ಪೕಡ
##ಹಾಗ
##od
##ಂಟಸ
##ಎಸಎಸ
ಅಕ
ಕುವ
##ಂತಯೕ
ಹೂಸದಾಗ
ಇಲಲಯ
##ಸಲಾದ
ಆಕಷೕಪ
ಕವತ
##ನಗಾಗ
ಸಹತ
ಭೂಮಯ
ಚಾಲಂಜ
ಕಚೕರಯಲಲ
##ಾಗರಹ
03
ಮನನ
ಕುಸ
##ember
ಅನಾರೂೕಗಯ
ಧೂ
##ತತತು
ನಡಸುತತದದಾರ
ಪೂರತ
ವಶವನಾಥ
##ವಾಹಕ
ಹಾಸಯ
ar
en
ಪಸ
ಕನನಡಗರ
ಆಫೕಸ
ಭಾಷಾ
ಹೕರೂೕ
ಮತದಾರರ
ದವೕಪ
ರಾಕ
ತಮಮದೕ
ಕಾರಣವಾಗ
ಎದುರಾ
ನಾಯಕತ
ಕೂನಯಲಲ
48
ಆಂಗಲ
ಖಾತರ
ನೂರು
ರಜನ
ಲೕಗ
##ಚಲ
ಕೂದಲ
ಸರಕು
ತುಪಪ
ಸುಪರೕಂಕೂೕರಟ
ಇಂದರ
ಚತು
##ಬದದ
ಆಟೂೕ
ಕೂೕಚ
##ವನನಾಗ
99
ಚೕಟ
##ಷಾ
ಒಂದಡ
ವಯಕತಗಳು
ಉದಯಾನ
ಇವರಲಲ
ಸಮಾಜದಲಲ
##ೂೕತಸವದ
ಉತಪನನಗಳು
ಜೖನ
ಶೂೕಧ
##ಾಲಯದಲಲ
##ವಾದದ
##ಪಡಸಲು
##ಪಡಸುವ
ಗೂತತಾ
ಮನಯಂದ
ಬರುವುದು
ರಘು
##ೕಬ
ಮೂನನ
ಸವಲ
ಮಾರಗದರಶನ
ಚಲಾಯ
ರತನ
ರಲೕಸ
##ಮಂಗ
##ೕಕೃತ
ಕಲಾಸ
ವರಷಕಕ
##ಧಾರಣ
ಕೂೕಟಯ
ಆರಂಭದಲಲ
ಮೂಲಭೂತ
ಸಂತಸ
ಬನನಲಲೕ
ಜಎ
##ಬಲಯ
ಆದರಶ
ದೕಶಗಳ
ಯಾರೂೕ
pol
ಮತಗ
ಸಜ
##ಂಗಯ
##ೕಲಡ
ಹೂಸತ
ಮತತೂಬಬ
ಯಶಸಸ
ಡೕಟಾ
ಬಂಟವಾಳ
ಅ೦ತ
ಬಸಲ
##ಂತಲೂ
ಹೂೕಲಕ
ಯೂೕಜನಯನನು
ಪಲಾನ
ಸಂಘಟನಗಳು
ಶತಮಾನದ
ಹವಾಮಾನ
ಕಛೕರ
ರವೕಂದರ
ಬಳಸಲು
ಪುನೕತ
ಶರೕಲಂಕ
04
ಎಷಟೕ
ಅವಳಗ
ಪರಶಷಟ
##ನನೕನು
ಆಕರಷಣ
ಡಾಕ
ಪಾನ
ದೂರತ
ಅವಶಯಕತ
ಓರವ
ಖಯಾ
ಸಥಾನದಲಲ
ಶಕಷಕರು
ಆಪತ
ಮಣಣನ
ವಗರಹ
ಕಾರನಲಲ
##ity
ಗರಾಹಕರು
ಶಚಾಲಯ
be
##ದೕನ
ಗೕಮ
ಚಳ
ಟರಸಟ
##ಾರಾಯಣ
ಕೂದಲು
ಸರಕಾರದಂದ
ವಯಸಸನ
ಮಲಲಕಾರ
ದುಷಕರಮ
ಪರಾಚೕನ
ತಾಜ
##ಸಲದ
ಬಂದವ
ಹೂೕದಾಗ
ಭಾಗಯ
##ಗೂಳಳುವ
ಸಮಸಯಗಳು
ಜಟ
##ಬೕಕಾಯತು
ಆರಂಭವಾಗ
ಮಯಾನೕಜ
ಕಯಾಪ
ನಾಪ
##ಲೂೕಕ
##ಯಲಲದದ
ಹೂವು
ಗರೂಪ
ಏಕಾ
ಚೂ
ಮಜ
ಸಟರೕಟ
ಮೂೕಸ
ವೖದಯರ
ಹಂಚಕೂಳಳ
ದೕವಸಥಾನದ
ಅಲಪಸಂ
೧೮
##ವನಸ
##ಣಗಳು
##ಪರೕತ
ಬಾಡಗ
ಮುಂಗಾರು
ಹಲಸ
##ವಾಗಯೂ
ಪಕಕದ
##ರಾಜನಗರ
ನೕಡಲಾಗ
##ಕೂಂಡದದು
ಸಲಫ
##ಕತಯಂದ
ಜಾಲತಾಣಗಳಲಲ
ಆಧರಸ
ಮಹಾಸ
ಜಾಗದಲಲ
ನರಮಾಣಕಕ
ಪದಧತ
ಗದಗ
ವನನು
ಪರಾಕ
ಕಾದು
ರಾಜಯಗಳ
ದೕಶಕಕ
ಹೂಸದಲಲ
ಹರದಾಡ
##ದಯಾ
##ಯಾಗದದರು
ಅಲಲೕ
ಸಟೕಟ
ಗಂಟಗಳ
ಅಭಮಾನಗಳ
ಜಲಾಶಯ
ಚಳವ
ಮಗಳ
##ಗೂೕ
##ಂದೂರು
##ುತತೕರ
##ಸಂಸಥ
ಊರನ
ಐದ
ವಸರ
##sh
ಸುಳ
ಕುದುರ
##ನಯರ
##ಂಜಲ
ಯೂೕಜನಗಳನನು
ಗರಾಮಸಥರು
ದವತೕಯ
##ಕಥ
##ood
ವಾಷಂಗಟನ
ಎದ
ಹಮ
##oad
ದನಗಳು
ಹೂೕಗದ
ಕಲಾವದ
ತಪಾಸ
ವೖಜಞಾನಕ
ಕಎಸ
೧೫
##ಶು
##ಶಕತ
##ದವರ
ಚತತ
ರಪ
ಕೂಬಬ
ಕರತ
##ಕೂಂಡದದರು
ಎಲಲಡ
ಕಾರಯಕರಮಗಳನನು
##uru
ಮನೂೕಭಾವ
ವೖಶಷಟ
ಕುಡಯ
ನೂೕಡಕೂಳಳ
##ಾಟಾ
ಸೕಂಟ
ಯುವಕರು
ಬೕಯ
ಭು
##ಕೂೕಶ
ಮಾಹತಯ
##ಯಾನಸ
ಸಂಭಾಷಣ
ಕಬ
ಲಾಲ
ಷೕರು
ಸೕಟ
##esh
ತಾಯಯ
ರಾಯಚೂರು
400
or
##ain
##ಚೂ
ಸಪಷಟವಾಗ
ಹೂಡದು
ww
ತಲಕ
##ts
##ೂಡನ
##ದದೕರ
ಆಯಪ
##ನಂದಲೕ
ವಯವಸಥಯ
ಚಕಕಬಳಳಾಪುರ
ಸಂಪರಕಸ
ಬರುತತವ
ನೖಜ
ಯಾವುದಾದರೂ
cont
ಅಂದಾಜು
ಮೕಕ
##ಭಯಾಸ
ರಾಜಸಥಾನ
ಜಲಲಗಳಲಲ
ರಹಸಯ
ಜಾರಕಹೂಳ
ಧಕಕ
ಗಮನಕಕ
ಫುಲ
##ೂೕವರ
ಹುಚಚ
ಪರತೕ
##ಮುಖಯ
##ರಾಯ
##ಹಡ
##ಾನಾ
##ಾದೕವ
ಕೂಡಲು
ಗೂೕಲು
ಇಬಬರ
##ish
ಮೖಕರ
ನಗರಗಳಲಲ
ಕೕಳದರ
ಮಾರುಕಟಟಗ
ಪಯ
ಫರೕ
##ಬಟ
##ರುವುದೕ
ತುಂಬದ
ಘಟನಯ
##ಯನಸ
ಇನನೂಂದ
ಎರಡನಯ
ಪರವಾಸೂೕದಯಮ
ಐಪಎಲ
ಊರಗ
ವಾಗದ
ಪರಯುಕತ
ಕಷೕತರಕಕ
ಇಂದರಾ
ಪವರ
##ಯಾದಲಲ
ಹೕಳಲಾಗುತತದ
ಸರಕಾರವನನು
ಬೕಸ
ತಮಳುನಾಡನ
ಒಗ
ಜನನ
##ದಾದ
##ಭರಣ
ಮಾದಕ
ಹುಟಟದ
ಹುದದಗ
ಎತತರದ
ಆಫರಕಾ
ಜೂೕರಾಗ
ನಡಸುತತರುವ
ಕಲತ
##ಗಳಂದಾಗ
196
##ನಕಾಯ
ರುಪಾಯ
ಕಣವ
ಅಂಶಗಳನನು
ಪುರಸಭ
ಬಾಬು
ಬಡಗ
ಹೂಂದರ
ಬಲಯಲಲ
ನಾಲವರು
ಯುರ
ಸರಾ
ಮಾಡುತತವ
ಅರವಂದ
ಪರಶಸ
ಕೂನಗೂ
ವಹವಾಟು
election
##ಬರಹಮಣಯ
ಇನನೕನು
ರವರು
ನೕಡುತತಾರ
ಹಚಚಾಗದ
ಕಾರಯಕರಮಕಕ
ರಾಮಚಂದರ
ಪತರಕಾಗ
ಶರೕರಾಮ
ಚೕನಾದ
##ವದಯಾನ
rs
ಯೂನ
##ಯೂಬ
ಅವಮಾನ
ಅನುಮ
ಅಧಯಕಷತ
ರೂಪು
ಅಸಾಧಯ
ಆಂಟ
ಮರಾ
ರಥ
ಸಟಟ
##ಂದಲೕ
ಮಾತಗ
ದಹಲಯಲಲ
ಒನ
##ಕಗಳು
ಪೂೕಷಕರು
ಆಕಾಂಕಷ
ಪಣ
##ೂೕಫ
##ಯಾವ
##ಯಾದರು
ಹೂಡಯ
ಚತರಗಳ
ಸೂತರ
ವಶವವದಯಾನ
ಸಮರಪ
www
ಒತತು
##ಸಮ
ಸಾಂಗ
ಅವನನನು
##ಗೂಂಡದದು
ಚುರು
##ಗೂಳಸಲಾಗದ
ಸುದದಗಾರರ
ಮೕಯರ
##ಭದರ
##our
ನೕವೕ
##ಕಾರಾತಮಕ
ಮಹಾತ
ಹೂರತುಪಡಸ
ದವೕಷ
ಶಾಪಂಗ
ದಂಪತ
ನಾಲಕನೕ
ನಧಾನವಾಗ
ಕನಕ
ಚಾಟ
ಮಂಗ
##ಂದೂ
##ುವಳ
##ರಾಂ
##ರಾದರು
ಆಶೕರ
##igh
ಆಗದದಾರ
ಬರತ
ಅನನುವ
##une
ಪುರುಷರ
ನವರ
ನಟನ
ವಶರಾಂತ
ಹಲವರು
ಆರಂಭಕ
ವಷಯಗಳನನು
##ಕಟೕರ
ಮೂದಲಗ
ತಾತಕಾಲಕ
wh
ಇಲಲದದದರ
ಗುಂಡು
ವೖವಧಯ
ವಾಸತು
ನಶ
ಮಾಯ
ಮಾಡುವುದರಂದ
##ೂರವ
ಕರಡ
ಚತರತಂಡ
ಕೕಂದರದಲಲ
ಕರುಣ
##ive
ಶಾರ
ಸಟರ
##ಕಂಪ
##ಪಾನ
##ೖಮ
ರೂಢ
ರಾಜಯಕಕ
ಸೂಸ
ಹಾಕಲು
ವಷಯಗಳ
##ುವುದಕಕಾಗ
ಆಯುಕತ
ಚಾಮರಾಜನಗರ
ಆಧ
ಶೃ
##ನೂಬಬ
##ದತತ
##ದರಲಲ
ಪಕಷೕತರ
ಯುವತ
ತಳಸವ
ಮಲಲಕಾರಜುನ
ತಣಣ
##ುಖ
##ಘಟಟ
##ಯಾಗವ
ಹೕಳಲು
ರಾಜಯಗಳಲಲ
ವಸತುಗಳು
ಮಾಡಲಾಯತು
ನೕಡುವುದು
ರೂೕಹತ
ಬಾದಾಮ
ಇಲ
ಇಚಛ
ವೕಷ
##ಾಕಷ
##ಯವನನು
##ತತೂ
##ರುವುದ
ಮಾತನನು
ಒಳಗೂಂಡದ
ವೕಗವಾಗ
##angal
ಮಾಸಟರ
ರಾಸಾಯ
ಏಕೖಕ
ನಾಪತತ
ಬಯಸುವ
ಕಪೂರ
ಮಾದರಯ
ನಶಚತ
ಫಲಪ
ಬರದದದಾರ
ನಗಮ
ನೂೕಡು
ದುರಬಲ
ಕಷಮ
ಆರೂೕಪದ
ಗಾರಡ
44
ಅಚಚು
ಉಷಣ
ಮದರ
##ಂಯ
ಪರವ
ಮಾಡಲಾಗತತು
ಆಗಲೕ
ರೖಲ
ಪರಸಕತ
##ಪುರದ
ಅವುಗಳಲಲ
ಅಪಾಯಕಾರ
ಸರಬರಾಜು
ಲಯಾ
##ip
##ost
##ಕಾರರು
ಕೂತ
##ಾನುಭವ
ಸೕವನ
ಚರಚಗ
ಆಡಳ
ತಂದಯ
ಮನಸಸನಲಲ
ಕಂದಾಯ
ತಯ
ಜೕವಂತ
ವೕಕಷಣ
ಪರಕರಣವನನು
gov
ಕಸರ
##ತಯೕ
ಹೂವನ
2000
ತುಸು
ತರಕ
ಸಲಲಸದ
ಮನಸಸಗ
ಬಾಹು
ವಚಚದಲಲ
ತಾವೕ
ಮಚಚುಗ
ಕಡಯ
ರವರ
##ವಾಗುವಂತ
ಆಗಲ
ಶರೕಮತ
ಅಮಮನ
ಬಂಗಾರ
##app
ಉಡ
##ವಾಜ
##ರಾಣ
##ಕಾರದ
ಇದುವರಗ
ದೕಶಗಳಲಲ
ವಸತರಣ
ap
ನನಸ
ಬಯಾಗ
##ಕಲಾ
##ಬಾಗ
##ರುತ
ಬಗಗಯೂ
ದರದಲಲ
ಸಗಲದ
ಎಂಜನ
ಈವರಗ
ಪಕ
ರಷ
೧೧
##ತೕರ
ಮನರ
ನೂೕಟಸ
ಪರಯಾಣಕರ
ಕಲಾವದರು
##umar
al
ಮಾಡುವುದಲಲ
ಸಹಯೂೕಗ
##ಗೂಂಡರುವ
##ುವರಗೂ
ಆಂಡರಾಯಡ
ಉಚತವಾಗ
ಐಸ
##ವೂಂದ
##ನಯೕ
ತೂಟಟ
ವಯಾಪಕ
ಮಗುವಗ
2007
ಬಂಧಸ
ನಲದಾಣದಲಲ
ಲೕಖನದಲಲ
ಖಂಡತ
ಸಂಚರಸ
ವಳಂಬ
ಪದಯ
##ಾವಕಾಶ
ಕೕಳುವ
ಆದತಯ
ವಾಹನಗಳು
ನನಗೂ
ಇಂಗಲೕಷ
ರಂಜ
##ಟವ
ಸಾಮರಾ
ಗುಲಾ
ರೕಖ
##ಬರಟ
ಮೖಸೂರನಲಲ
ಯೂೕಜನಗ
ನೂೕಂದಣ
39
ಕಂಟ
ಧೂೕರ
ಮಶರ
##ಲಾರಂಭ
ನೕಡದರ
ಜನತಾ
ಬಯಾಟರ
ಗಣತ
ಪರಢಶಾಲ
ಮಶರಣ
ರಾಸಾಯನಕ
ಡಪ
##ಮೕಕ
##ಾಗದದರು
##ವಾಗುತತವ
ಸಪರಧಯಲಲ
ವಲಯದಲಲ
ಯೂೕಜನಯಡ
ನಷಠ
ಪಟಾಕ
ಏನಲಲ
ದಪಪ
ಶಕತಯನನು
ಶುಭಾ
ಇಂಜನಯರಂಗ
ನಭಾಯ
ಸಮೂಹ
ನಗು
ಯಜ
##ಜತ
##ೂದ
ಪರೕರಣ
##ರಾಜಯ
ಇಲಲವ
ಅಧಯಕಷರಾದ
##ಪಡಸದದಾರ
ವಾರದ
ಮಂಗಳೂರನ
ಅಮರಕಾ
ಪುರಾಣ
ಪರತಭಟನಾ
ಬೂೕರಡ
##ಸೕನ
##ಧವ
ಅರತು
ಬಂದತತು
ಅಭವೃದಧಯ
ವರೂೕಧಸ
ಕಚೕರಗ
ವಶವವದಯಾಲಯದ
ಮತಗಟಟ
65
ವಂದ
##ನನನ
ಸಾಮೂ
ಪರತಪಾದ
ಅಲಂಕಾರ
ಆಧಾರತ
##ಭಾಗದಲಲ
ನವೕನ
ಗಾಯಕ
##ಗೂೕಳ
##ಭವನ
ಸಾಧಯವೕ
ಒದಗಸುವ
ಸಥಾಪನ
ನಕರರ
ಹಾಕಕೂಂಡು
ಕಟಕ
ಲಖ
ಮಾಡದರೂ
ಆರಂಭಸದ
ಹಾಳು
ಮುಕತಾಯ
ನಯಾಯಾಲಯದ
ಜಗತತನಲಲ
ಜಮೕನು
ಅಪರೂಪದ
43
ತಹ
ತಾಕ
##ತೕ
##ಕಕೂಳಗ
ಬಡಾವಣ
ಸಂಖಯಯ
ಜಎಸಟ
49
ಬೕಲ
##ಪತಯ
ಸಲಲಸದರು
ಕೂೕಶ
ಏಜ
ವಮ
##ಗಳದದು
##ೕವನ
##ಕಾಂಶ
##ಗೂಳಳುತತದ
##ith
ಆಟಗಾರರು
ಓದುವ
ನಯೂೕಜ
ಬದದದ
##ಂಕತ
ಸವಭಾವ
##ಾಣಕ
ಹಂದಯೕ
ವೖಫ
ಹೂೕರಾಡ
ತದದುಪಡ
ಪವನ
##ಗಸ
ಪರವೕ
ಮಾಡಲಾಗ
##ದಾರರ
##ಚಛೕ
ಆತಮಹತಯಗ
ಹಾಜರಾಗ
ಓಪನ
ಗಜ
ದಂತ
ಮಯೂ
##ಂಗಾ
ಕಾಟ
ಚತರಗಳಲಲ
##ant
ಬಳಸಲಾಗುತತದ
ಜನರಲ
ವಕಾಸ
ಪಡದರುವ
ಚಾರಜ
ದಸರಾ
ಕುಸದು
ಅಯ
ಗೕಟ
##ವಸಥ
##ಮೕಶ
##ಕರಲಲ
ಹೕಳದದ
ಮುಖಯಮಂತರಯಾಗ
ಇಲಾಖಗ
ತಯಾರಸ
ಇಷಟಪಡ
ಮುಂಜಾನ
ದವಾರ
##ಳಯುವ
ದನದಂದ
ವರಷದಂದ
ಮನೂೕಹರ
ಸೕವಯನನು
ಟವಟರ
ಆಭರಣ
ಸಲಕ
##ಂಧಯ
ಕಾರಖಾನ
##ವೕನು
ಕಾರಣಕಕಾಗ
ಶುರುವಾಗದ
ವಲನ
##ದೂಂದು
##ುವಾರು
ಕರಯಾ
ಅಬದುಲ
42
ಒಡಡ
##ast
##de
ಸಾಧಸದ
ಅಭವೃದದ
ಅಸಸ
ಇಂತ
ಓಟ
ಫೖ
ರಸರ
##ಚಯ
ಮಾಡಸ
ಕೂಂಡು
ಕರದು
ಕುಣ
ಸಥತಗ
ಲಂಕೕಶ
ಬಯುಸ
##ವದು
##ಾಟನ
##ತತಗ
##ಲೕಷಣ
##ೕಟಲ
ಗರಾಂ
##ಪೂರವ
ನಕಷತರ
02
ಆದಾಗ
ಎಂಥ
ಕಪಪ
ಬಲು
##ಷಟೂ
##ಬಹುದೕ
ಮಾತರವೕ
##ೂೕಧಕ
##ಗೂಳಸುತತದ
ಹೖಕಮಾಂಡ
2ನೕ
ಎಣಕ
ಬಾಟ
##ಂಡಸ
ಸಂಯುಕತ
ಎಂಬಲಲ
ಗುಲ
ಪರತಪಕಷ
ಕಯಾಂಪ
ಮಾಡಕೂಂಡದದಾರ
ಜನಪರತನಧ
ಡೂ
ಡಬಬ
ತಡಯಲು
ವಯಾಸ
##ಗಾ
##ನವರು
ಸಂವಾದ
ಆಗುವುದಲಲ
ಜಗದೕಶ
ಹುಡುಕಾಟ
ಕರೕಡಾಂಗಣದಲಲ
ವತರಣ
ತಡಗಟಟ
ಶಷಯ
ಮುಹ
ಮೂತರ
##ಾಸಟ
ಸುಳಳ
ಅದೂಂದು
ಸನೕಹತರು
vi
ಹರೕ
##ವಳು
##ವಾಗಲ
ಕಲಾಪ
ಬಳಸದ
ಹೂಂದದದಾರ
ಕಷೕತರದಂದ
##ine
ಲಕಷಮೕ
ಯುನ
ಸಂದರಭಗಳಲಲ
ಮಹಾರಾಷಟರದ
ಟರಾಫಕ
ಒಕಕ
##ವರುತತದ
ಸಮರಣ
##ಪಪಾ
ಅನುಗುಣವಾಗ
ಕೖಗಾರಕಾ
ಸಂಘರಷ
ಪಡಯಬಹುದು
ಸಾಧಸ
##ಪಟಟಣ
ಮಾಡಕೂಳಳುವ
ಹೂರತಾಗ
ಅಟಲ
ಕಾಗ
ಧಾವ
ಬರುವುದಲಲ
ಮಕಸ
ಶಲಾ
##ಶವ
##ಚರಸ
ನೕಡತತು
ವಯಂಗಯ
##ಳಯಂದ
ಅನಂತರ
ಸಚವಾಲಯ
ಕಲಪನ
ಮುಂದುವರದದ
ಬಾಕಸ
ದುಡಡು
ಸಾಮರಾಜಯ
ಇಂಟರ
ಡರಾ
##ಬಳಕ
ಮಾಡಲಾಗುವುದು
ಮನದ
ಅನಾಹು
ಉಡುಗೂರ
ಅಂಗಳ
##ಕೂೕರ
##ನಲಲದದ
##ಾಪಟಟ
ಸದಸಯರಾದ
ಪರಯಾಣಕರು
ಕತತರಸ
ಕಾಶಮೕರದ
ಪರತಷಠತ
##ಯವಸಥ
ಹವಯಾಸ
72
ಇಟ
ಉಭಯ
ಒಗಗ
ರಯಾಯ
##ದಂಡ
##ಬಐ
##ಚಂ
ಪರವಾನ
##ಂಡಾರ
##ಾಸಕ
ಜೕವನವನನು
##ಮೂಲಯ
ಮಲಯನ
ಸಥಳೕಯರು
ಟವಟಟರ
ಉತಪನನಗಳ
ನಾವೕ
ವಳಾಸ
##ಪೕಠ
ದನೕ
ಬಾಣ
ಮಾಲೕ
ಮಹಾರಾಜ
ಪರಪಂಚದ
##ಪರಭುತವ
ಮಾಡದಾಗ
ಸರಪ
ಸುನ
ನರಧರಸದ
ದೕಶಾದಯಂತ
ಸೂೕದರ
ಹರಷ
ಬಂಬಲಸ
ನಗದತ
ಮರಾಠ
ಕಯಾರ
ಜವರ
ನಖರ
ರವರಗ
ರಹತ
ಸಭಯ
##ಡಎ
##ಯಂದಾಗ
ಕರಮಗಳನನು
ಮಗುವನನು
ವವರಸದರು
ತಲುಪದ
ಮಾನಯತ
ಒಲಂಪಕಸ
ಕೕಶ
ಕವಾರ
##ವದದ
ಉಪೕಂದರ
ವರುಷ
ನಯಮತ
ಒತತಾಯಸ
ಜಾಮೕನು
ಬಯಾಟಸಮನ
ಬಎ
ಭಟಟ
ಸಾರಥ
##ಪಟಸ
ಸಥರ
ಅದರಂತ
ಕೂೕಳ
ಪರಶೕಲಸ
ವಯಾಯಾಮ
ಆರಾಧ
ದೕಗ
ಧೂೕನ
ಪರವೃತತ
ಪರವರತ
ಸಮಾರಕ
ಸುಬರಹಮಣಯ
ದನದಲಲ
##ಯಂದಲೕ
ಅನೕಕರು
ಅಮೃತ
ಚೕತನ
ಮಾವನ
##ಯಾಸದ
##ಾಯಲ
ಚತರಮಂದರ
ಮುಂದಾಗದದಾರ
ಎಸಗ
ವಷಯದ
ಜಾರಜ
ದೕವರಾಜ
ಸಂಶೂೕಧನಾ
ಒಣ
ಬಸಸು
##ಬೕಕಲಲ
ರೂಮ
ಇವರನನು
##ವಾದುದು
##ಪಯ
##ಾಗಯೕ
##ನನರ
ಮುದದ
ಕಲೂೕ
ನಡಯುತತವ
ಸಂಕಲನ
##ಾಮುಂಡ
ಸಟೂೕರ
ಆತನನನು
ಹರೕಶ
ಚತರರಂಗದ
ಜಯೂ
ಮಥ
##ತೕನ
##ೕಕಾರ
##ಬೕಕಾ
ಹೂೕಯತು
ಆಲೂೕಚನ
ಸುಧಾರಣ
##ಂವ
##ಂಡಾ
##ರಾಹ
ಚತರಣ
##ಲಯಂದ
ಅನಯಾಯ
ಮಾತರವಲಲದ
ಸಾಲಮ
ಪಟಟಯನನು
ನಾಡು
##ಸಕೂಂಡದದಾರ
ನಾಮಪತರ
ಅದಲಲ
ತೕಲ
##ಮಂಗಲ
##ies
ಮಾತೃ
ಬಯಾಪಟಸ
ದಾರಯಲಲ
ಜಾನುವಾರು
##ide
ನೕಮಕಾತ
ರೕವಣಣ
ex
ಘಾಟ
ಚಾಮುಂಡ
ಗುಹ
ಇದುವರಗೂ
##ome
ಒಟಟಗ
ಕೂಂಡೂ
ಸಂಘಟನಯ
ಉಂಟುಮಾಡ
ವದಯಾಭಯಾಸ
ಈಶವರಪಪ
ಏಷಯಾ
ಏಷಯನ
ಚಡ
ಡಕ
ಧರ
ಯೂೕಗಯ
##ಬದರ
##ಳದು
##ರಸತ
##ಕೂಳಳುತತಾರ
##ಸುತತಲಲ
##ಪುರದಲಲ
ಪಂದಯದ
ಮನುಷಯನ
ಹೂೕಲಸದರ
ನರಸಂಹ
ಧಾರಾವಾಹ
ಉಚಚ
ಬಲಾಗ
ಅಧಯಕಷರು
##ess
price
ಪೂೕಸ
ಶತರು
##ಗರಾಮ
##ಸಾರ
ಪರದ
ಹೂಗಳ
ಕಯಾಂಟ
ಪರವಾಸಗರ
ಆತಮೕಯ
ಇವುಗಳಲಲ
ಧವಜ
at
ಇರುತತವ
##ಮಾತ
ನಮಮದ
ತಂಡಗಳು
ಬಡುಗಡಯಾಗ
ಬಳಗನ
##ಾಮುಖಯ
ತಾಳಮ
ನವಾರಣ
ರಯಲ
##ದಯೂೕ
ಹೂೕಗುತತದದ
##ಮುಂದ
##ಯರನನು
ಸಮಸಯಯನನು
##ical
ವಲಯದ
ಪರಜಾಪರಭುತವ
ಗೕಮಸ
ಕಾಸರಗ
ಸರಾಸರ
ಜಬ
ನಾಣ
##ru
ಸುಪರ
ಅಭಯ
ಬಗಗನ
ಆತನಗ
ವಾರತಾ
ಪಟಟಗ
ಸುಲತಾನ
ಸುದದಗಾರರೂಂದಗ
ಊಹ
ವರಸ
##ಾದಾಗ
ನೂೕಡದಾಗ
ಮಾತನಾಡುವ
ಸಥಾನವನನು
ಮೂಡಸದ
ವಯಾಖಯ
ಜಾನಪದ
ವಸಂತ
ಡನಲ
ದತತ
ಹಾವು
##gle
ಪರತಮ
ವಕೂೕಪ
ವೃತತಪರ
ದಲತರ
un
ತನನನನು
##ರೂಪ
ಚರಮದ
ತಜಞರು
52
ಇಂಚ
ಉತ
ಓದದ
ಪದದ
ಸಮೃದಧ
ರಾಜಕಾರ
ಅಂತಯೕ
ಹೂೕಲ
ಸಾಧಯವಾಗುತತದ
ಘಟನಗಳು
ಸಹಜವಾಗ
ಡನಲೂೕಡ
56
##ಸುವುದಾಗ
##ೂಳ
ಮಾಡುವುದಾಗ
##ೕಲಾ
##ಗಳಲಲಯೂ
ಮಾಡುತತದದರು
ಇವುಗಳನನು
ಆಯೂೕಜಸದದ
ಗರಭಣ
##ಲಾರದು
##ಪರಸಾದ
ಹನನಡ
##ಷತ
##ಂಬಳ
ಕಲವರಗ
##ದೕಹ
ಇನನೂಬಬ
ನಡಸದದು
ಬೕಕಾಗ
ಭದರತ
ಸಂಸಾರ
ಶರೕಲಂಕಾ
ಕಯೂ
ಘಟಟ
ಹಠ
##ತಕಕ
ಸಾಲದ
ವದಯಾರಥನ
ಪರಾಧ
ಫೂೕಟೂ
ಯುರೂೕಪ
ಎಸಯ
ಬಯಾರ
ಮುಂಭಾಗ
##ಾವಣಯ
##ಸಯಾನ
ಮನಸಸನ
ಕೂಟಟದದಾರ
ಬಾಂಧ
##ಯೂಬಬಳು
ಖರಚ
ಬರೂೕಬಬರ
ಪೂರಕವಾಗ
ಬಗಹರಸ
ಋಣ
ಜಗಗ
##ಾಕರ
##ೕಜಯ
##ಯಕಕ
##ವಾಗರ
ನಡಸುತತದದ
ಎಸಪ
ವಧಾನಸಧ
##ಯೂಂದನನು
ಪರಕಲಪ
pre
ಶರಸ
ಹೕಮ
##ುತತರುವಾಗ
ಸಂಭಾವ
ನೂೕಡೂೕಣ
ಭೕಟಯಾಗ
ವಹಸದದರು
##ous
##abad
ಹನುಮಂತ
ಪರವಾನಗ
ಏಕಕ
ನಮಸ
ಬನನು
ಕಾಮಂಟ
##ವೕನ
ಸಹಕರ
##ಕುಲ
##ೕಷಮ
ವಾರದಲಲ
ಆಕಗ
ಒದದ
##ೂೕಸಯ
ಪರಭಾ
##ುವಕ
##ವಾದಾಗ
ರಾಜಯಸ
ತಂದದ
ಪರೕಕಷಾ
1000
ಮತದಾರರು
ಅಬಬರ
ಟೖಟ
ತಯಾಗ
ಪನ
ಅದಕಕೂ
##ಡಸಲು
ಆರೂೕಗಯಕರ
ವಯಸಸು
ಇಟಟುಕೂಂಡು
ಅಂತರಜಾಲ
##ರೂಂದಗ
##ವಷಟೕ
##ೕರದ
ರಾಜು
##ಮರಾನ
ಅಪರಾ
ನಡದತತು
ಆರೂೕಪಗಳು
ಗುರುತು
ನರಮಾಣದ
ವಷಣು
ಹಾವೕರ
ವಟಮನ
ಪರೂೕಕಷ
ಕುವಂಪು
ಸಾಮೂಹಕ
he
ಜರ
ಬತತನ
##ಯದು
ಸಾಹ
ಸುಮಮ
##ery
ಕರಮವಾಗ
ಯೂೕಜನಗಳ
ಲೕಖಕ
ಹಮಮಕೂಳಳ
ವಾಟಸಾಪ
ಮೂಹಮಮದ
##ಮಹ
ಜಲಲಗ
##ನಾಡನ
ಹರಕ
ಶರದಧ
ಮಾಡುತತೕನ
##ವಳಕ
ಪಾವತಸ
ಸಂಸಕೃತಯ
ನಯಂತರಸ
41
ಕಡಯಂದ
ರಶ
##ೕಲು
##ಬಯ
##ಬೂ
##ಟೕಲ
##ವಾಗಲು
##ಬೕಕಂದರ
ಹಚಚುತತದ
ಸರಕಾರಗಳು
ತಂಡವು
ವಚಾರವಾಗ
ಯುಪ
2018ರ
ಮಾಡುತತೕವ
##ash
ಯಾದಗರ
ಪರಜಾವಾಣ
ಪುತತೂರು
##ಬೕಳ
ಯುವಜನ
ವಸತಾರ
ಮುಂದುವರದ
ಮೂತತದ
ಕಾರಮಕರ
nov
ವಂಶ
ಸಇ
##ಾಂಶ
##ಟಟದದಾರ
ರಾಮಕ
ವರದಯ
ಅರಪ
ವಶವಸಂಸಥ
ಪದವೕ
ಆಸಪತರಯ
ಎಸತ
ವಂಡ
ಶಖರ
ಹೂಲ
ಬಳಕನ
ಸೂರಯನ
ಸಂವಹನ
new
ಟರಕ
ಲಲ
ಮಾಡುತತಾ
ಕೂಳವ
##ುವಂತಲಲ
ಶಾಸನ
ಜೕವನಕಕ
ಕುಟುಂಬಕಕ
##ort
ಫರಂಚ
##ಾಯುಕತ
ಅನಾವರಣ
ಕೂಠಡ
ಇವನ
ಐಡ
ಒಂಟ
ಕಾಯಕ
ಕೕಸ
ನಕಕ
##ud
##ಂದರಾ
##ೂಂದೕ
ಸಥಳಗಳಲಲ
ಸಥಳದಲಲೕ
ವವರಣ
##ಚುನಾವಣ
ಉಳಳ
##ಚಾ
##ಯಲಲಲ
ಹೂರಟು
ಜೂತಯಲಲ
ಶವಣಣ
2004
ಬರುತತಾರ
ನಯೂಯಾರ
ಶಫಾರಸು
54
ಈತನ
ವಂಚನ
ಪರಾಮುಖಯ
##ುವನಲಲ
ಕಡವಾಣ
ಬಯಾಡ
ದಾಂಪ
ಮಲಯಾಳ
ಉದಘಾಟಸ
ಕಳಳತನ
ಪರತನ
##ವರಸಟ
ಮಾಡತು
ನೕಡಲಲ
ಬರಲದ
ಕಡಗಳಲಲ
ಬಲರ
##ವೂಂದರ
##eng
ಮುನನವೕ
ಪಾಯಂಟ
ಕದ
ಸೕಲ
##ಂನಲಲ
##ಸಥಳ
##ary
ಸೂೕನ
ತಕಷಣವೕ
ಪರಾಧಯಾಪ
ಆಳವ
##ಯಲು
##ಬೕರ
##ಷಕಾ
ಹೕಳದದು
ಹಂದಕಕ
ಕಾರಣಕಕೂ
ಪಟಟಣದಲಲ
ಕೂೕಣ
##ಬಹುದಂದು
ಕಾರಯನರವಹಸ
ಜೕರಣ
ತಲಯ
##ಕಡ
##ಬಾಯ
##oun
ಇಲಲದೕ
ಭಾಗಗಳಲಲ
ಆದಷಟು
ಪರಣಾಮವಾಗ
ಕರಯಲಾಗುತತದ
ವಯಸಸನಲಲ
ಪತರಕರತರ
ಶರೕಕೃಷಣ
##angalore
ಉರುಳ
ತವರ
ಭರಮ
ವಲಲ
ಮುಂದೂಡ
ಬೕಕಾದರೂ
ಮಾರುತ
ಸಾರವಜನಕರಗ
##ಕೂಡುವ
ಅಂಶಗಳು
ಟೕಮ
ನರಾಶರ
##age
ತಪಾಸಣ
te
ಲಕ
##ೂತ
##ದದಕಕೂ
ಸರಕಾರದಲಲ
##ಷಯಲ
ಒಂದಾಗ
##ವೕಶವರ
ಕರಯುತತಾರ
ಸಮಯಕಕ
ಖರೕದಸ
ಮಾದರಯಲಲ
ಪುರಸಕಾರ
ಲೂಯ
ಪಂಡತ
ಜೕಟಲ
ಫಟ
ಶವನ
ಶೕಖ
##ಮಟಟ
##ಖಯಾ
##ೂೕತ
ಸಂಶಯ
ಶರೕದೕವ
ಗರೕಶ
ಆರೂೕಪಗಳನನು
##ics
ಜನಾರದನ
phot
ಕಹ
##ಮಾಡದ
ಹೂೕಗದದಾರ
ಶಾಲಗಳ
ಚರತರ
ಚರಚಸ
ಪರಸಥತಯಲಲ
ಹಾಕಕೂಂಡ
57
ನಕಸಲ
##ಬಲಕ
ರಾಜೕಶ
##ಣಯರು
ಅಂದಹಾಗ
ಮಾಡಕೂಳಳಲು
ಶರೕರಾಮು
ಪರತಷಠಾಪ
ನಸರಗ
51
ಪೂೕರಟ
ಭೕದ
ಭಂಡಾರ
##ob
##ುವಾ
ನೕಡಲಾಗುವುದು
ರಾಜೕವ
ಪರಶಾಂತ
ಸೂೕತ
ಹತಯಗ
ಗಲಲುವ
ಹಳೕ
ಟಯಾಟೂ
ಫಸಟ
ಲಡ
##ುಪಾಲ
##ಕಗಳನನು
##ಬೕ
ಜನತಗ
ಕಷೕತರಗಳ
ಬೕಕಾಗುವ
ಬರುವಂತ
ಹೂೕರಾಟದ
ಒಟಟನಲಲ
am
##pt
ಪರಯಾ
ಕಾರವಾರ
##ರುತತಾನ
ವಶಲೕಷಣ
ಮೂಲಕವೕ
ಸಮಸಯಗಳ
ಬಯಲು
ಆತಮವಶ
ಆಕರಷಕ
ಸಂಕೕರಣ
ಶೂೕಭಾ
ಒತತಾಯಸದರು
ಮೕಸಲಾತ
ಸಮನವಯ
##ಚಛೕದನ
ಆಂತರಕ
ಇಮರಾನ
ಈಜ
ಕಂಚ
ಚೕತರ
ಪಲಲ
ವಾಡ
ಶಸತು
##ಜಾತ
##ದುದರಂದ
ನೕಮಸ
ಅವರೂ
ಹಂದರುಗ
##ಗೂಂಡತು
ಕಲಸಗಳನನು
ದೂರದಲಲ
ದೂರವಾಣ
ಎಂಬುದಕಕ
ಕಂಡದ
ಪರಭು
ಗಾಡ
##ಯಗಳನನು
##ಬಗ
ಕೕಳಬ
ಕರನಾಟ
ಬಡುವ
ಕಂಡುಹ
ಒದಗಸ
ಅಪಘಾತದಲಲ
ಲಕಷಮಣ
ne
ವಪರೕತ
##ಲಲೕ
ಕಾರಪೂರ
##ೕವಾರ
ಸಮಯದ
ಸರಹ
##ವಾದವು
ಪೂಜಾ
ಮತತೂಂದ
ಹರಯಾಣ
ಟರೂೕಫ
##ass
ಖಯಾತಯ
ram
ಒಂಬ
ಡೂನ
##gh
##ಷಟರಲಲ
##ಟರಕ
ಕನನಡಕಕ
ಉತತರಸ
ಸಾಬೕತು
ರಾಮಕೃಷಣ
ಈರು
ಪೂೕರ
##೦ಗ
ಪರತಾಪ
##ಂಗದ
##ಗಳಲಲದ
##ಕೂಳಳಬಹುದು
ವಯಕತವಾಗದ
ಪರತಯಕಷ
ಆಲೂೕಚ
ಬರಯುವ
ಹತತರದ
ಅಕರಮವಾಗ
ಓದಲು
ಗೖ
##jp
ಪರಕರ
##ವರಡ
##ಟಟಾಗ
ಗುಪತ
##ana
ಉಪಚುನಾವಣ
ಇದದೕ
ಆಕಯನನು
ಖಂಡಸ
ಅರೕ
ಎಕ
ಕಮೕ
ಖರಗ
ಪಂಪ
ಮುನ
##ಯೂಂದರಲಲ
ಪರಕಟಣ
ಗಂಗಾ
ಜಯಲಲ
ಶಂಕ
##ಯನನೕ
##ವುಳಳ
##ಕರಂದ
ಆರಟ
ಪಕಷವನನು
ಮಾರಗದಲಲ
ಬಳಯುವ
ಮತತತರರು
47
53
ಐಎ
ಚೕಲ
ರಶಮ
##ೂಕ
##ೕವಡ
ಎಂಬಾತ
ಬಂದಗ
ಪದಾಧಕಾರ
ಅಂಗನ
##ಪುಟ
ವವರಗಳನನು
ರಾಜಯಾದಯಂತ
ಶೃಂಗ
ಮದ
##ಬಹುದಾಗ
##ath
ನೕರಗ
##ind
ಸಗದ
ಅಗತಯವಲಲ
ನರವಹಣಾ
ರಾಯಲ
ತರಸಕರ
ದಡ
ವೖಭವ
ಎಂಬುದಾಗ
ತೕರಪ
ಪುಸತಕಗಳನನು
ಠಾಣಗ
##ೂೕಹಣ
ಕೕರಳದಲಲ
ಪಡದುಕೂಂಡದ
ತಹಶೕಲ
ಉಕಕ
ನವೕಶನ
ರಯಾ
##ಜಸ
##jay
##ಲಲನ
ಕಾರನನು
ಸಮೕತ
ಆಗಬೕಕು
ಮಹಾಮ
ದೕವರಗ
ಹೂಂದದದ
ಕಳದುಕೂಂಡು
ಅಧಯಾಪ
ಗಮನಾರಹ
ಇತತೕಚಗಷಟೕ
ನಮಷಗಳ
ಪಾಲಗೂಂಡದದರು
ದಳ
##ಕಾಯ
##ಮನಯ
##ಯಂಗ
##ಎಚ
ಸಂಸತ
ಸಾಮಾನ
ವೖರ
ತಂಡದಲಲ
ವಚಾರಕಕ
ಮಟಟಕಕ
ಅಧಸೂ
ಮಂದಗ
46
ಎಂಜ
ಮಯ
##ach
ಹೂೕಗುವುದು
ತರಹ
ಮಾಧಯಮಗಳು
ಎನನಲಾಗುತತದ
ಹತತಾರು
ದೖವ
ಕೖಗೂಂಡದದಾರ
ಟೂರನಯಲಲ
ಚಾನಲ
ದುಷಕರಮಗಳು
ಸಾಲಮನನಾ
ಲೂಯಸಯಾನ
my
ಉಮೕಶ
ಲಪ
ಶಾಮ
##ಬಟಟು
##ರೕಸ
ಕುಸಯ
ಅರಳ
##ನನೂಂದ
ಹೂರಹೂ
ಸಲಲಸದದಾರ
ಮೂಲತಃ
ಫಲಾನುಭವ
ಮುಂಬೖನ
ಬರುತತದದ
ಸುರದ
ಅಂತಮವಾಗ
ಮೃತಪಟಟದದಾರ
ಕರೕಡಾಪ
ಒಂದೂವರ
ಚಳವಳ
ಶರೕರಾಮುಲು
me
ಈಶ
ಚಳಗ
##ನೂಂದಗ
##ದೂೕ
##ಬರು
##ನಾಟ
ಕಾಂತ
##ಡುಕ
195
ಕುರತಾಗ
ಹಾಯ
ಹರಗ
##ಂದೂೕಲನ
ಹೕಳಬಹುದು
ಬಲೂ
ಮೕಸಲ
ಮೂದಲನಯ
ಮರಗಳು
ಆರೂೕಪಸದರು
ಫರಾನಸ
ಎಂಜನಯರ
ಒರ
ಕಂಟರ
##ಸಥರ
ಪರಕಟಸದ
ಬಂದರೂ
ಧರಣ
ವಚಛೕದನ
##ಾಶ
##ಾತಯ
ಮಹೕಂದರ
ಹರಹ
ಆರೂೕಗಯಕಕ
ಕಂಪನಗಳ
ಕೕರತ
wor
ವಸೂ
##ಐಟ
##ಯಾವು
##ಲಾಗರುವ
ಸುಚೕ
ಮಹದಾಯ
ಹಾಕದರು
##ೖಲರ
##ವಯಕತ
ಅಭಯರಥಯಾಗ
ಸೂಚಸದರು
##ವರಂದ
##ಾಲಟ
ಹಾಗಂತ
ಬರಳ
ಹೂರಹಾಕ
ನಲುವು
ಖರೕದಸಲು
ಸಂಚಾರಕಕ
##ನಗರದ
ಕಾಡುತತದ
ಜಾಣ
ದಗ
ಸಕೂ
೧೪
##ri
ಗುಬಬ
ಅವಧಯ
ಎಂದಗೂ
ವೖಟ
ಕಾರಯಕರಮಗಳು
##ಗೂಳಳಲದ
ತಪಪದ
ಸದಧಪಡಸ
ಮೂಡಸುವ
ವೕರಶ
ಚತರರಂಗದಲಲ
ತಂಗನ
ರಯಾಯತ
ಈಕ
ಲಮಟ
ವಕರ
##ತವಾದ
##ಗಳಷಟು
##ದದೕಶ
ಸುಬಬ
ಇದಾಗದ
##ಸುತತಲೕ
##ಸುತತರುವುದು
##ರುವುದರ
##ೃತಕ
ಮಾರಕಟ
ನಡಯಲದದು
ನಡುವಯೂ
ಆಕಸಮಕ
ಟಾಟಾ
ರಕಾರ
##ಗಣ
##ಧರಮ
##ೂೕಬ
##ಕತಾರ
ಹಚಚಸಲು
ಉತತರಾ
ಸಟೖಲ
##ಕಕಂತಲೂ
ಠಾಣಾ
##ags
ಸಭಾಂಗಣದಲಲ
ಬಾಹುಬಲ
ತತ
ಬೂೕರ
ನೕಪ
##ವರುವು
ಕಾರಯವನನು
ಬಡದ
ಇದರೂಂದಗ
##ಸದದೕನ
ಹಾಲನ
ತಳಯಲು
ವೕಗದ
ಆಪಲ
ಜರಮನ
ಡೂನಾಲಡ
ಡಗರ
##ಸದಳು
ಮೕಘ
ಆರಂಭವಾಗದ
194
ದಾಖಲಗಳನನು
ಒಟಟಾಗ
ಪರವರತನ
ಗಲಾಟ
##ld
##ತುರ
ನಮಮದು
##ದಾರರಗ
##ುವಂತಾಗದ
ಆರಂಭಸ
ಮತಗಳು
ಆರೂೕಪಸದದಾರ
ದೕಹದಲಲ
ಬಂಡಾಯ
ಪರೂಫ
ನಚಚನ
ಫಲಕ
ರಸಟ
##ಯರಗ
##ust
##ಖಯಾತರ
ಅವಶ
ಎಂದನಂತ
ಎಸಸ
ಸಪರಶ
ಈರುಳಳ
ಕರಕರ
ಬೕಚ
ದೕವಾ
ಸಂಗಾತ
ಕಟಟುವ
ನಡಸರುವ
ಪರಾಂಶ
ಕಾಯದಯ
ಇಂಡಯಾದ
ಒದಗಸುತತದ
ಗುರಯಾಗ
ಪರಸತಾವ
ಬಳಕದಾರರಗ
ಎದುರಾಗದ
ಎದುರಾಳ
ದಾಂಪತಯ
bjp
ಗಯಾಸ
ನರು
ಸಂಡ
##ಶಾಹ
ಸುದ
ಸುಮಾರಗ
ಅಲಲವೕ
ವೕಡಯೂೕ
##ಮೕಟರ
ಯೂೕಜನಾ
ಎಂಜನಯರಂಗ
ಅಗಗ
##ಷಟೂೕ
ಸಾಧಯವಾಗದ
ನರದೕಶಕರ
ಸಂಘಟನಗಳ
ಚಂದನ
ತಲಗ
ದೂೕಣ
ವು
೧೩
##ವನಂದ
##ತುಂಬ
##ಸುತತತತು
ಹೂರಗನ
ಗಣನೕಯ
ಮಕಕಳಲಲ
ಮಾತುಗಳನನು
ಪಂಚಾಯ
##ಾಭರಣ
ಸವೕಕರಸ
ನರಲಕಷಯ
ಎಐಸಸ
ಧನಯವಾದಗಳು
post
ಜೕನು
##ತನಯ
##ಸದವರು
ಸರವೕ
ಸುಟಟು
ಅದನನೕ
ಕಾಲಕಕ
ಸಮಸಯಗಳಗ
ಪಾಲನ
ಇಲಾಖಯಲಲ
ಪರಾಂಶುಪಾಲ
ಅಮೂಲಯ
##ya
##ಯಾಗಲಲ
ಕಾಮನ
ಸಥಾನಗಳನನು
ಹರಯರು
ವಾಚ
ಕರೕಡಾಕೂಟ
ಹಗಗಳ
ಪದವೕಧರ
wp
ಊಹಸ
ಹಳದ
##ವಧ
##ಪಾಲಕ
##ಪೂೕರಟ
##ನಕಸ
ಪರದಾಡ
ಮೂಕ
##ಲೕಕರಣ
ಇದಕಕೂ
ಹುಣಸ
ಅಂತರಾಷಟರೕಯ
ಸೂಪಪು
ಇತರರು
ತೕವರವಾಗ
ಗಣೕಶನ
ಬರಯಲು
ಪುರುಷರು
ಮೂೕಟಾರ
del
ತತತ
ನೂಂದ
ನಂಜ
ಸರಜಾ
ಹೂಗ
ಆರಎಸಎಸ
ಹೂೕಮ
ಬಳಸಬಹುದು
ಪರಧಾನಮಂತರ
ಸಮಸಯಗ
ಅಂತರದಲಲ
ಆಶಾ
ಪೕಪರ
ಕಡಡಾಯವಾಗ
ಮಟರೂೕ
ತೃಪತ
600
with
ಫೖಲ
ಷರ
##ಶಲ
ಪರಾಜ
##ಂಗಣ
##ಲಾಗದದ
##ುತತದದಾಗ
ಅಲಂಕರ
ಮಾನವೕಯ
ಮಾಧಯಮಗಳ
ಕರಾಸ
ಮುಖಂಡರಾದ
ರಯಾಲಟ
ಅಳಯ
ಆಕಾರ
ಇರುತತಾರ
ದನನ
ಪಥ
ಲುಕ
ಹಾಸಗ
##ಗನಲಲ
##ನನನೂ
##ತರಾದ
##ತಯಾಗದ
##ನಾಭ
ಅರಮನ
##ard
ಒಂದಲಲ
ವೕಡಯೂ
ಇದದಾಗ
ಖರೕದಗ
ಬದುಕನನು
ಇನಸಟ
ಅಂಗನವಾಡ
ಐವರು
ಪಲಸ
ಸಾಗದ
##ುಳಳ
ಸಮಾಲ
##ೂೕಪಯೂೕಗ
ಚರಂಡ
##itor
ಊಟದ
2019ರ
ಅಟ
ಕಕೂ
ಟು
ದರಾ
##ಯಂದು
ಕಾಂಪ
##ದಯೂೕಗ
##ಕೂಳಳುತತದ
ಹಚಚಾಗುತತದ
ಬರಡ
ಬಂದದದರು
##ನಂದನ
ಪರೕಕಷಯಲಲ
ಹೂೕರಾಟಗಾರ
ಗೕತಾ
ಆರಾಮ
ತಮಾ
ತರುವು
ದಯವ
ಪೕಳ
##ಕತರಗ
##ರಗಸ
ಅನುಷಕಾ
ಗಣಪ
ಸಲಲಸಲು
ಪಾತರವನನು
ಹಣಣುಮಕಕ
##ಮಂಟನ
ನಲದಾಣದ
cong
ಅಧಕೃತವಾಗ
##ತರಕ
ನೕತರ
ಆಗುತತ
##ata
ಭಾಗವತ
##ಕನಾಗ
ಆನಂತರ
ಸುತತಲೂ
ಕರಕಟಗ
ಕೖಗತತ
content
ಶುಭಾಶಯ
cl
sc
sp
ಮಾಸಕ
ಕೂತು
ಮಹದೕವ
ಅಲಲಯ
ಬಂಬಲಗ
ನರಮಸಲು
ಡವೖಸ
we
ತೂೕಡ
ಮಾಡತಾರ
##ೕರಗ
ವರದಯನನು
ಕೂಡಲ
ದೕಶವನನು
##ಲಪಡುವ
ವಯಕತಗ
ಶಕಷಣದ
ನಮಗೂ
ಉತಪಾದನಾ
ಬಾಬಾ
ಹಗರಣ
ಜನಸಾಮಾನಯ
ಎಟಎಂ
ಪರಭಾಕರ
ಆಡಯೂೕ
ಕಂಠ
ಡನ
##ವಸತರ
##cc
##ಹಾನ
ಬಲಗಳನನು
##ಗುಡ
ದುನಯಾ
ಅಗಲ
ಹಡತ
ರಚಸ
ದೕಹಕಕ
ನಯಮಗಳನನು
ಪತನಯ
ಮುರದು
ಪೂೕಸಟರ
64
ಪೂೕಲ
ವತತ
##ಾಂಕ
ಬಲಂಗ
##ವಣಗಗ
##ಎಸಐ
ಕೕಂದರಕಕ
ನಗರಕಕ
ಹೂಂದಾಣಕ
ದರಜ
ಅಸೂೕಸಯ
ಕಂಡುಬಂದ
ಉದಾ
ಬರುತತರುವ
ಆಧಯಾತಮಕ
mar
ಎಳಯ
ಗಾಗ
ಸೂೕರ
ಸವರಗ
೧೭
₹1
ಅದನನ
ವಯಕತಗಳ
##ern
ತಗದ
ಮುಖದ
##ರಾಗದದರು
ಮತಗಳ
ಮರುದನ
ಮುಸಲಮ
ಅದದ
ಐಶವರ
##ಡಲು
##ಕೂಳ
ಹೂಟೕಲ
ಕಾರಯದಲಲ
ಸವಸ
ಆಟವಾಡ
2005
ಪರೕಕಷಗ
ಪರೕಕಷಕರ
ಮೂರೂ
##ಂಜನೕಯ
ಉಗರರು
ದವಚಕರ
bol
ಅಸತ
ನಟರ
ಹಯಾಂಡ
##ಹೂೕದ
##ೂಡಗ
##ಅಪ
##ಕಷಕ
ನೕಡುವುದಾಗ
##ಂಜಯ
ಅತಯಾದ
ಪತರಕಾ
ಹುಡುಗರ
ಪರಕೃತಯ
ಅನಗ
##ಜೂೕಡ
##ಸದರೂ
##ಹರಣ
##ರಸಥ
##ಮಾನದ
##ರಲಲೂ
ಕಲಸದಲಲ
##ಗುಳ
ವದಯಾರಥನಯ
ಅಗತಯವರುವ
ಎನನುವಂತ
ವಜಞಾನಗಳು
ಕೃತಕ
ನಯಾಯಾಂಗ
ಸುದದಗೂೕಷಠಯಲಲ
##oads
ಧೂೕರಣ
ದಯವಟಟು
bangalore
ಎಪ
ಎಂಪ
##ಂದರು
ಮಾಡದದಾನ
ಸುಳಯ
ಕಂಪೕಗಡ
##ೕಪುರ
ನಾಲಗ
ಸಾಹತಯದ
ಆಮಲ
ಒಕಕೂಟದ
upl
ಉರು
ಲಾಗ
ಸಕಷನ
##ವಲಯ
##ಾನೕ
##ವಾಗುವುದಲಲ
##ಕೂರ
ನರಳ
##ಡಯು
##ಲಾಜ
ಚರತ
ಆಫರಕ
ಬಾಂಗಲ
ಪರಶನಸದರು
ಕಚಚಾ
ಉದಘಾಟನ
ಸಾಮರಥಯವನನು
ಮಂಟಪ
ಶಲಾಘ
ಲಗ
##ಗೂೕಪಾಲ
##ುತತದದರೂ
##ಾಲಕು
##ಸುವರು
movi
ತಪಪಾಗ
##ಬಲಟ
ಪರವಾಸಗರು
ನಂದನ
ಅವಳನನು
ತಡವಾಗ
ಗಾತರದ
ಯಜಮಾನ
tam
ಕಲವರ
ಹೕಳುವುದು
ಮಹೂೕತಸವ
ಅನವೕ
ಶರೕಧರ
ಚುಕಕ
ಕಟಟಡದ
ಬಡತನ
ಹುಡುಗಯರು
ಕಲಪಸ
ಕುರತಾದ
##ಂಬುದನನು
ಸತರೕ
ವಾಗದಾಳ
ಈಚಗ
ತಗು
ದಂಗ
ಫಾ
##ಡಲ
##ಾರತ
##ಲಾಗುವ
ಕೂಡಗನ
ಅಂತೂ
ಶರವಣ
ವಯವಸಥಯಲಲ
ಪರಮುಖವಾಗ
ಅರಥಮಾಡ
ನಂತದದ
ಟರಯಾಕ
ಸೂಚಸದ
ಟೖಮ
ವಷಾದ
ಬಳಕದಾರರು
im
ಟಂಡರ
##ಹರಯ
##ನನಂದ
ಹೂರಬಂದ
ಮುಖಾಂತರ
##ುವುದಕಕೂ
ಭಾವಚತರ
2017ರ
ಆಗಮಸದ
ಕಾರಮಕರು
ಠೕವ
ಸಕಯ
ಪರಬಂಧ
ಮೂಗ
ಅಭಷೕಕ
ಕನನಡಗರು
ಸಪೕಕರ
ಸಾವರಕಕೂ
ಅಮಜಾನ
ಮಾನವನ
ಪಕಕದಲಲ
ಯೂೕಚಸ
##ತೂಡಗದ
ಅನಗತಯ
ಫಾಲ
##ದಷಟು
ಮಾಡಲದದಾರ
ಮುಷಕರ
ಆರಲಯನಸ
ಪರಶರಮ
##ರಾಗರುವ
ದೕಪಕ
ಪರಯಾಂಕಾ
ಅಟಟ
ಆರಾ
ಜಸ
ಬ೦
##ಾರಗ
ನರಭ
##ಬಬರೂ
ಹೕಳದರ
ಉಪವಾಸ
ಕಾಂಗರಸಗ
ಬುಡಕ
ಜಗತತು
ಎನನಬಹುದು
ಅಭಮಾನಗಳಗ
ದೕಪಕಾ
ಸಂಕಲಪ
ವಜೕತ
ನಯೂಯಾರಕ
ದಢ
ಪೕಜ
ಮೂೕರ
ಲೂೕಡ
ಸುಗಮ
ಹೕಳುತತದ
##ನಗಡ
ವಶಲೕಷ
ಮನಗಳ
ಪರತವರಷ
##ಾಮಕ
##ೂೕಪರಾ
##ಪಡಸದರು
##ಾಂತರಸ
ಯುವಕರ
ಗಂಟಯ
##ಾಮುಖ
uploads
##ರಡಡ
##ಮೖ
##ಲಾರದ
##ಾಗಲು
##ವಾಗದದಾರ
ಮಾಡದದೕನ
ಮುಜು
ಮೂಳ
##ಸುವವರು
ಬರಟನ
ಪೂರೖಸ
ತೂೕಟಗಾರಕ
ಟಯಾಕಸ
ಆಗರಹಸದರು
goo
tags
ರತ
##ವನಗ
##ಪೂೕ
##sk
##ಾರೂ
##ank
##ಾಡುವ
ಉಪಯುಕತ
ಮೕಲು
ನಡಯುತತದದ
ಗಣಗಾರಕ
ಯಾವತತೂ
ಬದಲಾಯಸ
ಬಡುಗಡಗ
ಬಯಾಂಕನ
ಸೂಚಯ
ಉಂಟಾಗುತತದ
ಲೖಫ
ರಕಷತ
ಆಚಾರಯ
ತಹಶೕಲದಾರ
us
ತೃತ
ಭಂಗ
ರೕಷಮ
ಸಡಸ
ವಯಕತಯನನು
ಒಂದನನು
ಸಮಯವನನು
##umb
ವಯಾಖಯಾನ
ಕರೕಡಾಪಟು
congress
ಎದದ
##ದಯಲಲ
##ಾಗಬೕಕು
ಸಾಧಾರಣ
ಸರಣಯ
##ಸದದಾನ
ಮುಂಬೖನಲಲ
ಪಟಐ
ಅಮರಕಾದ
##ಪಕಟರ
ಅನಂತಕುಮಾರ
ಶಸತರಚ
ಶೕಕಡಾ
58
ಟಕನ
ದೂೕಸ
ನಾಸ
##ನೂರು
##ಳಾ
ಪರತರ
ವರತಸ
##ನಸಟ
ಮನಮ
ಸೂೕಲಸ
ಕಟಟದ
ಶಾಲಗಳು
ನಡಸದದ
ನಡಸುತತದ
ಮಾಧಯಮಗಳಲಲ
##ಪಾಲು
ಬದುಕನಲಲ
ಬಸಸಐ
ಶೕಕಡ
ಹದನೖದು
ಸುನೕಲ
ಜಯಲಲತಾ
ಆಂದೂೕಲನ
ಖಾದ
ಟಪಪ
ಲಂಬ
##ುತತರುವುದರಂದ
ಸಂಧು
##ಕಾರಯ
ಮೂಮಮ
##ಬೕಕದದ
##ಮುಕ
ಒಂದಾಗದ
ಗಳಂದ
ಸಾವನನಪಪದದಾರ
ನಾಯಕತವ
ಕಎಸಆರ
ತಂದರ
ಲೖಟ
ಹಡಗ
ಪರವಾರ
ಕೂಂದ
ನೕಡಲದ
##ಸತಾ
ಗುಂಡನ
ಯುಎಸ
ಉಂಟಾಗುವ
ಭವಷಯದ
ಸನಮಾಗಳ
ಪರವೕಣ
ದೕಗುಲ
ಸುದೕರಘ
ಎಂಟ
ಘಂಟ
ಡಯಾ
ಮದದ
ಯಥ
##ತವಾ
##ಪಲ
##ೖದ
##ೃತಯನನು
##ುವನಂದ
##ಯಾದಾಗ
ಕೂಡಬೕಕು
ತುಂಡು
ಹೕಗರುವಾಗ
##end
ವೃಂದ
ಹೂೕರಾಟಕಕ
ಮಲಟ
ಕಾನೂನನ
ಸಕಂಡ
ಹಕಕುಗಳ
ಹಾಜರದದರು
ಕವಾರಟರ
ಉಳತ
ಎ೦ದು
ದರಾವ
ರಕಕ
##ಕೂಪಪ
ಸರೂೕವರ
ಕಾಶ
ವರಕ
##ಜನಕ
ಸೕರುವ
ವಯವಸಥಾಪಕ
ಎಲಲರನನೂ
ಆಟಗಾರರ
ಅಂಬಾನ
ಮಳಗಾಲದಲಲ
ಮೂತತವನನು
ಹಣಕಾಸನ
ಶೖಲಯ
ಚಕರವರತ
ಗಂಡನ
ಭಕಷ
ವೂ
೧೬
ಮಾಡಲದ
ಸಂಯೂೕಜ
ಕಾಳು
##ಲೕನ
ಪಕಷದಲಲ
ಗೂತತೕ
ಅನುಭವಸ
ವನಮಯ
ವದವಾ
ವಾತಾವರ
ಲಕಷಣಗಳು
ಛಾಯಾಗರಹ
ಲಮಟಡ
ಇದಲಲದ
ಐಸಸ
ಯೕ
ವಕತಾರ
##ವದದರ
##ಕೂೕನ
##ನಟ
##ಯಷಟೕ
ಕಾರಯಾಗ
ವಚಾರವನನು
ಆರಂಭವಾದ
ಪಾಲಸ
ಕಾರಯಕರತ
ಲೂೕಕಾಯುಕತ
ಹಾಕಕೂಳಳ
##ಜೕವನ
ಆಂಧರಪರದೕಶ
ಮುದರಣ
73
fr
you
ಅದಧ
ದಕಕು
##ಪೂ
##ವಾಗಬೕಕು
ಮೂಲಸ
ಜನಪದ
ಬಾರದ
ವದಯಮಾನ
ಮರತ
ವಚಾರಣಗ
ಕಡಮಯಾಗುತತದ
ರಂಗಭೂಮ
ಪೕಸಟ
##ಕೂಟಟರು
ಅಂದುಕೂಂಡ
ಮಾಲೕಕರು
ಭುವನ
ವರಾಮ
ಶೕತ
##ಬಾಬ
##ಬಟಟದ
##ಘಡ
##ದದಾಗದ
ಮುನನು
ಅವರಗೂ
ನರಣ
ವರತನ
##ಚಾರಯ
ಹೂೕಗಬೕಕು
ತೂಳಯ
##ati
ಮಾತನಾಡಲು
ನಡಸದದರು
ಗಾಂಧಯ
ಉಂಟಾಗದ
ಬಜಟನಲಲ
ಗಾಯಗೂಂಡದದಾರ
ತನನುವ
ಗುಲಬರಗ
ಮುಜುಗರ
ಅದಧೂರ
cr
man
ನಲಯ
ಹಳಳಯ
##ಫೖನ
ಕಾಡನ
ನೕಡತು
ರಾಜಾ
ಹೂೕದರು
ತೂಗ
##ುವುದಕಕಂತ
ಅಷಟರಲಲ
ಮೃತದೕಹ
ನರಾಸ
ಅಕಷಯ
ವವೕಕಾನಂದ
ರಾಧಕಾ
ವಶವವದಯಾನಲಯ
##ಕದಲಲ
##ub
##ಎಕಸ
##ರೕಕಷತ
ವಯೂೕ
ಮಹಾವ
ನೂೕಡಬೕಕು
ನಡಸಲಾಗುತತದ
ಕಳಪ
ಆಡುವ
ಪರಸನನ
ಅವಕಾಶವನನು
ಭಾವನಾತಮಕ
ಪಾಶಚ
ಮಾಡುತತದದು
ಮೕರದ
೧೯೯
ನರಮಸದ
##ಬಲಲದು
ಒಲವು
ಭಗವಂತ
ಕರದೂಯಯ
ವೕರಶೖವ
66
ass
dist
ಮಕ
ವಜರ
##18
ಪರದೕಪ
ಮಾಲಕ
##ವಾಗಬಹುದು
ನೕಡುತತರುವ
##ದಯಂದ
ಕಾರಣದಂದಾಗ
##ನರದೕಶ
ಒದಗಸಲು
ಸುಂದರವಾಗ
ಹಂಬಲ
ಬಾಂಗಲಾದೕಶ
not
tr
ಶರುತ
##ಡಪ
##ುತತರ
ಬರವಣಗ
ಗೂಬಬರ
ನಡಸಲಾಗದ
##ial
ಸುತತೂೕಲ
ಹಾಲವುಡ
ಸದಯದ
ದಶಕಗಳ
ವನಯಜೕವ
ಫೕಚರ
59
bl
le
ಅವನನು
ಅಲಯ
ಧು
ಭೕತ
ರನನು
ಹಂಜ
##up
##ಧೕನ
ಸಪೂೕರಟ
ಸಲಲಸದದ
ವಾಹನಗಳನನು
ಯೂೕಜನಗಳು
ಮದುವಯ
ಮಧುಮೕ
ಈಶಾನಯ
ತೃತೕಯ
ಉಳತಾಯ
ಅಂಬರ
ಗಯಾರ
##ವಧಾನ
##ನಗಳನನು
##ಾರೂೕಪ
ಮಾಡಬೕಕ
##ಕರೂ
ಆಗಲದ
ಕಾಲನ
ನೂೕಡಬಹುದು
ಪಡದದದ
##ೂಳಗನ
##ೂಲಕರ
ಸಕರೕನ
ಆಶರಯದಲಲ
ಎಸಟೕಟ
ಕರನಾಟಕಕಕ
800
fl
ಉಂಡ
ಎಂತಹ
ಟಲಕ
ಸಕೂಲ
##ವಜಞಾನ
##ಕಟರ
##ಬಾಳ
##ಹಳಳಯ
##ಗೂಮಮ
ನೕಡುತತದದಾರ
##ಪರಕಾಶ
##ದದರಂತ
ತುಳಸ
ಮೕಸಲು
ಕಾಣಸುತತದ
ವಚಾರಗಳನನು
ಮನಸಥ
ಟೕಬಲ
ವೕದಕಯಲಲ
ಗಟಟಯಾಗ
ಇನಸಟಟ
ಬಳಕದಾರರ
ಯೂನವರಸಟ
ಬಯಾಪಟಸಮ
ನೕಪಾಳ
bhar
ಚಹ
##ರಫ
##ಾಮರ
ಹೂಂದವ
ಹಸು
##ೂಬಬರ
ಬೕಳುವ
ತಂತರಜಞಾನದ
ಪರಪೂರಣ
ರಾಜಕಾರಣಗಳು
ಅವಶಯಕ
78
hy
ಲಂಚ
##ಲೕಲ
##wam
##ಯಾಧಕಾರ
ಸರವಾ
##ಾಕು
ಹಚಚಸುವ
##ಟಕಸ
ಅಲಲಯೕ
ಸೂೕನಯಾ
ತಂಡೂಲಕರ
ರಸತಗ
##ಾಭಪರಾಯ
ನನಪಾಗ
ಮಳಯಂದ
ಪರಶಸತಯನನು
ನಯಮತವಾಗ
ಐಫೂೕನ
ಮಾಗ
ಸಐ
ಹಲಕ
##ವಂತರ
##ವಚನ
##ಾಫ
##ದಸ
##ಭವದ
##ಾಲಕಕ
ಹೂಸದ
ರಾಜೕಂದರ
ವಯರಥ
ಬರಬೕಕು
ಅಧಕಾರಗಳನನು
ಸಲಂಗ
ದಾಳಗ
ನಮತತ
ನಮಷದಲಲ
ಮನಸಸನನು
ಪುರಾತನ
ಡರೖ
ಸರಸವತ
ಸನಾತಕ
ಸುಚೕತಾ
ಯಾಗ
##ತಪಪ
##ಳಗೂಂಡ
ಸಂಚು
ಕಲವಡ
ಕುಕ
ಚತರಕಥ
ದನವೂ
ಹೂರಗಡ
ಮಾಹತಗಳನನು
ಮಸೕಜ
##ೂೕದಕಕ
ಆಚರಸಲಾಗುತತದ
ಹಂಸಾಚಾರ
ಪತರಕಾಗೂೕಷಠಯಲಲ
vijay
home
ಪಯುಸ
ಹಾಟ
##ಾಥ
##ಗಳಂದು
ಸಮರಸ
ನೕಡುತತವ
ಹುಚಚು
ಭಾಗವಾಗ
ರೂಪಸ
ಬೕರಯವರ
ಮುಗಯ
ಇಷಟೂಂದು
ಸುಂದರವಾದ
ದಾಖಲಸಲಾಗದ
ನಯಾಯಾಲಯಕಕ
ಕುಡದು
ಸವಾಗತಸದರು
ಇಷಟೕ
ನಟಟು
ಪಶು
ಭತತ
ವಡಯೂ
##ket
##ಹಚಚ
##ಾರರು
ಸಂಬ
##ವಾಡದ
ಕಾರಯಗಳನನು
ಬಲವಂತ
##ಟುಕ
##ಗಾರರಗ
ಬುಡ
ಕೂೕಮು
ಬಯಾಂಕಂಗ
ಇನನಂಗಸ
ಪಕಕಾ
ವಯಕತಪಡಸದ
pl
ಲಂಡ
ಸಕಾರಾತಮಕ
##ನಾರಾಯಣ
ಪರದಾನ
ಪರಹರಸ
##ುವವರು
ಮಾಡಬಾರದು
##ನಯನ
ಮಹಾಕ
ಮಹಾಭ
ಮನಗಳಲಲ
##ುತತದದಾನ
ನಗಾ
30ಕಕ
ಡಸಪ
ಸಂಚಲನ
ದನದಂದು
ಆಯಾಮ
ಉಜ
೩೦
##ಯಾವಳ
ಸರದಾರ
ಆರೖಕ
ದೕಣಗ
ಅಸಪ
ಮತಗಳನನು
ಬುದದ
##ಯನಗರ
ಹಾಡನ
ಭವನದಲಲ
ದರಾವಡ
ಆದುದರಂದ
ಇರಾ
ಮಲನ
ಹಯಾರ
##ಲಂ
##wood
##ಯಾಕಾಶ
##ಂಟನ
ಹೕಳುವುದಾದರ
ಶರೕನಾಥ
ತಳದದ
ಸಲಂಡರ
ಸಾಲಗ
ಇರೂೕ
ಕಣಣನ
##ೂೕದಯೂೕಗ
ಇಳದು
ನಕರರು
ಭನನಾಭಪರಾಯ
ಪರಣಾಮಕಾರಯಾಗ
ಆಶೕರವಾದ
ರೖಲವೕ
ದಢೕರ
ಡವೖ
ಶಾರು
##ek
##ಷಲ
##ಘಾನ
ನಡು
ಬಂದಂತ
ನಟವರಕ
ಪತರದಲಲ
ಮುಗಧ
ಹಂತಕಕ
ಪರಶನಗಳಗ
ಮಸಾಲ
ಫಾರಮ
ವೕಕಷಸ
ಇನನೂಂದಡ
kumar
ತನಸ
ಪಂಕ
ಮಾಡು
ಸಹಸರ
ನನನಲಲ
ತುಟ
ಬೕರುತತದ
ಅಧಕಾರದ
ದುಡಡ
##ೖಟಡ
ಕೃಷಣನ
ಅಶವನ
ಭೂಮಯನನು
##ಪಾಠ
##ಹಾಸದ
ಕೂಂಡೂಯಯ
ಗಡಡ
ಗೂೕರ
ತಲಲ
##cr
##ug
##ಕೂಂಡೕ
ರಾಜನ
ಮಹಾಲ
##ರುತತದದ
##ರುತತರುವ
ಅರತ
##ans
##ೂೕಷನ
ನಾಯಕನ
ವಾಸು
##ರಾಜಪೕಟ
##ೕನಾದರೂ
ಸಹಾಯದಂದ
ಟೕಸರ
ಡರೖವ
ಬಾಟಲ
84
ಚಹಾ
##ವಸತ
##ಸೕ
##ಾಸಕತ
ಬರಮಂಗ
##ಂಜಾ
ಕಯಾಮರ
ತಯಾರಸುವ
ಕೖಗೂಳಳಬೕಕು
ಖುಷಯ
ನರಧಾರಕಕ
ಉಳದಂತ
ಸೕತಾರಾಮ
ನಮಮಲಲರ
##ook
ಹುಟಟುಹಾಕ
ಅತಥಗಳಾಗ
ವೖಶಷಟಯ
ವಯಾಸಂಗ
ಅನೕ
ಇಳದ
ಜಾಯ
ದವಸ
ಯೂರ
ರೕಟ
ಲಯಾಪ
ಹದಗ
##ುವರು
##ನಾದಯಂತ
ಕುದು
##ಗೂಂಡದದ
ಬಡತ
ಸೕನಯ
ಚನನಾಭರಣ
ಸಕಕಲಲ
ಅಧವೕಶನ
ಒಬಬರ
ಭಾಷಯನನು
250
ನರೕಕಷತ
ಲಾಂಚ
ಶವರಾಮ
ಆಡಳತಾ
ಘರ
ಟನಸ
##ಗೕರ
##ನಗಳ
##ಭಟ
ಪರಾಬ
ಆಗನ
ಕಾರಯಕಕ
ಕಾರಣವಾಗುತತದ
##ಲಪತ
##ಎಸಪ
ಫಲೂರ
ಉದದದ
ಸುತತನ
ಭಾರತೕಯರು
ಒಪಪಕೂಳಳ
ಟರೖಲರ
ರಕಷಣಗ
ಮಂಜೂರ
ತನಖಾ
ಕಟಟುನ
ಚೖತನಯ
##ack
ಕಾಸರಗೂೕಡು
ಒ೦ದು
ವಠ
##ಡತ
##ಭಾಗದ
##ಯಾಳು
ನರೂೕಧಕ
ಅದಷಟು
ಜಲಲಗಳ
ದೕಶಗಳು
ಎಂಬುದೕ
ಪರದೕಶಕಕ
##ಪುಟಟ
ಕಲಪಸುವ
ಉಗರರ
ದೕವೕಗಡರು
ಸಾಬೕತ
ಶೂನಯ
ಬಂಗಳೂರನಂದ
ರಸರವ
ಗಗನ
##ಾಂಧ
##ಮೂರ
##ಮಟಟದ
##ere
##ಔಟ
##ಗಳಲಲೕ
ಎಲಲೂೕ
ದರೂೕಡ
##aluru
ಇದದಕಕ
ಇಂಡೂೕ
ನಜವಾಗಯೂ
ಟರಂಡ
ಆಶರಮ
##ೕಕರಣದ
ಸೖನಯ
ಖಂಡತವಾಗ
ಬೖಂದೂರು
ಪರತಯೕಕವಾಗ
ನಪದಲಲ
ಆತಮವಶವಾಸ
ಜಾಸ
ವಪರ
ಹಂ
ಮಾಡರುವುದು
ಮಾಡುವುದನನು
ಆರಬಐ
##ಸುತತದದೕನ
##ಚಾರಕ
ಚನನಾಗದ
ಇರಾನ
ಮಧಯಪರದೕಶ
ಬಾಲಯ
ವರಗಗಳ
##ಬಹುದತತು
ಹಸರಲಲ
ರಮಯಾ
ಗುರುತಸಲಾಗದ
ಮುಂತಾದವು
ಹಗಲು
ಶೕರಷಕ
##aja
ಬಾಹಯಾಕಾಶ
ಸಾವಗೕಡ
ಸೂಸೖಟ
ಕಸರತತು
ಪರತನತಯ
ಮತತೂಂದಡ
ಪೖಸ
ಭವಯ
ಶಹ
ಸದರ
##ಶಟಟ
##ಡಂಗ
##ಡಂಟ
##ಗೂಡಸ
ಆಗಲಲಲ
ನಂತರದಲಲ
ಒಪಪಕೂಂಡ
ಮನಯಲಲೕ
ವಮಾನದಲಲ
##ಬಡುತತದ
ಕೃತಜಞ
ಇಪಪತತ
ಆದಾಗಯೂ
ಅನಾಹುತ
ತಲನ
ಥರ
##ಡೂ
##ಗಳಂದರ
##ಟಟದದ
##ಗಳಲಲರುವ
ಹುಲಲು
ಭಾರತವನನು
ಅದಷಟೂೕ
ತರದು
ಶರೕನಗರ
ಉತತಮವಾಗ
ಸಲಲಕ
ಹಸರುವಾಸ
ಅನುಭವವನನು
ತಂಗಳನಲಲ
ವರದಯಲಲ
ಮಾನದಂಡ
ಬದಯಲಲ
ಮಾಡಕೂಂಡರುವ
ಶಟಟರ
ನೖತಕ
ಸಮರಪಕವಾಗ
69
ಒಂದರಲಲ
ನನನು
ಲನಕಸ
ಕೖಜೂೕಡ
##ಕಕೂಮಮ
ಬಯಾಕ
ರೕಣು
##ರಾಗದದ
ತಪಪಸಲು
ಹಾದು
ಆಡಳತದ
ದುರದ
ಪರಷತತನ
ರಕಷಾ
ಬರಾಂಡ
ಶತಮಾನದಲಲ
ಇನಸಪಕಟರ
ಪರಾರಥನ
ಪರಾಮಾಣಕ
ಯುನೖಟಡ
ಅಧಸೂಚನ
ದೕವಾಡಗ
ಕಾರಯಾಗಾರ
act
min
ಇಬ
ಕಂತ
ಗತ
ಜೂೕಗ
ಡಬ
ಸರಣಯಲಲ
##ಕತಾ
ಹುರ
ಕೃಪ
ಭಾಗವನನು
ಸಂಪತತು
ಕಳಚ
ನಗಮದ
ಗೂತತದ
ಉದಭವ
ಅಂತರದಂದ
ವದೕಶಾಂಗ
##ಪಪನವರ
ಸನಮಾಗಳಲಲ
ಮಮತಾ
ಆಕರಮಣ
ಮಯಾನೕಜರ
ಸನಾತಕೂೕತತರ
ಕೕಟ
ಮಲಕ
ಶಕ
##ನಂಬ
ಅರಬ
ನಡದವ
ವಯಾಪತಗ
2001
ಚಲಾವಣ
ಮಧುಮೕಹ
ಇನಸಟಟಯೂಟ
ಡೕಲ
ದಬಬ
ನದಗ
ವಘ
##ಥಯದ
##ಧಾಮ
##30
##ವರಲಲಲ
##ಾಯರ
##ಸತನ
##ತನಾಗ
##ದರೂಳಗ
ಪರಶು
ಕಾಣದ
ಆರೂೕಪಗಳ
ಸಥಾನಮಾನ
ಬದುಕಗ
ಅನನಯ
ತಯಾರಸದ
ಕೂಟಟರು
ಗರಾಹಕ
ಅಂಕಗಳ
ಸಲಭಯಗಳನನು
ಸರಳವಾಗ
ಶರೕಕಾಂತ
ಭಾಸಕರ
ಶಸತರಚಕತಸ
##ಲಲದೕ
ಸಂಕಟ
ಕುಶಾಲ
##ಟರನ
ಪರಣಾಳ
ಸಭಗ
ರಸತಗಳ
ಸಪಷಟನ
ರೂೕಗಗಳು
ಲೂೕಕೂೕಪಯೂೕಗ
ಕೕಸರ
ದೃಷಟಕೂೕನ
ಮುಂಚೂ
ಕಶಲಯ
ಸುತತಮುತತಲನ
elections
74
ಅ೦
ಎಮಮ
ಬರಳು
ಎಂಬುದ
ಅಸವಸಥ
ಮಂಡಲ
ಸುತತಲನ
ಇತಹಾಸದ
ಮೂರನಯ
ನಯಾಯಾಲಯದಲಲ
ಸನಮಾಗಳು
##ಬೕಕಾಗಲಲ
ದಶಕದಲಲ
ಅರಸು
##ಗಟಟಲ
ಟೂರನಯ
delhi
google
kan
ಅಸಲ
ಆಂಜನೕಯ
##ಪೂರತ
ನಡದರ
ಇದೂ
ರಾಜಯೂೕತಸವ
ದೕವಾಲಯದಲಲ
indi
ನಡದದದ
ಭೂಕಂಪ
ತಯಾರಕ
ಕೂಟಟರ
ರಚಸಲು
ತಾಲಲೂಕನಲಲ
ಉತಪನನಗಳನನು
ಪಂದಯಗಳಲಲ
ದೖನಂದನ
ಸಡಗರ
ಸಚವರಾದ
ಒಡಯರ
ಅಭಪರಾಯಪಟಟರು
beng
ಐಷ
ಜಯನಗರ
ಪೖಲ
##ುಂಡ
##ವವ
##ರೕಷನ
##ಲಾಗುತತತತು
ಹೕಳದಂತ
##ಗೂಂಡವ
ಬಾರಯೂ
ವರುದಧವಾಗ
ಕರಮೕಣ
##ಸಕೂಂಡರು
ಮದುವಗ
ಅದಕಕಂತ
ತಂಗಳಗ
##ಾಂವ
ಅಳವಡ
ಪೂೕಷಕಾಂಶ
ತೂರದು
ಟಲಕಾಂ
ಧಾನಯ
ಯತ
##ಶಯದ
##ಹಣಣು
##ಂಡಲ
ಸಂಹತ
ಸಂಸದರ
ಸಾಸ
ಹೂಳಯ
ವರಲಡ
ಎಲಲದ
##ತಾತ
ಕೕಳದಾಗ
ದೕವಯ
ರೕಡಯೂೕ
ಹುಡುಗರು
ಸಮಮುಖ
ಸನೕಹತರಗ
ತಗದುಕೂಳಳುವ
ವಲೕವಾರ
ಕರಡಟ
ಪರೂೕಕಷವಾಗ
ಬುಡಕಟಟು
ಡಎ
ಮೂರನ
##ಮತತ
##ಬಯಾ
ಪರೂೕಟ
ಮೕಲಯೕ
ಬರಲಲಲ
##ಾಪತ
ನಡಯುತತದದು
ಯಾವುದೂ
##ರೂಬಬರು
ಆತಂ
ದುಡಯ
ವೕಣು
ಕಯಾಬ
ಬೕಗನ
ಖಾತಗ
ಸಂಕಷಟಕಕ
ಫಯಾಷನ
ಆಪರೕಷನ
ತಾಜಾ
ಹೂರಹೂಮಮ
ಬಂಬಲಗರು
ಅಳಸ
ತದದ
ವಮಾ
ಹಗಲ
೨೫
##ಶಾನ
##ಏಕ
##ದಲಲದದಾರ
##ಂಬಲ
ಸಹೂೕದಯೂೕಗ
##ಾಪು
ಹೕಗದ
##ಕರಣದ
ಮಂಗಳೂರನಲಲ
ಮನಯನನು
##ವಸಗ
ಕರಾವ
ಆಘಾತಕಾರ
ರಜನಕಾಂತ
as
ಕೕಕ
ಕಡಸ
ದಂದ
ಸಪಪ
##ail
##ವಾಗುತತ
ತು೦
ಅನುಪ
##ಗೂಳಸಬೕಕು
ಮಂದಯನನು
##ಬಾರದ
ನಂತದ
ಮಾಧಯಮದ
##editor
ಆಧಾರದಲಲ
ದೕವಸಥಾನಕಕ
ಬಚಚನ
ಹೂರಡಸದ
ಗರೕನ
ಪೕಡತ
ಅಸಸಾಂ
ಯುಪಎ
ಠೕವಣ
ಛಾಯಾಗರಹಣ
distric
ತೖ
ಪಂಗಡ
ಭೂೕಜನ
##ಗಾಮ
##ಶಪ
##ಟಜ
ಮಾಡದೕ
ಸರಪಡಸ
ಇಲಲೕ
ಇದಾದ
ಅನುಮೂೕ
ಮೖಲ
ದೂರನ
ಬಡವರ
ಸಲಲಸುವ
ಮಟಟಲ
ವನಾಯಕ
ಡಸೖನ
ದೕಹವನನು
ತರುಗೕಟು
ಗುಂಪನ
ವವಾದಕಕ
ಪರಾಯೂೕಗ
76
raj
ಚೂೕಪರಾ
ಟರೕ
ಬಲದ
##ರಹ
##ಲಾಯ
##ಡವ
##ಫೕಲಡ
##ie
##ಗೂಡು
ವರಗೂ
ಎಲಲೂ
##ೂೕರವ
##ಎಸಸ
ಯುವಕನೂಬಬ
ನಡುವಣ
ಸಾಕಷಯ
ಬಡುಗಡಯಾದ
ಯೂೕಜನಯಲಲ
ಹಬಬಾಳ
ನಾಯಡು
ಉಪಯೂೕಗಸ
off
ಹಂಬಾಲ
ಪರಾಧಕಾರದ
ಮುನಸೂ
ನರುದಯೂೕಗ
71
ad
ಅವಾ
ಕತತರ
ಮಣಸ
ಸಎ
ಸೕಟು
##ky
##of
##ಸತೂಡಗ
ಅವತಾರ
ನಲಲರುವ
ಅಪಹರಸ
ಸಾಧಯತಯದ
ವರುಣ
ಮರಗಳನನು
ಶಾಲಗಳಗ
ಬಹುದೂಡಡ
ವೕಳಯಲಲ
ಬಳಸುವುದು
ಸಕಕಾಪಟಟ
ಮಟಟಲು
ಕಥಯನನು
ಮಸೕದ
ಪತತಯಾಗದ
##ell
ದೂರಯುತತದ
ಬಲಯನ
ಕಜಎಫ
ನಹರೂ
##ಲಪಡುತತದ
ಐಷಾರಾಮ
ಅನುಮೂೕದನ
ಟ20
ಡಬಲ
ಪೃ
ಬಸಟ
ಲೂೕಪ
ಹಮಾ
ಹರಮ
##ವಶಯ
##ಸನಲಲ
##ತರಯ
ಕಾರಂತ
ಕುಕಕ
##ಸಥರು
ಅರಹತ
ರೂಂ
ಹೂೕಗುತತಾರ
ಹಾಕದದ
ಮುಖಾಮುಖ
ರಸತಗಳು
ಅನುಭವಸದ
ರಾತರಯ
ಉದದೕಶಸ
ಕನಷಟ
ಹಾಡನನು
ಲೂೕಕೕಶ
ಹೃದಯಾ
ಹಾಡುಗಳು
##ುತತದದಂತಯೕ
ಏಕಾಏಕ
77
##ಹೕಳ
##ge
##ೕಳು
ಕಲೕನ
ಮನದಲಲ
ಸವಾರಥ
ತರಹದ
##ದಂತಾಗದ
ಶುಂಠ
ಕಳಗಳ
ಹರಯದ
ರಾಷಟರಗಳ
ಅಪಪನ
ತೂೕಟಗಾರಕಾ
ವಷಣುವರ
ಕುಲಕರಣ
ಪಯಣ
##ವೂಂದಕಕ
movie
##dy
##ೂೕವ
##ಕಕೕರ
##ಕೂಳತ
ಸಮಾಧ
##ಯಾಗಲು
ಬರದದ
##ರುತತೕವ
##ಸಯೕ
res
ಹಾಕದರ
ಪತರವನನು
ಸಮಾಜಕಕ
ಭಾಷಗಳಲಲ
##itical
ಆಹಾರವನನು
ದೕವಾಲಯಕಕ
ರಶಮಕಾ
68
ಉಲ
ಎಂಡ
ಜೂೕಶ
ತರಾಟ
ರಲಯನಸ
ವಂಗ
##ಳಸದ
##hm
##ಾರಡಡ
ತುಣು
ಬೕರು
ಮರಗಳ
ವಶವೕಶವರ
ಪರಕರಣಗಳಲಲ
ಗಣಕ
ಸಂಖಯಯನನು
ತರಗತಯ
ಅರಜಯನನು
ಅಷಟೂಂದು
##ುವುದರೂಂದಗ
ಉಳದಲಲ
ನಗದಪಡಸ
photo
ಸೂಚಯಂಕ
ಕಾಗದ
ನಗೂ
ಪೕರ
##ಾಲಜ
##ವಾಗದದರ
ಮಾಡಬೕಕಂದು
ಕಲತು
ಸುಂಕ
ಕರಮನ
ಕುಸದದ
ಮಹಣ
ಬಂದತು
ಹುಳ
ಕಾಲಟಟ
ಬಲಷಠ
##ತಯಲಲದ
ಕಂಡರ
##ೂೕಲಟ
ಬರದರುವ
ಸುರಕಷತವಾಗ
ಮಡಕಲ
ಸುವಯವಸಥ
ಅಲಪಸಂಖಯಾತರ
ಪರಾಕೃತಕ
ಆದತಯನಾಥ
ತಲನೂೕ
67
ಇಮ
ಸಬಸ
ಹಡಯಲು
##2ರಲಲ
##ಾರನ
ಕಲಕಕ
ಕಾರತಕ
ನೕಡಲಾಗತತು
ಆಗಬಹುದು
ಅಧಯಕಷತಯಲಲ
ಗರಾಮೕ
ಇರಲು
ಕೂೕಲಕ
ಅಂಗವ
ಹಂತರುಗ
ಹುಡುಕಕೂ
ನರಧಾರವನನು
ವೕಗದಲಲ
ಘೂೕಷಸದ
ಅಪರಚತ
ಬುದಧವಂತ
ಚಾಮುಂಡೕಶವರ
ಬಯಾಡಮಂಟನ
ಬರಮಂಗಹ
3ನೕ
ಆವರಣ
ಎಬ
ಡಯಾನಸ
ಹಕಟೕರ
##8ರಲಲ
##ಾರಧ
##ದಲಲಯೂ
##ಕರಷಣ
ನೕಗ
##ರೕಷ
ಸರವೂೕ
ಮನಗಳು
ಅಪೂರವ
ಸೂೕಲನ
ತಂಡಗಳ
ವಧಾನಪರ
ಅತಯು
##ಸದದೕವ
ಮಾರಗದರಶ
ಅಂಶಗಳ
ಬಾಗಲ
ಸಥಾಪಸ
ಸಾಧಯತಗಳವ
ಏರಕಯಾಗದ
##ಬೕಕಾಗತತು
ನಾಲಕೖದು
ಏರಪಡಸದದ
tamu
bengaluru
tw
ಉಮಾ
ಥಯೕ
ಬಟನ
ವಾಟ
ಹೕನ
ಹಾಗಲಲ
ಆಗರುತತದ
ಕಾರಣಗಳಂದ
##ಗೂಂಡದದಾರ
ದೕಸಾಯ
ಸದಾನಂದ
##ಗುಂದ
ನಮಗಲಲ
ಒತತುವರ
ಸಪರಧಯ
ವನೂೕದ
ಸಮಮತ
ರವವಾರ
ಶಶಕಲಾ
ಇಸರೕಲ
ಮಧಯಾಹನದ
ವಾಲಮೕಕ
ತನನುತತ
ಬೕಸಗಯಲಲ
ಕಸಟ
ಕಟುಂಬ
ಕಂಚನ
ಪನಾಂಗ
ಭೖರ
ಮತಯ
##ೂೕನಯ
##ಗಳಲಲಾ
ಕಾಲುವ
##ಟನಂದ
ಕೖಲ
ಪರಶಂಸ
ಪಕಷದಂದ
ನಾಯಕನಾಗ
ಪಡಯುವುದು
ವವಧಡ
ಸಂತಾನ
##ಗೂಳಸದರು
ರಾಷಟರದ
ಕಾರುಗಳು
ಕನಸನ
ಕಂಡುಬರುತತದ
ಅಹಮದಾಬಾದ
ನಮಸಕಾರ
ಟೖಟಲ
ತತತರಸ
ಗರಾಮೕಣಾ
june
ದವಯ
ಭೕಮ
ಯಂದ
ಹಡಯುವ
##per
##ಾರಡ
ಮಾಡದಂತ
ನೕಣು
##ಯಾಗಬೕಕು
##ವೕಗ
##ಾಪಟರ
ತರಳದ
ದುರಸತ
ಸೕಸನ
ಮುಖದಲಲ
ಕಾಲೕಜಗ
ಪತರಕೂೕದಯಮ
ಉಳದದ
ಹುದದಗಳಗ
ಬಜಪಯವರು
ವಾಸತವವಾಗ
ಸೃಜನ
ಕರಯಾಶೕಲ
62
ಏರಸ
ಜಂಕ
ಟಯಾಗ
ದವಾ
ಮೕನ
ಷಾ
##ತಮಯ
##ನವ
##ಕಾರಕ
ಸುಸ
ಇಲಲವೂೕ
ವದಯು
ಕೕಳಲು
ಪದಗಳನನು
ಹಾಂಗ
ಭಾವಸ
ಮಾಡದದೕವ
ಮಂಜೂರು
ಸಾಮರಥಯದ
ಮಧುರ
##ವಶಾತ
ಮಳಯಂದಾಗ
ಅಮೕರಕಾ
ನಶಚತಾರಥ
ಅಗಗದ
ನಗೂಢ
63
ಚಟಟ
ಡರಸ
ತಾಲ
ನದರಶನ
ರಯಾಂಕ
ಲೕಟ
ಮಾಡಬೕಡ
##ಬೕಕೕ
##ಾಕಸ
ಮಹಮಮದ
##ಕಾಂಗ
ಸಹಭಾಗ
ದನವನನು
ಮನವರಕ
##ಾಟದ
ಮೕಷ
##ಗಳಂದಲೂ
##enn
ವನಂತ
ಕೂರತಯಂದ
ಬದಲಾಗುತತದ
ಕುಳತದದ
ಭಗವಾನ
ಕಬಬಣದ
ಗಾರಡನ
##ಮೂೕಹನ
ಎಲಕಟರಾನಕ
district
85
ಪತಯ
ಮರಸ
ಯೂಟ
ಲೕಪ
ಶವೕ
##ಗೕತ
##ಪಕಕ
##ಸಕಕ
ಸುಮ
ಕರಶಚ
##ಸತಾರ
ಅಪಲ
ಪರೕತಯಂದ
ವಷಯಕಕ
##ಾಂತಕ
ಸಕಕತು
ಬಯಾಂಕು
ಉತಪತತ
ಆಯಕಯಾಗದದಾರ
ಪಾರವತ
ಹಲವಡ
ಠಾಣಯ
ಚಂದರನ
ನರಮಸಲಾಗದ
ಸಂವಧಾನದ
ವೕದಕಯ
##wamy
94
##ಗತಯ
##iz
ಕೕಂದರಗಳಲಲ
ದೂರದರು
ಸದೃ
##ಯಾನಕ
ಇರುವಂತ
ನರವನಂದ
ರಾಮಾಯಣ
ಬಯಕ
ಮಾರುಕಟಟಯ
ರೂೕಚಕ
ಜೂೕಡಸ
##ಕಾಲೕನ
ಅಮಾನತು
ವೖಫಲಯ
ವಷಣುವರಧನ
ಇರುವಾಗ
ಭಜ
ರಗ
ವಡ
ಮಾಡೂೕದು
ಸಮಫೖನ
##ಪರಣ
ಬರಬಹುದು
##ರುತತೕನ
ಅಭವಯಕತ
##ನನೂಂದು
##ara
ಮಧಯರಾತರ
ಸದಧರಾಮಯಯ
ಪಾರದರಶ
ನೂೕಟುಗಳನನು
ಪೂೕಲೕಸ
ರಕತದ
ಶಸತರಾಸತರ
ಎಣ
ಡಸಕ
ಶಾಹ
##nd
##ಭಮಾನ
##ರಾಸ
ಮೂಡದ
ಬಳತ
ಬಳವಣಗಗ
##ಪರಯ
##ರಗಾಗ
ಇದನನೕ
##ಂಪುರ
ಮನವೂ
ಅತದೂಡಡ
ಸೕವಗಳನನು
ಮಧಯಪರದೕಶದ
ಗೂತತಾಗದ
ಜಾಗತ
ಅವುಗಳಗ
ಪುಸತಕದ
ಕೖಗೂಳಳುವ
that
ಬಾಯಗ
ನವಾಸದಲಲ
ಶರೕರಂಗ
ಮಳಗಾಲ
ಶಶು
ಸಮಮೕಳನದ
ಪೕಟರಸ
ಮುರಳ
ಸುಳವು
ಪರಾಜಕಟ
bo
ನಲು
ವೕಕ
ಸತನ
##ೕಹ
##3ರಲಲ
ಮೂಳಕ
ಕೂಲಗ
##ಚಚಲ
ನೕಡಲದದಾರ
ಕಾರಯಪಾಲಕ
##ಸಯಂದ
##ಾಮನ
ಅಪಾರಟ
ಸಂಬಂಧವನನು
ದೂಡಡದಾಗ
ಮುಖಂಡರ
ಮುಖರಜ
##ೂಬಬಳು
ಅವುಗಳು
ಸಪರಧಸ
ಮಾರಾಟಕಕ
ತೂೕರಸುವ
ಪರಸರದ
ಒಡದು
ವಸಾಹ
ದಕಕನಲಲ
ಜೖಲಗ
ಐಎಎಸ
ಅನಾಥ
ತಂಪ
##ಜೂ
##ಗಳರುತತವ
##ವರಧನ
##ೂರಟ
ನೕಡಲಾಯತು
ಸಥಾಯ
ದನಗಳನನು
ಮುಂದಕಕ
ಕೕಳು
ಆಸಾ
ಸಪೂೕಟ
ಸಾಗುವ
ಧರಮಸಥಳ
ಪರಯಾಣಕರಗ
##ಸುತತದದೕವ
ಸಹಜವಾಗಯೕ
ಹೕಗರ
##ಚಂದರನ
may
ಎಬಬ
##ಷಯಾದ
##ತತನನು
ಸಾಥ
ಸುನಲ
ಕರಮಕ
ಕಾಂಡ
ನೕಡುವುದಲಲ
ಹೕಳಕೂಂಡದದಾರ
##ಟಟುಕೂಳಳ
ಮನಗಳಗ
ಪರತಭಾವ
ಉಪಗರಹ
ಬಜಪಯಂದ
ಬಳಕಯ
ಆಡದ
ಕಥಯ
ತಾಯಗ
ನಯೂಜಲ
##ರಲಂಡ
ಚಾಚ
ಇಪಪತತು
ನೖಟ
ಹಟಟು
##ಪಾಟ
##ಗಳನನಲಲ
##ದುರು
ಕಾಪ
ಬರಲ
ನಡುವಯೕ
ಮುಖಯಮಂತರಗಳು
ಘಟನಯಲಲ
ಅಂಗಡಯ
ತೂೕಟದ
##ಪಾಂಡ
ಕಾಮಡ
ಶೕಘರದಲಲೕ
ಕೂೕಟಯಂತರ
##ಮುಖಯಮಂತರ
govern
ಗುಲಾಬ
ಅಂಬರೕಶ
kanaja
61
ಛಾ
ದಗಗ
ಶಂ
ಹೖಸ
##ರಷಟ
##ನಂದು
##22
##ೂರಯ
##ಯಾಗಲ
##ರುತತತತು
ಸಂಸಥಯಲಲ
ಯುವರಾಜ
ಇನನುಳದ
ಮದುವಯಾದ
##ಮಾಡುವ
ಪರಶಸತಗ
ಪರಸಥತಯನನು
ಆರಥಕವಾಗ
ಮಲಲಗ
ಸಳಯಲು
ಮೂೕದಯವರ
ಹೃದಯಾಘಾತ
ಇನನಲಲ
ಸಟು
##ಂತತತು
##ಟನಲಲ
##ಗಳರುವ
ಜನಸದ
ಅವಘಡ
ತಳದಲಲ
ಸಲಬರಟ
ಸಟೕ
ವಷಯಗಳು
ಸೕವಗ
ಮುಗದು
##ಸಕೂಂಡದ
ವಜಯನಗರ
ವರದಯಾಗದ
ಸೂಚಸದದಾರ
ಸಂಗೕತದ
ರಾಯಭಾರ
ಉಡುಪು
ಕಷಣದಲಲ
ಅನುಕೂಲಕರ
ಅಬಕಾರ
ಕಾಣಸಕೂಂಡದದಾರ
ತಾಪಮಾನ
ಪಾಲುದಾರ
ಶರಾವಣ
ಕಯಾಪಟನ
ಒಂಬತತು
ಅತರ
ಉದಧ
ಎಡಗ
ಛತತ
ದೂೕ
ವದಂತ
ವಹಾರ
##ಾರರ
##ಾಗೃಹ
ಬಳಸುತತಾರ
ಸುಷ
ನರವಾಗುತತದ
##ಡುಬದರ
ಬರದದದ
ಹೂೕಗುವಾಗ
##ಾಹಾರ
ಶರೕಣಯ
ಸಂಸಥಗ
##ಬರಹ
ಯುವಕನ
ಕರಮವನನು
ಹರಯುವ
ಮಧಯದಲಲ
ಅವಕಾಶವದ
ಬಂಧತ
ಜಯಗಳ
ಇವುಗಳು
೧೯೭
ತೂೕರದ
ಸವಾಗತಸ
ಹೂಣಗಾರಕ
ಅಸತತವಕಕ
ಅಯಯೂೕ
ಏಜನಸ
ದರಾಕಷ
ಏರುಪ
ಪಬಲಕ
ಭಟಕ
ಸಫಲ
ನೕಡಬೕಕಂದು
##ಕೂಂಡತು
ವರಳ
ಇಲಲಂದ
ಅವಭ
##ಸುತತದದರ
ನೂೕಡುತತಾ
ಹೂರಬರ
ಕಲಸಗಳು
ಅಧಯಕಷರ
ದುಷಟ
ಆರೂೕಪಸ
ನರಮಾಣವಾಗದ
ಹಾರದಕ
ಅಂಕಣ
ಎಫಐ
ತರುಣ
ನುಡದರು
ವರಷಠಾಧಕಾರ
ಚಾಲಂಜಂಗ
ಮಹಾತಮ
ಟಎಂಸ
ಪದರ
##ಕಂಡ
##ಕೕಶ
##ee
##ಡೕಟ
##ತತನಲಲ
##ತರಾಗದದಾರ
ನಡಗ
ಕರೂರ
ಪುಷಪ
ಪರತೕಕ
ಆಯದ
ಆಯುರ
ಸಪಐ
ಮುಖಕಕ
ಸಾಧಸಲು
ಗುರುತನ
ಮಂಡನ
ಜನರಂದ
ನಾಗೕಶ
ಅಭಯರಥಗಳಗ
ನುಂಗ
ಆದೕಶವನನು
ಗರಾಹಕರನನು
ತರುವನಂತ
ತಜಞರ
ಮದಯದ
ಮೂೕದಯವರು
82
ನಂಜನ
ಫೂೕರ
ಬಯೂಟ
ಮಯಾಗ
ಲೕಡ
##ಡೕ
##ವಾಗರುವುದು
ಮಾಡವ
##ಕೂಟಟು
##ವಾದದರಂದ
##ೂರನಂದ
ರಾಕಟ
ಸರಯ
##ಯಾಗುವುದು
ದನವೕ
ಬಲಯನನು
ತಳದರ
ಹರದ
ಹಬಬಕಕ
ಮಾಡಕೂಳಳಬೕಕು
ಸಂಜೕವ
ಕೖಗೂಳಳಲಾಗುವುದು
##ಂಪರಕ
top
chand
ಸಮಾವೕಶದಲಲ
ಸುಧಾಕರ
ನರಮಾಪಕರು
ಕರೖಸತ
ಡಾಕಟರ
november
ಸಇಒ
ಕಟುಂಬಕ
ಟರೕಲ
##ವದದರೂ
##ಾಕಷಣ
##ಪೕಡ
ಪರಖಯಾತ
ಬಂದವು
ಸೕರಸಲು
ಸಂಬಂಧಸ
ಇಂಡೕಸ
ಜಗದ
ಚಾಲಕನ
ಕೂರಯಾ
ಖುದದು
ಹಮಮಕೂಂಡದದ
ಇತಹಾಸದಲಲ
ಹಾಡುಗಳನನು
ಸತತವಾಗ
ಕಟೕಲು
ಸಖತ
ಗಾರಡನಸ
up
ಅಂಜ
ಮತಾ
##ಗಂಟ
##ತಾಯ
##ಾಕಾರ
##ೂಂದರ
##೦ಡು
##ನನಸ
##ೂೕಲಯ
ಮುದು
ಅವರವರ
ಮೕಲವ
ಸವಚಚ
ಕಷೕತರವನನು
ಸದಸಯರಗ
ಮೂಲಗಳ
ಮೂಲಯಲಲ
ಸಾವನನಪಪರುವ
ಇವಲಲವೂ
ಸನೕಹತರೂಂದಗ
ಮುಹೂರತ
ಕಾಮಂಟಗಳು
ತಮಾಷ
ಅಂಗವಕಲ
86
ಗಣಯರು
ಯಾನ
ಲಯೂೕ
ಸಾಗುತತದ
##ಥಾ
##ಖಾ
##ಗೂರು
ಸಹಾರದ
ತಳದುಕೂಂಡ
ಸಲಕರಣ
ಸಂಬಂಧತ
ಸಂಸಥಗಳಗ
ನಗರಾ
ಹಬಬವನನು
ಸೖಬರ
ಇಲಾಖಯು
ಬಾಂಧವಯ
gall
ಚಂಡು
ಜಂಬ
ಟಯಾಂಕ
ಬಣ
ಬಂತ
ವೂೕಟ
##ವರಾಗ
ಮಾಡಕೂಟಟ
ಮುರಯ
ನಡದುಕೂಂಡು
ಮಹತವಾ
ಕೂಡುತತದ
ಎಂದಾಗ
ಉಪವ
ಅತಂತರ
ಸುದದಗಳು
ಭೂಮಗ
##ಸಕೂಳಳಬೕಕು
ಗಾಢ
ಕಚೕರಯ
ಕೖಗೂಳಳಲಾಗದ
ಯಾಕೂೕ
ಕಾಶಮೕರದಲಲ
ಕಬಬನ
ಖಾತಯಲಲ
##artha
ಫಲೂರೖಡ
ನಲಯಲಲ
##9ರಲಲ
##ದದೂಂದು
##ತರಾ
##ಾದಂತ
ಮಹಳಗ
##ಲಪಾಡ
ಅಧಕಾರಯೂಬಬರು
ಗೂಂಡ
ಗಳಕ
ವಯಾಪಕವಾಗ
##ಸಕೂಳಳಬಹುದು
ಶೕರು
ಭಾರತೕಯರ
ಲೂೕಹ
ಆಹಾರದ
ಮುನನಚಚ
ಹಾಸಟಲ
ಆಮಷ
ಚಟುವಟಕಗಳು
ಸಮುದರದ
ಕಶೂೕರ
ಮಟರೂ
ಪರಗತಪರ
ಸಂಟರಲ
ಸವಲತತು
day
ed
ಇತಯ
ಕಡು
ಕೕಜ
ಗವರ
ತಲದ
ಶಮ
ಸವರಣ
##ಂವಚ
##ue
##ಷಕಾರ
##ಯಾಚ
ಸುಸತ
ಆಗಮನ
ಹಚಚಸ
ಹೕಗೕ
##ಾಜಯ
ದೕವರನನು
ಹೂಂದರುತತದ
ದೂರತದ
ಒಂದಾದ
##ಜುಕ
ಪರಮಾಣವನನು
ಅನನುವುದು
ಇದದಂತ
ಅರಥಪೂರಣ
ಪುಸತಕಗಳು
ಆಮದು
ಗಾಯಗೂಂಡರುವ
ಓದುಗರ
ನಲಸರುವ
ನಾವಲಲರೂ
ತಂಬ
ದೂೕಚ
ಬೂೕಟ
ಮಟ
ಶೕಷ
ಸವರಾಜ
##ತತಮ
##ತತವದ
##ವಾಗುತತರುವ
ಮೂಗು
##ಕೂಳಳಲಾಗದ
##ಯೂಂದರ
ಗುದದ
##ಸರಲಲಲ
ಸಂಗಮ
ದಾಖಲಯ
ಸಗುವುದು
ಆಡಲು
ಬಡುಗಡಯಾಗದ
ಆಯಕಯಾದ
ಬಾಧ
ಅಶಲೕಲ
ಬಾಯಲಲ
ದಶಕದ
ಚಂಡನನು
ರಫತು
ಹೂಂದರಬೕಕು
ಹಲಕಾಪಟರ
ಕವಯ
ಬರುಗ
ಮಾಡೂೕ
ನಮಮೂಂದಗ
ಉತತೕಜ
ಪರೕಮಯ
ಪರೕಕಷಯ
125
ರಸತಗಳಲಲ
ದೕಶದಾದಯಂತ
ಸಮಾಜವಾದ
ಇಂದನಂದ
##ಗಳಾಗದದು
30ರ
ತಂಗಳನಂದ
ಕೖಗೂಳಳಲು
ಸೃಷಟಸದ
ತಾಣಗಳು
ಟಯಾಬಲಟ
ಟೖಪ
ಶೕಘರವೕ
##ರುಪಯೂೕಗ
ಜನಸಾಮಾನ
ವಸರಜನ
ಸಹಯೂೕಗದಲಲ
ಕಎಸಆರಟಸ
vartha
ಅಣು
ಉರಯ
ಮದದು
ಹಟಟ
##ುಪ
##ವಳಳ
##uc
##ಕಾಣ
ಬರದರ
ಸೂಂಟ
ಶುರುವ
ಗರಾಮಗಳ
ಬೕಕಾಗುತತದ
ಎದುರಗ
ಪರಣಮ
ನಾಗೕಂದರ
ಮಂದಯ
ಇತರರ
ರಾಜಕೕಯದಲಲ
18ನೕ
ದಾಖಲಸದ
ಸಂದೕಹ
ಜೖವಕ
ಎಕಸಪರಸ
ಅಕಷರಶಃ
ನರೂಪಸದರು
ಕನನಗೂೕಳ
##dsky
ಪಾನೕಯ
ಷರತತು
boldsky
ಇದದಕಕದದಂತ
ಛತತೕಸ
ಖಾದರ
ನಲವ
ಪಾಡ
##ತದದ
##ಚಣ
##ದದದಲಲ
##ಟಟರು
##ಕೂಂಡತತು
##ಲೕಪ
ವರಷಗಳು
##ವಾದಗಳು
ಉಪಾಯ
ನಂತರವೂ
ಶಾಲಗಳನನು
ಪದಗಳು
ಗಾಬರ
ರಸಾರಟ
ಹಡದುಕೂಂಡು
ಮುಂತಾದವರು
ರೂೕಮಾ
ಪೂೕಷಕರ
ನಾಗರಕರು
##ತೂಡಗತು
##ವಡೕ
ಹಾದಯಲಲ
ಉಲಲಂಘನ
ಕರಮಕೖ
ಇತಯರಥ
ಧಯ
ಲೂೕಟ
##xt
##ದುದು
ಮಾಡಬಹುದಾಗದ
ರಾಜಶೕಖರ
ಜನತಯ
ಅಪೕಕಷ
ದೂರದಲಲರುವ
##ರೂಳಗ
ನೕರನಂದ
ಪರದೕಶಗಳ
ಪರದೕಶಗಳಗ
ವಾರಗಳ
ಯಾರೕ
ಸಗುವುದಲಲ
##ಪುರಂ
ಬಂಧಸಲಾಗದ
ಸಣಣಪುಟಟ
ತಾಲೂಕನಲಲ
ಡಸೕಲ
ಮಸೂದ
##ಭೂಷಣ
ವಚಚದ
ಬಾಲಕೃಷಣ
ದೂರಯುವ
ಜವಾಬದಾರಯನನು
ಶಾಸತರೕಯ
ವಾಟಸಆ
ಪದಮನಾಭ
ಉಸರಾಟ
ಬಯಾನರ
ಚೂಚಚಲ
ಐದನೕ
##appa
##umbai
gallery
jp
mumbai
ಆಜ
ಕಸದ
ಕದದು
ಬಾತ
ಯಲ
ಹಾವಳ
##ಪಂಥ
##ಂಗನ
ಕೂತತ
ಕರೂ
ಮಹಳಳ
ಪೂಜಯ
ಈಗಲೕ
modi
##ೂೕಪಕರಣ
ಎಂದಲಲ
##ಂಜರ
ಮರಯಾದ
ನಟಸದದಾರ
ಸಾಧನಯ
##ದುಕೂಳಳುವ
ಪಾತರದ
ಇದದಲಲ
ಇಲಾಖಗಳ
ಜಾಗವನನು
ರಚನಗ
ಕಮಯು
ನರಮಲ
ಅಮರಕದಲಲ
ಅತಯಾಧುನಕ
ಬಹಾರದ
ಅಮೕರಕ
ಸಯಾಮಸ
vide
ಓಡಸ
ಖಾರ
ಗತಮ
ದಂಧ
ಮರಗ
##ry
##ೃಪತ
##me
##ೂರಾವ
ಸರಕಲ
##ೕಯರು
ರೂಪಸದ
ವಶವದಲಲ
##ಾಲಕೃಷಣ
ನಯೂೕಗ
ಪಾತರಗಳು
ಸುತತು
ಬದಲಾಗದ
##ೂೕಸಕರ
ಅರಜಗಳನನು
ಲಭಯವರುವ
ಚುನಾವಣಾಧಕಾರ
ದಲತರು
##ಸೂಚ
ಬಾಹಯ
ಪರೕರೕಪ
ಚುರುಕು
ರಾಜಯಸಭ
ಶರದಧಾ
assemb
bharati
ವೕಣುಗೂೕಪಾಲ
##ಪರಣಾಮ
kol
ಕಮರ
ಗಾಲ
##ಳಾಗ
##ದದನ
ಮೂಸ
ಸುಬ
ಕೖಬಡ
##ಯುತವಾಗ
ಸಾಲವನನು
ಸಗುತತಲಲ
ಅಗತಯವಾದ
ಪರವಾಸಕಕ
ಸೂಚಸುತತದ
ಪರಷತತು
ಕಾರಯಾಧಯಕಷ
ಸಂದೕಶವನನು
ಮತದಾನದ
2013ರಲಲ
ಉದಘಾಟಸದರು
ಫಲಪಕಾರ
ಮಾಲೕಕರ
are
ಕಂ
ವಪಕಷ
##ಸಲಾಗದದು
##ಕಕಾರ
##ವುಡನ
##ಕೂಟಟದ
##ಲಾಗದು
ಎಂಬವರು
##ಾಪೂರ
ಹೂೕಬಳ
ಕಾಣಸಗ
ಸೕಮ
ನಡದರುವ
ಗಾಜನ
ಗಮನದಲಲ
ರಮಣ
ತನಖಗ
ಅಳವಡಕ
ಕಯಾಂಟೕನ
ಸಕೂಟರ
assembly
it
ಅಂಡರ
ಚಹನ
ಪಒ
ನಡಸಲಾಯತು
ಕರದ
##ಸುವಕ
##ರುತತೕರ
ಹಲಮಟ
ಸೂೕಂಕು
ಜಲಲಾಧಯಕಷ
ಫಲಮ
ನರವಗ
ಬಗಬ
ಜಾರಗೂಳಸ
##ಸತಾನದ
ಪರಾಣಗಳ
ಹಮಮಯ
ಪರತಕರಯಸದ
ದೕವಸಥಾನದಲಲ
೧೯೬
ತಾರತಮಯ
ಜನಪರಯತ
2016ರಲಲ
ಕಂಗಾಲ
##ಭುತವದ
ಸಂರಕಷ
ಜಗಗೕಶ
ಮಲಯಾಳಂ
ಕರಮನಲ
ಚೂರ
ಜಲಸ
ಟಾಲ
ಮಜಾ
ಲು
ಶಲ
##ೕತನ
##ಖಲ
ಪರೖ
##ಂಡಗ
##ವಾಗುತತತತು
ಶರೕಗಳು
ಉಪಮುಖಯಮಂತರ
ತೂಕದ
ಗರಾಮಕಕ
ದುರುಪಯೂೕಗ
ಮೂೕಹ
ಪತರಕಯ
ಕಥಗಳು
ಬಂಧು
ಹಾರೖ
ಸದಯದಲಲೕ
##ಣಾಧಕಾರ
ಇಲಾಖಯಂದ
ಖಂಡತಾ
ಎದುರಸಲು
ನಯಂತರಣಕಕ
ಜಪಂ
from
ಟರೕಲರ
5ನೕ
97
ag
ಓಂ
ತವರು
ಫೕಲಡ
ಲಯಾಂಡ
ವನಾ
ಸದು
##ಗುರ
ನೕವೂ
##ಗರಯ
ಹಚಚಗಳು
ಸೕರಕೂಂಡು
##ವಲಲದೕ
ಕಾಣಲು
ಗೂಡು
ತೂಳ
ಭಾಗಕಕ
ಸಥಳಾಂತರ
##ಹಲಾದ
ಗಳಸುವ
10ನೕ
ಗಣರಾಜಯ
ಯಶವಂತ
ಗಮನಸದ
ಉಂಟಾದ
೧೯೮
ಸಾಧಯವಾಗಲಲ
ಆರಸಸಸ
ತಗಯಲು
ಸನಸಾರ
ಅಕಂಟ
ಉದಯಾನವನ
ಹಲಸನ
ಸಮಮುಖದಲಲ
ಗಡಯ
ಜಂ
ದಯ
##ನಯಲಲ
##ey
##ಾಗವ
##ಂತಾ
ಹೕಳುವಂತ
ಮಹತತರ
ಅರಣ
ಎಂದದದರು
ಪಡದುಕೂಂಡು
ಬಯಾಂಡ
ಬಹುಪಾಲು
ಕಳವಳ
ವೃಷ
ಟರಾನಸ
ಮಣಪಾಲ
dev
sept
ಅಗನಶ
ಸಸಟಮ
ಕೕಶವ
81
ಅಜಯ
ಜವ
ಲಗಗ
##ಬಾವ
##ಸಾಗ
##ೂತನ
##0ರ
##ನನುವ
##ಯಾಗುತತವ
ಕುಸದ
##ನಲಲಯೕ
##ತನವನನು
##ಲಪಟಟದ
##ಗಳಂದಲೕ
ಕೕಳದರು
##ence
ಇಲಾಖಾ
ವನಾಯತ
ಮಲನಾಡು
ಕಣಣೕರು
ಗಾಂಧೕಜ
ದಾಳಯಲಲ
ಸಮತೂೕಲನ
ಪರಚಾರಕಕ
##ಗಳನನಾಗ
ಸಂಚಾಲಕ
ಹೃದಯದ
ಭವಷಯದಲಲ
##ಮಂಡಲ
96
ತವರತ
ಶೕಖರ
##ಕೕರ
##ಹೕನ
##pur
##da
ಮಾಡಲಲಲ
ನೕವ
ಹೕಳಕೂಳಳ
ಕೂಡಗನಲಲ
##ುತತದದಳು
ಕುರಚ
ದೂಡಡದು
ಲಕಷಕಕೂ
ಶವಲಂಗ
##ಪಟಟದ
ಜಡಎಸನ
ಕೃಷಣಮೂರತ
ಬಂಬಲಗರ
ಅಷಟಕಕೂ
ಊಟಕಕ
ದೂರಯಲದ
ಹಂಡತಯ
##ight
ವಂದಸದರು
ಎಫಐಆರ
pune
rag
ಶವಾ
##ವಹಸ
##ಮಳ
##ace
##ಸಪರ
##ಫನ
##port
##ುತತರುತತದ
ಮುಕಕ
ನಮಮದೕ
##ಸುವಂತಹ
ಇಲಲವಾದರ
ನಾಯಕಯಾಗ
ಬಳಸಕೂಂಡ
##ಬಾರದಂದು
ಕವಗ
ಗಲಾಸ
ಪರಶನಗಳು
ಹುಡುಗನ
ಸತಯಾಗರಹ
ಬಳಯಲು
ಎಚಚತತು
ನಲದಾಣಕಕ
ಹಳಳಗಳಲಲ
ಎದುರಸುತತರುವ
ಸಂಪಾದಕ
##ಭಾಷಾ
ಖಚತಪಡಸ
ಬಂಧನಕಕ
ಸ೦ಜಯ
ಅಪಲೂೕಡ
ಛಾಯಾ
ತವಚ
ಫಡ
##ೕನನ
##ಬಧ
##se
##ೂೕತಪ
ಹಾಗದದರ
##ಪರವೕಶ
##ೂೕಟಕಕ
##ಾರುಣ
ಅಲಲದದ
ಕಡಕಾರ
ತರಂಗ
ಮಾತಲಲ
ಕೃಷಯ
ಮಾತನಾಡದದಾರ
ಹಸರಗ
##ತವವನನು
ಕಡಮಯಾಗದ
ತಪಪಲಲ
ಅತಯಗತಯ
##ಸಕೂಂಡರುವ
ಶಕಷಕರಗ
ರುಬಬ
2016ರ
ಸಡಲ
ಪರತಯೂಬಬರೂ
ವಸಮಯ
ವಬಸೖಟನಲಲ
ಬಎಸಪ
ಸೖನಕರು
ಚಂಡಮಾರು
ಆಪತರ
ಈಜು
ಉದರ
ಬಳಳಯ
##ಪಾರ
##ನಕಕ
##ಫೂೕರ
##ುವವರ
##ಕಕಂಗ
ಮಾಡಲಾಗದದು
##ೕರನ
ಮುದ
ಕಾರಗ
ನಮಮಂದ
ಇಲಲಾ
ಗುಡುಗ
ಅವಲಲ
ಚತರವು
ಅರಯ
ಕಾಲಗ
##ಗೂಂಡತತು
ದೕಶಪಾಂಡ
ಅಪಹರಣ
ಅಪಡೕಟ
ದರವನನು
ಅಗಾಧ
ಮುಖಯಮಂತರಗಳ
ಫಲವಾಗ
ತೂೕರುವ
ಸಪರಧಾತಮಕ
ಪರಶನಗಳನನು
##ama
ತರಳದದ
ನನಪನ
ಚತರರಂಗಕಕ
ದೕರಘಕಾಲ
ವಾಕಯ
ಉಡಾವಣ
ಮಯೂಸಕ
##ನನೂಂದಗ
ಇಂಡೂೕನೕ
ಯೂಟಯೂಬ
ಪೕಟರಸಬರಗ
ಧಯೕಯ
ಅಂಧ
ಅಣಕ
ಇಕಕ
ಕಲು
ಜಾವನ
ಪಾರಥ
##ಪಾತರ
##ಜಾರ
##ph
ಕುಗಗ
ಆಗವ
ಕೂಡುವುದು
ಗೂಡ
ಸಂಸಥಾಪಕ
ಸಕಯಾನ
ಸಮುದಾಯಕಕ
ಹಗುರ
ಗೂೕಪಾಲಕೃಷಣ
ಜಗತತಗ
ಸಯಾಂಡಲವುಡ
1ರಂದ
ಚಕತ
ವೕಶ
##ತವಾಗದ
##ಕಗಳ
##ೕಟರ
##ುವೕ
##ಂಗತ
##ಯಾಗದಂತ
ನೕಡಬಹುದು
ಹೕಳಬೕಕು
ಹೕಳುತತದದಾರ
ಹಚಚುತತರುವ
##ಸಥಾಪ
##ದಂತೂ
ಗರಲ
ಸಾಧಸುವ
ತರಗತಯಲಲ
ಅಂಶವನನು
##ೕಕರಸ
ರೂೕಗಗಳಗ
##ase
ದೖತಯ
##ರವಾಲ
ಜನಮದನ
2014ರಲಲ
ವಕೕಲರು
https
ಕರುಣಾನ
ತರಾಟಗ
ಬಳತಂಗಡ
ಆಧು
ಉಪಪನ
ಗಾಜ
ಹತಾ
##ರಹತ
##ೂಡಡ
##ಗಳದದವು
ಸಂಟ
##ರಸನ
ಅವಯವ
##ani
ಜೂತಯಾಗ
ದರವ
ಬಸವೕಶವರ
ಬೕರಯ
ಯುಎ
ಅವಕಾಶಗಳು
ಎನಡಎ
ಅಮರಕನ
ಮಲಟರ
##ಸುವಂತಲಲ
ರಾಯಣಣ
ರವಚಂದರನ
ನಾಟಕದ
ಫೂೕಟೂೕಗಳನನು
ಸವೕಕರಸದ
ಪರಸತಾವನ
ನಕರರಗ
ಹತಾಸಕತ
##ime
ಸೂೕರಕ
ಮಹತವಾಕಾಂಕಷ
ಮುನನಚಚರಕ
ಚದರ
ಚಕಟಟ
ವೕಲ
##ಜಪ
ಕಲರ
ಸರದ
##ಬೕಕಂದ
ತುಂಬುವ
ವದಯಾರಥಗಳನನು
ಉತತರಸದ
ಸಥಾನಗಳಲಲ
ಅಮತಾ
ಚಾಲಕರು
ರಂಗನಾಥ
ರೂೕಗಗಳ
ಪರಚಾರದ
ಮುಕತವಾಗ
ಹೂಡತ
ಮಲಲೕಶವರ
ಅಕಕಪಕಕ
ಎಡವ
ಪುನರಾ
ಶರಣಾಗ
ಫಂಡೕಶನ
ಕಲೂೕಮೕಟರ
september
ಉಬಬ
ಗರಗ
ಥಳಸ
ಮಗಗ
ಮಸಸ
ಮಷನ
ವಧಯ
ಹತರ
##ೕತಾ
##ಶಂ
##tc
ಕುಡದ
##ಮಾಬಾದ
##ಸುವನ
ಮೖಕ
ಮೂದಲನ
ಗರಾಮಗಳಲಲ
ನಟಸ
##ಗೂಳಳಲು
##ಗೂಳಸದದಾರ
ಸಗಲಲಲ
ಸಗನಲ
ಉದದಮ
ಮನಯೂಳಗ
ಏರಟಲ
ಸೖನಸ
ತಡರಾತರ
##ಬಟಟರು
ಮೂರತಗಳನನು
ಸಾಮರಸ
ಅಕಾಡಮಯ
ಪರಾಬಲಯ
government
ಆಕಷನ
ಕೕಲ
ಜೕಪ
ಡೕವಡ
ತಡಯುವ
ದಾವ
ಬರುವಾಗ
##ನಾಯಕ
##ದಾಗದ
##ಕಕನ
##ಸದಂದ
ರಾಕಷ
ಕೂಂದು
ಅವರದದು
ಮಹಾದೕವ
ಕಾಲಡ
ನೂೕಡಕೂಂಡು
ಹೂೕಗದದರು
ಅಂತಾರ
ಬಯಾಕಟೕರ
ಸಪೕಡ
##ಶಯನ
ಆರಂಭದ
ಮಾಡುವವರು
##ala
ವನೂತನ
ಮಲಯಮಾ
ಫರಾನ
ಪರಮೂೕದ
ತಗದುಕೂಳಳಲು
chenn
ಚಂದರು
ಡೖರ
ಮೃದು
ಆಫರಕಾದ
ಗರಾಮೕಣಾಭವೃದಧ
ಇಮೕಲ
ಗರಯ
ಟಂಪ
##ಹಾಳ
##ವರಲ
ನರಯ
ಭಾರತವು
##ಸಯಂ
ತನನಲು
ದೂಡ
ಸಂಸಥಯಂದ
ಸಮಸಯಯ
ಫಲೂೕರ
ಕುಟುಂಬಗಳು
ಮನಯವರು
ಒಳಗಾದ
##ವಂತೂ
ಅಶವತ
ಅವಧಗ
ನರಮಸುವ
ಕಾರಯನರವಾಹಕ
ಸಫೂರತ
ಪಯಾಕೕಜ
ರಾಶಯವರು
ವಾತಾವರಣದಲಲ
ಮುನಸೂಚನ
700
ಆಂಡ
ಕದನ
ಚದ
ಡಯು
ನತ
ಫುಡ
##ok
ಮಾಯಾ
ಸಂಯೂೕಜನ
##ನಾಟಕ
ವರಚ
ಆಗು
ಬಂದವರು
##ೂೕರಂಟ
ರಾಜಯಗಳು
ಬಯಾಟ
ನಡಸಬೕಕು
ಪರಕರಣಗಳನನು
ಆರೂೕಪಯನನು
ಗೂೕಚರಸ
ಗೂತತರುವ
ವಾಹನದ
ಅರಥವಾಗ
ರಾಮಲಂಗ
ಮಾಡುತತಾನ
ನೂೕಟುಗಳ
ನಲಕಕ
ವಕಪೕ
ಅಷಟೂ
ಚಕತಸಗ
ಹೂತತನಲಲ
ಗೂೕಪುರ
ಸಮರಥವಾಗ
ತಮಳುನಾಡನಲಲ
2008ರಲಲ
ಸಜಜು
ರಾಜಕಾರಣದಲಲ
ರಕಾರಡ
ತು೦ಬಾ
ಪಷಟ
##ಗರೕ
##ಪರಾ
##ire
##ತತಡ
##ೂೕಕಸ
ಮುದದು
ಆರಭಟ
ಎಲಲವನನು
##ಸುತತೕರ
ಕೂಡುತತಾರ
ಬಂದೂ
ಹುಸ
ಹುರು
ಉತತೕಜನ
ಶರೕಗಳ
ಪಡದರ
ಪಡದದದರು
##ದನಂತರ
ಉತತಮವಾದ
ಗಾಂಜಾ
ತಂಗಳಂದ
ಸಂದೕಪ
ಕಳಳರು
ಡೖಲಾಗ
ಭಯೂೕತಪಾದನ
ಎಂಬುವವರು
ಬಕಕಟಟು
ಯಶಸಸನ
ಗಯಾರಂಟ
hyder
98
ದಳದ
ನಕಟ
ರಮಾನ
ಲೕಕ
##ಜದ
##ೂಂದರಲಲ
##ಣಯಂದ
##ಯಲಲದದಾರ
ಸರಕ
ನರಂಜನ
ಇಲಲಯವರಗ
ಸೂಗಸ
ಬೕಸಾಯ
ಶಾಸಕರಗ
ಪದಗಳ
ಶವಾನಂದ
ಸನಮಾವನನು
ಮಳಯಾಗದ
ಬಯಸುತತಾರ
ವಧು
ಪತರಕಗಳಲಲ
ನಾವೂ
ಬಂಗಾರದ
ಧನಂಜಯ
ಮನನಣ
ಸಾಹೕಬ
ಬರಮಂಗಹಯಾಮ
ಪಒಪ
79
ಕಸತ
ಕುತತಗ
ಧರುವ
##7ರಲಲ
ಕಾರಕಳ
ಆಗದದರ
ಮುಂದಾದ
ಹೂೕಗದದು
ಕಟಟಲು
ಸಾಲದು
ವಶೕಷತ
ಪಾತರಕಕ
ಭೂತ
ಬಾಲಕನ
##ಬಹುದಂಬ
ಗಮನಹರಸ
ನಾಯಕರಗ
ನಲದಲಲ
ರಚಸದ
ದುರಬಳಕ
ಉಳದುಕೂಂಡ
ಕುಟುಂಬದವರು
ತಗದುಹಾಕ
ವಕೕಲರ
ಮಶರಾ
ನಯಂತರಸಲು
ರೕಣುಕಾ
ವಸಾಹತು
chennai
ಬಕಕು
ರಕತಸ
##ುತತರುತತಾರ
##ಯಾಂತ
ಸಂವೕದ
##ಷಟರ
ಕೖದ
ಪಡತರ
ದರವಯ
ಅಸತರ
##ಗೂಳಸುವುದು
ಇದದವು
ಸಾಗಣ
ಆದೕಶಸದ
##aswamy
ಮರುಪ
ನನಪಗ
ನಯಮಗಳು
ರವಶಂಕರ
##ನೂಳಗ
ವಶವದಾದಯಂತ
ಮಲಗುವ
ಅಚಚರಯ
ಗುಜರಾತನ
ದುರಗಾ
ವಂಡೂೕಸ
ವದವಾಂಸ
##ಬಾಬು
ಲಯಾಪಟ
hyderabad
ಉನನ
ಶಾರದ
##ಕೃ
##ನವನನು
##ಭಂಗ
##ುವಲ
##ತಯೂಂದಗ
ಕುಂಬ
ಕುಪಪ
ಹೂನನ
ಹೕಳರುವ
##ಾಡದ
ವೖರಸ
ಎಸಎಸ
ವದಯಾರ
##ಯಯನ
ವಚಾರಗಳು
##ಸದದವು
ಸಾರವತರಕ
ಕಷಟದ
ಪರದರಶನಕಕ
ಉಳದು
ಪದಮಾವತ
ಚಪಪಲ
##ಪೂರವಕವಾಗ
ಕರಾವಳಯ
89
ದಕಷ
ಪಯಾನ
ಸಟಟು
##ೕಸರ
##ಶಟ
##೦ಬ
##ಕಾರರ
ಆಗದದರು
ಎಲಲಂದ
##ಕಷಣಾ
ನನನದು
ಗರವಸ
ಕಾಣಕ
ಕೕಳಬಂದ
##ಸಲದದು
ಪರೕತಯನನು
ದಾಖಲು
ಶಾಸಕರನನು
ನಡಸಲಾಗುವುದು
ಸದಸಯರಾಗ
ಅಧಯಾಯ
ವರಗಾಯ
ಕರುತರ
ರೂೕಮ
ಚಟುವಟಕಗಳಲಲ
ಕಡಗಣ
ಮೕಡಯಾ
ನರಣಾಯಕ
ವಕಪೕಡಯ
ಛಲ
ಬಸಲು
ಹರಾಜು
##ಗಂಧ
##ple
##ವಾಗಲೕ
ಮಾಡಬೕಕಾಗುತತದ
##ಂಗು
ಕಾಮತ
ಕಾಂಕರ
##ಕಾಮ
ಸವತ
ಸೕರದದ
ಹೕಗಾದರೂ
ಶರೕಮಂತರ
##ari
ಆಸಕರ
##ಶಯಲ
ಮಾಡುವಲಲ
##ong
ವಯವಸಥಗ
ವಾಸನ
ಪಂದಯಗಳ
ದಶಲಕಷ
ಪರತನಧಗಳು
ಅನವಾರಯವಾಗ
##ಗಂತಲೂ
ಉರದು
ರಾಕಂಗ
all
ಘರಷಣ
ಥಯೕಟರ
ಆಸರ
ಋಷ
ಫಬರು
ರೂೕಟ
ಶಯಾಮ
##ear
##mi
ನರಮತ
##ರಗಂತ
##ೂೕಡಾ
##ance
ಅನುವು
ಹೕಗೂೕ
ತರೖಮ
ನಲಲುವ
ಹಾಕರುವ
ನಗರಹ
ಸುದದಯನನು
##ಎಂಎಸ
ಅಭವೃದಧಪಡಸ
##oll
ಆಟಗಾರತ
ಸಂಸಕರಣ
##ಾಂಗಣ
ಚಲಲರ
ಚತುರಥ
ಏಕಾಂಗ
ಆಕಸಮಕವಾಗ
ಮೂಕದದ
ಪರತಭಾವಂತ
ಕಫ
ನಮನ
ಬದಗ
ಭತಕ
೫೦
##ರವರು
##ಪಡಯ
##na
##ೂೕಘ
##ಾಲನ
##ವಾಸಯ
##ದಯಂದು
##ಲಾದರೂ
ಪರತಭಾ
ಸವೕಕಾರ
ಬಲವಾದ
ಹೂೕಗಬಹುದು
ವಾರಾಂತ
ಸಥಾನದಲಲದ
ವಯಾಪತ
ಮುಗಸದ
ಅಭಯರಥಗಳನನು
ವವರಗಳು
ನಜವಾಗ
ಗಡಗಳನನು
ಸಾರವಜನಕವಾಗ
ಪರವೕಶಸ
ಖರೕದಸುವ
ವಜಞಾನದ
ಗುರಯನನು
ಲೂೕಕದ
ಜಮಖಂಡ
##ave
ಸಬಸಡ
ಅಗನಶಾಮಕ
95
ಚೂರು
ತರೕ
ದತತಾ
ಫರಾ
ವಪ
##ಕವ
##ಪಂ
##ತರನನು
##ತಯರು
##ಯಲಲಯೕ
ರಾವಣ
ಕೂಡು
##ಕೂಂಡವ
##ವೕನೂ
ಅರಶನ
##ಲಾಡ
##ಾಮಸ
##ಾಟಕಕ
ಹಾಕಲಾಗದ
ಗೂಂಬ
ಮೂದಲನೕ
ದಾಳಯ
ಪರದೕಶವನನು
ವಷಯಗಳಲಲ
ತೕರಪನ
ಮಗನಗ
##ಸಕೂಳಳುವುದು
ಗರಾಅಪ
ಬಾಲಯದ
ವರದಗಳು
ಎಚಚರಸ
ಪರಸರದಲಲ
ಸೃಷಟಸ
ಶೂೕಷಣ
##ಪಪನವರು
ವವಾದಾತಮಕ
ಜಮೕನನಲಲ
ಆಸಟರೕಲಯಾದ
vijaya
ಭಟಕಳ
br
list
ಶಪ
ಶಮನ
##ಣೖ
##6ರಲಲ
ಹಾಗಂದು
##ಕತಗ
ಕಷಪಣ
ಸೕವಗಳು
ಸದಸಯರನನು
ಭರವ
ಭಾಷಗಳ
ತೂೕರಸುತತದ
##ಹಳಳಯಲಲ
ಇಟಟುಕೂಳಳ
##ಪಾಡು
ಗುಂಡೂರಾವ
ಪರಾಯೂೕಜ
ಗೂೕಲಡನ
ಓವರಗಳಲಲ
ಘಟನಯೂಂದು
mys
indian
ಲಯಾಪಟಾಪ
co
##ತಲಲ
##ಮಟಟಗ
##ಆರಸ
##10
##ರುಡ
ಮುಸು
##ಟಕಲ
ಸೂಗ
##ವರಗನ
ಮಾತನಲಲ
ಸಲಲಸರುವ
ಸಲಲಸದದರು
ಅಧವೕಶ
##ಗೂಳಸುವಂತ
ಗಲಭ
ಪರಚೂೕದ
ದಾಖಲಸದದಾರ
ರಕಷಸ
ಗಳಸದದಾರ
ನರಧರಸಲಾಗದ
ಲೕಔಟ
ಎನಸುತತದ
ಬರಟೕಷ
2014ರ
ಬಸವಣಣ
ರಸಟೂೕರಂಟ
hd
ಆಲಸ
ಇಸವ
ಕತರ
ಗನ
ಜಹ
##ಪಯೂೕಗ
##ಲಂದು
##ಗಳಂತಹ
ಪರತಯನನು
ನಡುಗ
ಕನನಡವನನು
ಹಾಕುವುದು
ಬಡುವುದಲಲ
ಶರತ
ಕೂೕಮ
ಆನಲೖ
ಅಲಯಾಸ
ಮಳಯಾಗ
ಏನಂದರ
ಅಮೂೕಘ
ನರವಹಸುವ
ವಯಕತಯು
ದೃಷಟಯಲಲ
ಮಾನಸಕವಾಗ
ಸಳಯುವ
ರಹಮಾನ
ರಷಯಾದ
ಸಾಸೕಜ
dr
ಭರಸ
ಹಂಭಾಗ
##ಶಲಪ
##ver
##ವಾಗದದರೂ
ಮಾಡಬೕಕಾದ
ನಡದುಕೂಳಳ
##ನಲಲದ
##ಂಟಕ
##ಲಯಾನ
ಸವಟಜ
##ರಯಲ
ಅಧಕಾರವನನು
193
ಸಾಧನಗ
ಪಾಲಗೂಂಡು
ಪರಮಾಣಪತರ
ಪರತಯಾಗ
12ನೕ
ಇಷಟಲಲಾ
ಪಾಳಯ
ಗಲುವಗ
ಪುಸತಕಗಳ
ಪುಸತಕವನನು
ದಾಖಲಗಳು
ಬಳಯುತತದ
ಉಡುಪಯ
ಮಾಡುತತದದೕವ
ಕಾದಂಬ
ನತಯವೂ
ಅನವಾರಯತ
ಪಾಲಕಯ
ಪರಜವಲ
ಭರಷಟಾಚಾರದ
ತಲಕಡಸ
ಅನುಮತಸ
ಫಟನಸ
ಪರೕಮಯಂ
ಜನಸಾಮಾನಯರ
ಚದಂಬರ
4ನೕ
ಪಳ
ಭಯಾನಕ
ಲಕನ
##la
##ೂಯ
##4ರಲಲ
##5ರಲಲ
##ರುಚ
ಪರೂೕಗ
ಮಾದ
##ತಯನನೂ
##ೕರಕ
ಕಲಾಕ
ಕಲಾಂ
ಸಮೃತ
ಕಾಡಗ
ಹೕಳಕಗ
ಸಥತಯನನು
##ಕುಸತ
ತುಂಗ
ಎಂದನಸ
##ನಂದಾಗ
##ಯುಳಳ
ತೂಟಟು
ಸೂೕಂಕ
ಸಂಸಥಗಳಲಲ
ಕಾರಯಕರಮಗಳ
ವಾರಡನ
ಸಕಕದದು
ನಾಚ
ಆಚರಸುವ
##ಗಳೂಡನ
ಸವಾಧೕನ
ಪರಚಲ
ತಲುಪಲು
ಫರಂಡ
ಕಮಟ
೧೯೫
ಪೂೕಲಸ
ತಾಣಗಳಲಲ
##ಪಾಳಯ
##igar
ತರುಪತ
ಕಶಲ
ಯುಗದಲಲ
ಅಂಗಳದಲಲ
ಅವಶೕಷ
ಖಂಡತವಾಗಯೂ
92
ಆಡು
ಉದು
ತಾನೂ
ನಂತಹ
ಮಗಳನನು
##ಜೕ
##ಥಲ
##80
##han
##ಾಗುವುದು
##ನನಾದರೂ
ಮೂಸರು
ಸಮಸತ
ಸುಭಾಷ
##ಯಾಗದದಾನ
##ಸುತತಾಳ
ಸೕರವ
ಹೂಸಪೕಟ
ದೕವತ
ಹಸರಸ
ಪಡಯುತತದದಾರ
ಹರಯರ
ತಳಸಲಾಗದ
ವಾಟರ
##ಯಾತಮ
ಹಾಗಾಗಯೕ
ಗಣೕಶೂೕತಸವ
ಕಾರುಗಳ
ಸಮರಪಕ
ಪಂದಯವನನು
ರಕಷಸಲು
ಅಜಜಯ
ಯುದಧದ
ಬರಸಟಲ
ಆಯುಧ
ಸೖನಕರ
ಖಾತಯನನು
ಕಾನಸಟ
ಯತನಸದ
ಜನಪರತನಧಗಳು
ಗಂಗಾಧರ
ವಧಾನಪರಷತ
ಅಶವತಥ
ಫಬರುವರ
83
ahm
ಉದಾರ
ಋತು
ಕಆರ
ಚಲಸ
ಡಲ
##ತಡ
##ಯವಾಗ
##ಬಂಬ
##ನನನನು
##ೂೕಕನ
ಮಾಡತಾ
ಮಾಡೂೕಣ
##ಯಲಲಾ
##ಕೂಂಡಾಗ
##ಬೕಕೂೕ
ಆಗಲು
ಸರಕಾರವೕ
ಕಾರಯಗಳು
ನೂೕಡುತತ
##ಮಾರನ
ಹಸವು
##ಪಡುವ
ಶವಶಂಕರ
ಕರಮಕಕ
##ುವುದಂದರ
ಪರಣತ
ಪಂಚಣ
ಕೂಟಟದ
ಹೂೕರಾಟದಲಲ
ನರವಹಸಲು
ಎನನುತತಾ
ಪರಷಕರಣ
ಯಶಸವಯಾಗದದಾರ
ತರಬೕತು
ಚಟುವಟಕಗಳ
ಸದಾಶವ
ತೂೕರಸದ
2013ರ
ಅಣಣಾ
ಸಂಭಾವನ
ಉತತರಾಖಂಡ
ಅದದೂರ
ಅವಯವಹಾರ
par
ಅಂಕತ
ಎತತು
ಒರಸ
ಚೕನ
ನತತ
ಪಂಗ
##ವಲಯದ
##ಶಾಂತ
##ಯಟ
##ಬದ
ಪರಮಾ
ಕಾರಾಗೃಹ
##ಾವಂತ
ಸಮಶಾನ
ಕರಂದ
ಕುಲಪತ
ಎಲಲಗ
##ಲಯನ
##ಂಚಾಲ
ದೕಶಭ
##ವಲಲಾ
ಸನಾಯು
ಹಣಗ
##att
ನೕರವ
ಪಡಯಬೕಕು
##ವಯವ
ಗಾಳಯ
ಮಹಳಯೂಬಬಳು
ತಯಾರಕಾ
ಪರೕತಗ
ವದಯಾಲಯ
ದರಶನಕಕ
ಘೂೕಷಸ
ಚಟುವಟಕಗಳನನು
ಆಯುಕತರ
ವೖಯಕತಕವಾಗ
ನರೂಪಣ
ಪರಶನಸದದಾರ
ಬಳಲುತತದದ
ಜಯೂೕತಷಯ
ಹುಟಟುಹಬಬದ
ಧೂಮ
what
ವಶವಸಂಸಥಯ
ಮೂಲಸಕರಯ
ಶಾರುಖ
ಕಯಾಮರಾಗ
ಯುಎಇ
ahmed
jai
ru
ಗಫಟ
ರಭ
ವಾಯ
##ಳದದದಾರ
ನರಗ
##ಮಾತು
##ಣಣಗ
ವಯಸ
ವಯಸನ
ಕೖಗೂಂಡದ
ಹಾಕಬೕಕು
ಹಾಕದದರು
ಮುಖಬಲಯ
ಬದಲಸ
ಗೂೕವು
ಸುತತಾಡ
ಮಸಾಜ
ದಹಲಗ
##ಬಲಲರು
ನಾಗರಕರ
ಸಾಧಯವಾಗುವುದಲಲ
ಅನುಷಠಾನಕಕ
ರಣವೕರ
ಅಫಘಾನ
ವೖವಧಯಮಯ
ವಸೂಲ
ಪೃಥ
ಕೕಜರವಾಲ
ಸಯಾಮಸಂಗ
tv
ಗಟ
ಥರಲಲ
ನಕಸ
ಶರಾಡ
##ುಲಲ
##ಕಾಗ
##ಕಯಂದ
##ಸವಾ
##ಕಕೕಡ
##ವಾಗರುವುದರಂದ
##ವಾದಲಲ
ರಾಖ
ನಡದುಕೂಂಡ
##ರೕಂದರ
ಸುಡ
ಮೕಲಮನ
##ಕುನ
ಜಲಲಾಸು
ರೖತನ
ರೖಲನಲಲ
ಬಜಪಯನನು
ಸಂಗಾಪುರ
ಕಳವು
ಪದವನನು
ಸಗುತತವ
ಅತಯಧಕ
ಗರಾಸ
ಹನನರಡು
ಗಂಟಯಂದ
ಪುಸತಕದಲಲ
ಪರಯಾಣದ
ಕಣಮರ
ತರಳುತತದದ
ನರಾಶ
ಆಪಾದ
ನವಾಸಗಳು
ಭೂಮಯಲಲ
ಎನನುವುದಕಕ
##ಸಲಾಗದದ
ನುಗಗದ
ಜನಾಂಗದ
##ಾವಧಯಲಲ
ನಮೂದ
ಅಭಪರಾಯಪಟಟದದಾರ
ವಸರಜ
ಐಶವರಯ
ಅಸತವಯ
kolk
ಜಲಲಾಸುದದ
gr
sand
ಇಂಚನ
ಗೂೕಧ
ಜಪಾ
ಟಲ
ನಕಾರಾತಮಕ
ಫಕಸ
##ತೕತ
##ೕಂ
##ನೂೕಡ
##ಜಟ
##ಣಕಯ
ಸಂಸದರು
##ರೕಕಷ
##ದೕವರ
##ಡಯೕ
ಮನೂೕರ
ಅನವಾಸ
ಬೕಬ
##ಮುಕತ
ವಚಾರಗಳ
ಹರಟ
ಆರಂಭಸದರು
ಬಹುನ
ಗಳಸದರು
ಕಳದರೂ
ಗಾಯಾಳು
ಒಳತು
##ory
ಕರೕಜ
ಕಣತುಂಬ
ಸತಯವನನು
ಆದೕಶದ
ಕೂಲಂಬ
ನಯಮಾವಳ
ತಡದು
ಹಳಳಯಲಲ
ಹುದದಗಳ
ತರಬೕ
ಹೕಗೂ
ಒತತಾಯಸದದಾರ
ಪರತಯೂಬಬರ
ಸಸಬ
ಸಂಸದೕಯ
ಹನುಮ
##vious
ಛಾಯಾಗ
ಪಲೕಯರ
ಅನಾರೂೕಗಯದಂದ
ನವರಾತರ
ಹರಕೃಷಣ
ಪರತರೂೕಧ
af
ಪವಾಡ
ಲಾಕ
ಲೂಟ
ವನಸ
ವರಾಜಪೕಟ
ಶೕಟ
##ತಲ
##ಾಫಟ
##ಲದದೕವ
ಮಾವು
ಕೂಗು
##ಸುವವರ
ಬರಜಲ
ಅಂತಯದ
ಕಾಣಸ
ಶುಚ
ರೕಸ
ನಮಗಾಗ
ಸೕವಗಳ
ಆಟೂ
##ುವುದಂದು
ಕುಟುಂಬದಲಲ
##ಬುದಧ
ರುಚಗ
ಪತರಕಯಲಲ
ಲೖವ
##ವಲಂಬ
ಪರಕರಯಯಲಲ
ಉಳಸಕೂಳಳಲು
ಬಸವಣಣನ
ಸಂದರಯವನನು
ಸಂಸಕೃತಯನನು
ಯೂೕಧರು
kolkata
ಇಸರ
ಜೂೕಷ
ಟಚ
ಪಪಪ
ಭಕತರಗ
ಶಕಾರ
##ವಯಾಪ
##ಅನನು
##ುತತರುವುದನನು
##ಕೂ೦ಡ
##ನಾಸ
ನಡಸಲದದಾರ
##ವೕನೂೕ
##ಲಾಂ
ಹೂೕಗರುವ
ಅಥವ
ದೕಕಷ
ಯುವಕರಗ
ಸಚವಾಲಯದ
ಮಹಳಯನನು
ತಯಾರಾಗ
ಸಪಷಟಪಡಸದರು
ಉತಪನನವನನು
ಇಟಟುಕೂಂಡ
ನಾಮಕರಣ
ಅನಸಕ
ಜಮೕರ
##ಶಾಸತರದ
ಅನುಸಾರ
ಮೂದಲಾದವರು
ಫೂೕನನಲಲ
ಮದರಾಸ
ಶೃಂಗೕರ
ತಗುಲ
ನಗರಾಭವೃದಧ
ಗವರನರ
ಕೂತತಂಬರ
ಛಾಯಾಚತರ
ಈವರಗೂ
ಚನ
ಚರಣ
ಜೂೕಸ
ತಬಬ
ಪಾದರ
##ಬೂೕರಡ
ಹೕಳದಾಗ
ಆಗುವುದು
ಮನಗಳನನು
ಆಯಂಡ
ಸೂೕಷಯಲ
ಆರಂಭವಾಯತು
ಆರಂಭವಾಗಲದ
ಕಯಾಥ
ರಾಜಕೕಯಕಕ
##ವಾಹನ
ಬರುತತದದಾರ
ಹಾಲನನು
ಪರಸಥತಯ
ಸಬಬಂದಗ
ರಕತದೂ
ವಯವಹಾರಗಳ
ಅಜೕಯ
ಕೂಳಳುವ
ಕಂಪನಯು
ಮೂಡಸಲು
ಬಹರಂಗವಾಗ
##ಡುಕೂೕಣ
ಯೂರೂೕಪ
ಕಸತೂರ
ಆಲೂ
ತದನಂತರ
ಪಶ
ಪಾತ
೨೧
##x1
ಮಾಡುವುದಕಕ
##ಕೂಟದ
ಮುನಯ
ಸರವಸ
ಕುಡಯಲು
ಹೂಂಡ
ವರಮಾ
ಹಚಚಸುತತದ
ಎಲಲಲಲ
##ನೕರು
ಅರಚ
ಹೕಗಯೕ
ಗೂತತರ
19ನೕ
inter
ಕರಾಳ
ಸಾಧನಗಳನನು
ಹೕಳಕಯನನು
ವಜೃ
ಮುಸಲಮರ
ಅನಸುತತದ
ದಟಟಣ
ಶೖಲಯಲಲ
ಟೂಮಟ
ಅಯಯಪಪ
art
ಬಎಂಟಸ
ಮುಂಚೂಣಯಲಲ
87
ಕದದ
ಜೕರಗ
ಪಡುಕೂೕಣ
ವಲೕನ
##ಯನನಾಗ
##ma
ಪರನಸ
ಮೂವತತು
ಕರನಸ
ಕುಂತ
ಎಲಲಯೂ
ವರಷವೂ
ಅದಾದ
ಹೂರತಗ
ಕಾರಣವಾಯತು
ಮುಖಯವಾದ
ಹೂೕದರೂ
ಪಕಷಗಳಗ
ಕಷೕಣ
ಕಟಟಕೂಂಡು
ಕಾರಯಕರಮಗಳಲಲ
##ತವದಲಲ
##one
ವಾಹನಗಳಗ
##ition
ಕಣಣಲಲ
ಕಣಣೕರ
ವಮಾನದ
ಕಲಪಸಲಾಗದ
ಪರಾಣಗಳು
ನೕತೃತವ
ವಂಕಟರ
ಪಡದುಕೂಂಡದದಾರ
ಬರಗಾಲ
ಯುಗಾದ
ಅಭನಂದನ
ಇಸಲಾಮಾಬಾದ
ಮೕಕಪ
ಜಯೂಸ
ಮೕಲವಚಾರ
ಸುಬರಮ
91
900
tra
will
ಎತತನ
ಟಾಸ
ತಾಸು
ವಕರಮ
ಶಾಟ
ಶಣೖ
ಸಳದ
##ಜಜು
##ಯಮ
##ಟಟರುವ
ಕೂಯ
ಸರಾಗ
ಕೂಡಸ
ಬರೂ
ಹುಳು
rec
ಪಡುವ
ಮಾರಣ
ಎಸಬ
##ುತತದದಾಳ
ತಳುವ
ಸೂೕತು
ನಡಸುವುದು
ಕಯಾಶ
ಪರೕಕಷಕರನನು
ಕುಟುಂಬಗಳಗ
ಇಷಟಲಲ
##ಕೂಡಲು
ತಲುಪುವ
ಗಲಲಲು
ಜೂೕಡಣ
ಶಬರಮ
ಕೂಡುಗಗಳನನು
ಪರಪಂಚದಲಲ
ಸೂಕಷಮವಾಗ
ಅಗರಹಾರ
ಹರೕಮಠ
ಡವೖಎಸಪ
ಕರಂದಲಾಜ
nag
ncr
ಥಾವನ
ದಲೕಪ
##ನಂಗ
##೦ದರ
ಪರದಯ
##ಸದನು
ಸರಟ
ಕರಗಳು
##ಪರಜಞ
ವಯತರ
ಅಭಾವ
ಹರವು
ಕೂೕಟಯಾ
ಪರಕರಣಗಳ
##ದುಕೂಳಳಲು
ಇರದು
ಮಗುವ
ಮಗನನನು
ಇರುವವರು
ಮುಗಯುವ
##ake
##ಗರಹಣ
ಇವನು
ಕಂಪನಯಲಲ
ಹುಡುಗಯರ
ಕಲಪಸಲು
ತಮಳ
ವೃತತದಲಲ
ಕಾಲೕಜುಗಳ
ಬದುಕುವ
ಲೂೕಕದಲಲ
ಎರಡೂವರ
ಯಕಷಗಾನದ
ಜೖಲನಲಲ
ಚಾಂಪಯನಸ
ಎಲಕಟರಕ
ಸಂತರಸತರ
political
ಏನಲಲಾ
ಮುಹಮಮದ
ನಾಣಯ
ಮುಂಭಾಗದಲಲ
ಪರಾಮುಖಯತ
##igarh
ಏಲಕಕ
ಗಾದ
ಚಂಚ
ನಷಟು
ಬೕಂದರ
೨೪
##ವಾರು
##ಮೕರ
##ಂದಲೂ
##ನನಾರ
##ನಸನ
ಇದನನ
ಜೂನಯರ
ಶರೕಣ
##ಸಸನ
ಆರಂಭಸಲು
ಪಡಯಲಾಗುತತದ
ಯೂೕಜನಗಳಗ
ವನಯಾಸದ
ಹಾರಾಟ
ಸವಾಭಮಾನ
ಬದಲಾವಣಗಳನನು
ನನಪನಲಲ
ನಯಮಗಳ
ಕೂೕರದದಾರ
ಯಶಸವಯಾಗದ
ಆಗರಲಲಲ
##idd
ಕಲಲನ
ಭನನಮತ
ಪಾಸಪೂೕರಟ
ಅಭಯಾನದ
ಊರನಲಲ
ಸಸಟವ
ಕಾರಪೂರೕಟ
ಗುಪತಚರ
ಮಹಾಭಾರತ
kumaraswamy
chandigarh
ahmedabad
ಉಸರು
ನಲಪಾಡ
ಭತ
ಲಾಡ
##ತೂೕ
##ವಂ
##ep
##ದದದಾನ
ಪರವಾಸದ
ಕರಮಾ
##ಮಾನು
ಇದಾಗದದು
ಮನಮೂೕಹನ
ಅನೖ
ಪಡದದದು
ಸಂಬಂಧದ
ಕಂಡತು
ನಟನಯ
ಮೂೕಕಷ
ಆರಂಭಸದದಾರ
ತಪಪಸ
ಸಮಸಯಯಂದ
ಭೂಕುಸತ
ಗೂೕದ
120
ಪಂದಯಾವಳ
ಅಂದರು
ಸೂಚಸಲಾಗದ
ಹಂಚಕೂಂಡದದಾರ
ಸಬಬಂದಗಳು
ವೃತತಯಲಲ
ಬೕಳುತತದ
ಅಂಕಗಳನನು
ಸೂಕತವಾದ
##ವಂದೕ
ತಂದುಕೂಟಟ
ನರಧರಸದದಾರ
350
ದಶಕಗಳಂದ
ಪರವಾಗಲಲ
ಹದದಾರಯಲಲ
ಬೂೕಯಂಗ
ಹಣಣನನು
ಗಯಾಂಗ
ಮನರಂಜನ
ಫಲಪಕಾರಟ
ಆನಲೖನನಲಲ
ಅಯೂೕ
ಏರು
ಏನನ
ಟಾಕ
ಧನಾತಮಕ
ನಾದ
ರೂೕಲ
ಲಾಂಗ
##ರವರ
##ಮೂರು
##ೕದಾರ
##ಷನರ
##ನನಗ
##ಗಳಳ
##ಕಷರ
ನೕತಯನನು
##ವನನುಂಟು
##ಲಾಗುವುದಲಲ
ಅವಸರ
ಕಾಲದಂದಲೂ
ಕಾಲಾವಕಾಶ
ರೂಡ
ಅನುಯಾಯ
ಕೖಯಂದ
##ಕಕೂಂಡ
ಕೕಂದರದಂದ
ಸಂಗಲಸ
ಸಂಸಥಾನ
ಸಂಸಥಯನನು
ಕೂೕಣಯಲಲ
ಸದದಾಪುರ
ಜಾಗಕಕ
ಆಚರ
ಎಂದರಥ
##ಸುತತದದಂತ
ಸಾಧಯತಗಳು
ಇಂಥಾ
ಪತತಹಚಚ
ಮನುಷಯರ
ತಂತರಜಞಾನವನನು
ಅಳವಡಸಲಾಗದ
ರಸತಯಲಲರುವ
ಆಗಾಗಗ
ಪರಂಪರಯ
##ದರುವುದರಂದ
ಕಂಡುಹಡಯಲು
ಭುವನೕಶವರ
ತುಣುಕು
ವೃಷಭ
jaipur
oct
ಎಂತ
ನೂೕಕ
ಬಾವು
ಸಾನ
##ವಹ
##ಕನನಡ
ನೕನಾ
ಮೂಢ
ಕುಂಭ
ತುಳ
ಮೕನಾ
ಮೖಮೕಲ
##ಮೂಲಕ
ಇರುವಂತಹ
ಒಳಪಡಸ
ಮಹಳಯರನನು
ಏನಾಗ
ಹುಡುಗಯ
ಮೂಡುತತದ
ದಾಖಲಯನನು
ಸೂೕಮಶೕಖರ
ಯೂೕಗೕಶ
ಚಲುವ
ಸಂಭವಸ
ದೃಶಯಗಳನನು
ಎಷಟೂಂದು
ಸಾಧಯವಾಗುತತಲಲ
ದಾಟದ
ಮೃಗ
ಆಗರಹಸದದಾರ
ತೕಜಸವ
ಅಪರಾಪತ
ಹಗಗಳಕ
ಮೂರನಾಲಕು
ಸೃಜನಶೕಲ
ಮೂಕದದಮ
qu
ಜೂೕಕ
ಡಲಲ
ದಾರುಣ
ವವೕ
##ಗಡಡ
##ಕೃಷಣ
##ಯಡ
##ಬಣಣ
##ಟಾ
##ro
ಮಾಡದದರ
ಸಾಂಬ
ಕಾರನಾಡ
ಕಾತರ
ಪುರಾವ
##ಳಸಲು
ಹೂೕಗತತು
ಶರೕಯಾಂಕ
ನಗರಗಳ
ಮಾತನಾಡುತತಾರ
ಮುಖವನನು
ಹಚಚನವರು
ನಾಚಕ
ಅಧೕನ
2002
##ಜಕಲ
ತೂೕರುತತದ
ಹಾರಡ
ಸೂಚಸ
ಮಾಡುತತಲಲ
ಕೃಷಣಪಪ
ಲೕಖನದ
ತೂಡಗಸಕೂಂಡ
ಕಾಡನಲಲ
ನಾಗರೕಕ
ಯುದಧದಲಲ
ಕಾಮರಸ
ಪರಜಾಪರ
ಅಳಲು
ಪಾರಕಂಗ
shiv
ಮುತತು
ಮೖಕರೂೕಸ
ಪರತಭಟನಾಕಾರರು
ಟಕನಾಲಜ
ಸಮಫೖನಲ
88
ಒಯಯ
ಕಯಾಸ
ನೂಂದಗ
ಫೕಲ
ರೂೕಷನ
ವವಾ
##ಪಲಲ
##ಪಎಫ
##ೂೕತರ
##ದದೕರಾ
##ದುದದಕಕೂ
##ದರೂೕಹ
ನಡವಳಕ
ಕಾಂ
ನರಹ
ಇಲಲರುವ
ಮೕಲರುವ
ಮಹಾಬ
##ನೕಸ
ಮನೂೕಜ
ಈಗರುವ
ಹೂೕರಾ
ನಡಯುತತ
##ಮುದರ
##ಸಲೂ
ಸಾಧಯವದ
ಸಟೕಲ
##ಯಾನಂದ
ಸಾಧಸದದಾರ
ವಯಾಪತಯನನು
ಎರಡೕ
ಅನನುವು
##ದೂಡನ
ಕಂಪನಗಳಗ
ರಾಷಟರಗಳಲಲ
ಹಾಡಗ
ಸಪಷಟಪಡಸದದಾರ
ವಸತುವನ
ಸೖಯದ
##ಬಟಟರ
ಹುದದಗಳನನು
ತಂಗಳುಗಳ
ದೃಶಯಗಳು
ವಧಾನಸಭಯಲಲ
ಚಾರಣ
ಪದಧತಯನನು
ಸವಾರರು
ಏನೕನೂೕ
ಮಹಾರಾಷಟರದಲಲ
ಬಂಗಾಳದ
ಕಯಾಲಫೂೕರ
org
app
ಆಡಳತಾತಮಕ
ವಪರಯಾಸ
ಇಬರಾಹ
ಅಪಾರಟಮಂಟ
ನಂಜನಗೂಡು
ಲಯೂೕನ
ಉಪವಭಾಗ
ವಯತರಕತ
ಅಚ
ಅಡಯ
ಅಲದ
ಕಗಗ
ಡಯಾನ
ಪಲಾ
ಫೖಟ
ಬೂೕಗ
ಮಂಕ
ಶವಾಸ
ಸಯಾನ
ಹಯಾಕ
##ಶಸ
##ಬೂೕ
##ತತಾದರೂ
##ವರಾದ
ನಮಮದಾಗ
##ಾಕೃಷಣ
ಜನಸದರು
ಬರಯಾನ
##ಚಾರಜ
ಮುಂದಾಗರುವ
ತುಂಡ
ಬಲಯಾಗ
ತರಬೕಕು
ಪರಶನಯ
ಕೕಂದರಗಳನನು
##ication
ಕಥಾ
ಇಂಗಲಂಡನ
ದಾರಯ
ಕಾರುಗಳನನು
ಬದದದದು
ಪುಟಟಣಣ
ಕಡಗೕಡ
ಬರಸರ
ಉದಘಾಟನಾ
##ound
ಸಮಾಲೂೕಚನ
ಇಮೕಜ
ಕರಶಚಯನ
topics
ಆಕಟ
ಖಡಕ
ತಲಪ
ನಲುಗ
##ಗೃಹ
##ಶತ
##ಶೖಲ
##ಹಟಟ
##ಾರಪಣ
ಸಾಸವ
ವರೂಪ
ಆರತ
##ree
ಅನುಭವದ
ಈಗಾಗಲ
ಕೖಚ
ತನನಲಲ
ಕೕಂದರೕಯ
##ವೃಷಟ
ಸೕವಸುವ
ಅತಯಾಗ
ಪರೕಕಷಕರು
ಆರೂೕಗಯವನನು
ಬಾಚ
ಬಳಗದ
ಪರಯತನವನನು
ಪೂರಣಗೂಳಸ
ಇನಮುಂದ
ಲೕಖನಗಳು
ಪರತಭಟನಯಲಲ
ಘೂೕಷಸದದಾರ
ಸಂಭರಮದಂದ
ಶುರುಮಾಡ
ಜಲಲಾಧಕಾರಗಳ
ಸಾಧಯವಾಗಲಲಲ
ಮೖತರಕೂಟ
ಬರುಕು
ತುತತಾಗ
ತೕರಪನನು
world
93
jan
ಓಕ
ಖಾಯ
ಖಚತವಾಗ
ಪೕಪ
ಬುರ
ಲಾಸ
##ವನಲಲ
ಮಾಸತ
ಮಾಡರ
##ದೕತು
ಮೕಲಂದ
ದನವಾದ
##ಸಯು
ಸೂಳಳ
ದೂರದಲಲದ
##ಗುಡಡ
ಬೕಕಾದರ
ಮಟಟವನನು
ಅಧಕವಾಗ
ಅಂಗೕಕರ
ಬಡುಗಡಗೂಳಸ
ಶಕಷಣಾಧಕಾರ
ವಾಸಸುವ
ಸವಾಭಾವ
ಮಾಡಕೂಂಡದ
ಕಾಲೕಜುಗಳಗ
ಅಪಪಟ
ನರಧಾರಗಳನನು
ಇನಫೂೕ
ಮೕಲನೂೕಟಕಕ
##ಭಾಗಯ
ಮಠಕಕ
ಜಞಾನದ
ವಾದಯ
ತರುಮಲ
ಹಯಾಟರಕ
ಸಕಲೕಶ
ವೖಫೖ
ಅತಯುನನತ
ಸದೃಢ
ಉಗ
ಕದರ
ಪಂಥ
ಲಘು
##ns
##ಳಕಕ
##ೂಳಸ
##bp
##ರುಗಳು
##ತತಂತ
##ದದದಾಗ
ಮಾಂ
##ಾನಗರ
##ಟಟಣ
ಸಾಂದರ
ಸಮಾರೂೕಪ
ಕರಯರ
##ಮಾಂಸ
ಮೕಲದ
##ಾಹಸ
ಸನಯಾಸ
ಮುಖಪುಟ
ವಷಯವಾಗ
ಇರಲದ
ಆದವಾಸ
##ದುಕೂಂಡದದಾರ
ಪರಮಾಣು
ಕಂಡುಬಂದದ
ಬಾಂಗ
ನಾಯಕರನನು
ಮಾಧಯಮದಲಲ
ಮಾರಗವಾಗ
ಮಾರಾಟದ
ಸವಾಮೕಜಯ
2017ರಲಲ
ನೂಬಲ
ವಹಸದ
ಗಮನಸದರ
ಫೂೕಟೂೕಗಳು
2015ರಲಲ
ಪುನರು
ಆಂಧರಪರದೕಶದ
ಸನಾತನ
ಪರಣಮಸದ
ಮಲಯಮಾಪನ
ವಜೃಂಭ
ಎಳದ
ಕವರ
ನನನೂ
ಪಸತ
ವನಾಶ
##ುಸರ
##ತದದಾರ
##ರತನ
##ಇಡ
##ಂಗನಲಲ
ನೕನ
ಸಾವಯವ
##ಾವಧಯ
ಸಮಕಾಲೕನ
ಸವಾಯ
ಪಕಷವು
##ative
ನೕರಳ
ಸಥಳವನನು
ದಾಖಲಾ
ಬೕಕಲಲ
ಎದುರನ
ಜೂತಗನ
ಶಕಷಣವನನು
##ರಂಗದ
ಆಯಕಯಾಗ
ಅಂದನಂದ
ಪರಕಟಸ
ವಧಸ
ರೂಪಾಯಗ
ತಳಯದ
this
ಸಥಾಪಸಲು
ಪರಶೕಲಸುವ
ಸೂೕಮವಾರಪೕಟ
ಪಟರೂೕಲಯ
ನದಯಲಲ
ಅತಯಾಚಾರವಸಗ
##ಪಕಷೕಯ
ಫೕಸಬುಕನಲಲ
##ult
ತನನುವು
##ಯಸಳ
ರಾಜಯಪಾಲರು
ಸೃಷಠ
ತಡಗಟಟಲು
ಪದಾಧಕಾರಗಳು
ದನನತಯದ
ಸುಷಮಾ
kn
ತಣ
ಪೕಸ
##ಮರಸ
##ಥಾನ
##ೂೕತತಮ
ನೕಡುತತದದ
##ಕೂಂಡಂತ
ರಾಜರಾಜ
ಆಗುತತರುವ
ಮೕಲಕಕ
ಪುರು
##ವಾದಂತ
ಬಜಪಯಲಲ
##ವಾಸನ
ಹೂಂದುವ
ಚುನಾವಣಗಳಲಲ
##ich
ಅಭವೃದಧಗಾಗ
ಮಾನವೕ
ಮೂಡವ
ಫರನಾ
ಜೕನಸ
ಗರಂಥಾಲಯ
ಸಂತರಸತರಗ
ಬೕಯಸ
ಐಡಯಾ
ಹರಹರನ
ಅನವೕಷಣ
ಪೖಲಟ
ತಳುವಳಕ
ಜಯದ
ನಕಾ
ಬೂೕಸ
ಭತಯ
ಭರೂ
ವದಾಯ
ಶಷಟ
##0ರಲಲ
##ಭರತ
##ಂದನ
##ದಲಲದದು
ಸಾಕಾರ
##ರೕಟರ
ಕುಣಯ
ಸಥಳದ
ಅರಜು
ಸವಫಟ
ವೖನ
ಹೂಂದರುತತಾರ
ಹಣದು
ರೂಪಸುವ
192
ವಾರದಂದ
ಸಾಧಕ
ಅನನುತತ
ಕೂಟಟರುವ
ಲೂೕಕಕಕ
ಮಾರಗದ
ಲೕಖಕರು
ರಚನಯ
ಪತನಗ
ಪಕಕದಲಲೕ
ಬರಹಗಾರ
ಎನನುವುದರ
ಹಕಕನನು
ಮಂದರದಲಲ
ಹೂರಬೕಳ
ಗರಹಣ
ನಹರು
ಎದುರಾಗುವ
##ಭಾರತ
ಒಲಂಪಕ
ಹಾಳಾಗ
ಬೕಸತತ
ರೕಖಾ
##ವರುವುದಲಲ
ಹಬಬಾಳಕರ
ವಶವೕಶವರಯಯ
8ನೕ
ಇಮಮ
ಖನ
ಗಯಾಲ
ಚಧರ
ತಾರಾ
ನಂಟು
ವಕಸ
ಷರೕ
##ಾಳು
##ೕಷಣ
##ಶತಕ
##ನಾಲ
##ಡಜ
##ಘಟ
##ತತೂೕ
##ವರಂತ
ಸಾಂತ
ಹೂಯಸಳ
##ಯೂಬಬರ
ವಯಯ
ಮನಃ
ಸೕರದದಾರ
##ೂಂದಕಕ
ಕಾಂಗರಸನಂದ
ಹೂಂದಲು
ದೕವೕಂದರ
ಭಾಗಯಾಗ
ಸಥಳಗಳಗ
ಕಳದರ
ಉತತರಪರದೕಶ
ಎದುರಸುವ
ಮಗಾ
ಏರದ
ಇವತತನ
ವಧಸದ
##ರುವಾಗಲೕ
ಬದಲಾವಣಗ
ವಹಸುವ
ಕೕಸು
ದೃಶಯವನನು
ನರಮಸರುವ
ಸಮಾರಂಭದ
ದವಂಗತ
ಸಂಕಷಪತ
ಮುಂಚತವಾಗ
ಮಾತರವಲಲದೕ
##ಸಲಾಗರುವ
ಐಪಎಸ
ಭಾಗವಹಸಲು
ರಾಧಾಕೃಷಣ
ಜನಾರಧನ
ವಶವವದಯಾನಲಯದ
minist
ತರೖಮಾಸಕ
ರಾಜರಾಜೕಶವರ
ಆನಯ
ಜನಾ
ಫೂಟ
ಭೂೕಪಾಲ
ರೂೕಸ
##ಮರಣ
##ನಾಗದದ
##ಟಾಗ
##ದದವರು
ರಾಮಮ
##ೂೕಗರಾ
##ಂಟಾಗ
ಹೕಳಕೂಂಡು
##ಂಕೕತ
##ರುವುದೂ
ನನನಂದ
ಬಲಯಾಕ
ದೕಶೕಯ
ಚುನ
ನಡಯುತತತತು
ಅಥಲ
ನಟಸರುವ
ಮಾಡದವರು
ದುಡಯುವ
ಬಡಎ
ಇತರರಗ
##ಪುತರ
ಸಮಾಜವನನು
ನಂತರುವ
##ುಲನಸ
ಪೂರಣವಾಗ
ಗದದಲ
ಲೕಖನಗಳನನು
ಪರೂಡ
ಕಂಗಸ
ಸಾವನನಪಪದ
ಸಮಮೕಳನದಲಲ
ಅದೃಷಟವಶಾತ
ಇದಲಲಾ
ಚಳುವಳ
ಪಾಶಚಾತಯ
ಡರೖವರ
op
ಇರು
ಎನಕ
ಕಣದಲಲ
ನಸಸ
ಪಾರು
ಭತತದ
##ಸಲಪಟಟ
##ಳೕ
##ಹಕವಾಗ
##ile
ಮೂಯಲ
ನಡದಲಲ
ಕುಟಟ
ಕುಂಬಳ
##ಕೂಳಳುವಂತ
##ಸಥಯ
ಹೂೕಗಲ
##ಯುಲ
ಕಾಣಬಹುದಾಗದ
ಬಯಾಕಲ
ಆಸಕತಯ
ಗುರುಗಳು
ಶಕಷಣಕಕ
ನೂೕವನ
ಒಳಗನ
ಕನಸಲ
ಕೕಬಲ
ಸಲಭಯವನನು
ಸಂಪಾದನ
ಪಾದಚಾರ
ಆರೂೕಗಯದಲಲ
ಮದುಳನ
ಸಜಜಾಗದ
ಐದಾರು
ಡಕಶ
ರಕತದೂತತಡ
aug
ಕೂೕನ
ಗೕರ
ಜಯಾ
ಪಚ
ಸಶ
ಸಧ
೨೨
##ಲನನು
##ಬಯಾಕ
##ಯಾದಯಂತ
##ಕರವಾದ
ಮುಂಗಡ
##ರಾಶ
ಕಾರಂತರ
ಸಮಂಟ
ಸಮತಯು
ಸರವರ
ಕರಗಳ
##ಯಾಗರುತತದ
##ಗಳಲಲವೂ
ಆರನೕ
ಆಗುತತಲಲ
##ವೕನಲಲ
##ನಗು
ಪರತಬಂಬ
ಅನುಕಂಪ
ಸೕರದದು
ಹಂದಷಟೕ
##ನಾಡನಲಲ
##ಜಞರು
ಕಂಡದದು
##ಶನಲ
##iah
ಬಳಸಬೕಕು
ಬುಟಟ
ಶರೕಶ
ಬಾಲಯದಲಲ
ಪರೕಕಷಕರಗ
ವಜಯಕುಮಾರ
ಕಷಟಪಟಟು
comm
ಪರದರಶನದ
ಮಾಡದದಾಳ
ತಳಯರ
ಚಕತಸಗಾಗ
ಬದದದದ
ಹೕರಳ
ಆದದರಂದಲೕ
ಕಾಮಗಾರಗ
ಶಬಧ
ದವವ
ಒಡನಾಟ
ಪರಭಾಸ
ಅಚಚುಕಟಟ
ತಯಜ
ಹುಡುಕಕೂಂಡು
ಅಸತವಯಸತ
sandal
vk
ತಂಪು
ದತತು
ಬನಸ
ಬದದರ
೪೦
##ಮಾಸ
##ಪಂಡ
##ಹರಸುವ
##ಲಲಗ
##ತತೕ
ಸಂಧಾನ
ಸಂಗೂಳಳ
ನರಕ
ಉತತೕರಣ
ಹೂೕಂ
ಹರಹರ
ಪರಧಾನಯಾಗ
ಸಾಧು
ಆಟವನನು
ಸದಸಯತವ
1500
ಅಲವಾ
ನುಸು
ರಂಗದ
ಕೃಷಣಾ
ಬಳಳುಳಳ
16ನೕ
ತರಳುವ
ವದೕಶದಲಲ
ಜಾಲಲ
ಬೖಕನಲಲ
ಗಳಸಲು
ವಶವವದಯಾಲಯದಂದ
ಪರತಯೂಬಬರಗೂ
ಸವಚಛತ
ಸಮುದರದಲಲ
ದೕವೕಗಡರ
ಇಂಟರನಯಾ
ವಶಪಡಸಕೂಂಡದದಾರ
##ಗೂಳಗಾದ
ಕಬಡಡ
ದಗಗಜ
ಭರವಸಯ
sandalwood
7ನೕ
ಆದರು
ಪಂಟ
ಬಡು
ಮಜಜ
ಸತತು
##ರೂೕಗ
##ೃತಯಲಲ
##day
##1ರಲಲ
##ತಯಂತ
##ಾಸುರ
##ಮಾತರ
ಅವತತು
ಕೂಡವ
##ತಾಂ
ನೂೕಡುವುದು
ಎಸಐಟ
ಹೂೕದಂತ
##ಲಸಟರ
ಕಷಮಸ
ಬಾರಸ
ದುಪಪ
ಸಕಕಬದದ
int
ಮಂಡಳಗ
ತಾಂಡ
ರಾಜಕೕಯದ
ಇಬಬರಗೂ
ಅಡತಡ
ಪರಕಟವಾದ
##ಟಲರ
ಹಣಣುಗಳನನು
ಗಾಯತರ
ಸಬಬಂದಯನನು
ಕಾಲೕಜುಗಳಲಲ
ತರಳಲು
ಪರೕಮಯರ
ಕೕಪರ
ಇತಹಾಸವನನು
##ಕೂಟಟದದಾರ
ಕರೕಡಾಂಗಣ
ಮಳಗಾಲದ
ಆಗರಬಹುದು
ಜೕಮಸ
ಟಯಾಂಕರ
ಪತರಕರತರು
ನರದೕಶನಾಲಯ
ತರಯಲು
ಮಹತವವನನು
ಲೂೕಕಸಭಯಲಲ
ಪುನರವಸತ
ರಾಜಯಪಾಲರ
ತಯಾರು
ಬಂಗಾರಪಪ
ಸಕಯೂರಟ
ಸರವಾಧಕಾರ
ಬಲವಂತವಾಗ
ಕುಶಾಲನಗರ
##ವಶಯಕ
ದವಾಕರ
ಸದುಪಯೂೕಗ
ಪರಜಾಪರಭುತವದ
pm
ಛೕ
ಡಾನಸ
ತರಾ
ತಲಯಲಲ
ನಂಟ
ನಳನ
##ರಚ
##ಮಡ
ಸಾದಯ
ನಡಸುವಂತ
##ಾವೃತ
ಮಹೕ
##ತನದಂದ
ಸಹವಾಗ
ಚುಚಚ
ಬಹುದು
10ರಂದು
ನಡದವು
##ರಾಗದದು
ತಪಪಸಕೂಳಳಲು
ತಂದದದ
##ಸಕೂಳಳುತತಾರ
ಸಭಯನನು
ಗಂಟಗಳಲಲ
ರಸಪ
##ಾಭಮಾನ
ಪರಕಟಣಯಲಲ
ದಾಖಲಸಕೂಂಡು
ಲಾಭದಾಯಕ
ವಚಾರಣಯನನು
ಕಣಣುಗಳು
ಅವಶಯಕತಯ
ಪರತಷಠಾನ
ಚಪಪಾಳ
ಕಯಾರಟ
ಪರಾಧಯಾಪಕ
ನಂಜುಂಡ
ಸಐಡ
ಬರುಗಾಳ
col
ಇಂಜನ
ತಟ
ಬಯೂೕ
##ect
##ುವಷಟು
##ಂಗುರ
ನೕತಾ
ರಾಮಾ
##ಪರಭಾ
##ಕೂಳಳದ
ಗುರಯ
##ಕಾಂಡ
##ವಾದಗಳ
ಅಲಲಾ
ಪರತಫಲ
ಕಡದು
ಮೕಷಟ
ಜೕವಕೂೕಶ
ಸಾಧಯವಾದ
ಹಸರೕ
ಶರಟ
ಬದಲಾದ
ಗರಾಪಂ
ಒತತಡದ
ಭಾಷಗ
ಪರಣಾಮವನನು
ಗುಣಗಳು
ನುಡಯ
ಸಹಾಯಧನ
ಆಡಳತದಲಲ
ಇನಫ
##ಭೂಮಯ
##ಬಲಲವು
ರಜಸಟರ
##ಾಧಯಾಯ
ನಾರಾಯಣಸವಾಮ
ಬದಧಕ
ಕಬಬಣ
ಬರಟಷರ
ಸುರಯುತತರುವ
ಎಂಬುವರು
ಇಸಲಾಂ
ನರಮಾಪಕರ
ರಾಜಸಥಾನದ
ಉತಕರಷಣ
ಕುದುರಮ
ಎಡಗೖ
ಹತಾಶ
ಮಾನವೕಯತ
ಅಂ
ಅಬು
ಉಣ
ಉಜಜ
ಐವತತು
ಗವ
ಜರನ
ಬದಯ
ಭಾವು
೧೦೦
##ಗಂಗಾ
##ವಾಕ
##ಂಗರ
ಮುತ
##ಲಾಗುತತದದು
##ಗರನನು
ಅವಯವಸಥ
##ಲಕಾಯ
ಬಂದೂೕಬ
ತಮಮಪಪ
ಸೕರಲು
ಹೂಂದಲಲ
ದರಗಳು
ಕಂಪನಗ
ಬೕಕೕ
ಯಾರನನು
ಪರಮಾಣವಚನ
ಸುತತನಲಲ
ಅರಥಾತ
ರಸತಯನನು
ಸಪರಧಸಲು
ತನಖಯ
##olog
ದೕಪಾವ
ವದೕಶಕಕ
ಓಡಾಟ
##iss
ಏರಕಯಾಗ
ಕಟಟಡಗಳು
ಸಂಭರಮದ
ಕೂನಯುಸರ
ಅಜತ
ಎತತರಕಕ
ವೕಕಷಸಲು
ಚಕಮಕ
ಗಳಯರು
ಭಾಗವಹಸುವ
ಭೕಮಾ
##ವಂಬಂತ
eng
ಕೂಬಬು
ಮನರಂಜ
##ಭವನದಲಲ
ರಾಜಕಾರಣದ
ಪರಾಯೂೕಗಕ
ಹಮಾಚಲ
ಚದಂಬರಂ
ಥರಲಲರ
ಆಳದ
ಟಗರು
ಫಯಾಮ
ಲೕಲ
##ೕಯಾ
##ೃಶಯ
##ga
##ೂೕದನ
ಪರಾಪ
ಮಾಧ
##ಕಕಲಲ
##ವಾಗರಬೕಕು
ಸಮವಸತರ
##ಬೕಕಂಬುದು
ಜನಜೕವನ
ಹುಣಣ
##ಂಭಾಗದ
ಕನನಡಗರಗ
ಹಂದೕಟು
ಬೕರುವ
ಅಧಕಾರದಲಲ
ಸದನದಲಲ
ಕಷೕತರಗಳಗ
ಬಡವರಗ
ಶಾಸಕಾಂಗ
ಮೂಲಗಳಂದ
ಹಾಂವ
ಅವಕಾಶಗಳನನು
ಬಯಾಂಕನಲಲ
ಒಳಪಡ
ಅರಥೖ
ಅದೕನ
ಕರೕನಾ
##ತವಾಗರುವ
ಮೂರಖ
ಇನನರಡು
ಮಾಡಕೂಳಳಬಹುದು
ಸವಾವಲಂಬ
ವಮಾನಯಾನ
ಮಸೂ
##urappa
##eddy
ಜಞಾನವನನು
ಪರಕರಯಯನನು
ನತಯಾನಂದ
ಶಾಸಕರಾದ
ಮೕನುಗಾರಕ
ಡೖರಕ
ದುಷಪರಣಾಮ
ಪರಾಮಾಣಕವಾಗ
ಸುಳಳಲಲ
ಕಂಟರೂೕಲ
ಆರಾಧನ
ಡಸಪಲೕ
ಇಕ
ಉಣಣ
ಚಾಣ
##ಕಣ
##ಬಲಲು
##ಥರ
##ಳಸುವ
##ಲಲಲಾ
##ಟಟಲ
##ಕೂ೦ಡು
ಕರೕಕ
ಕುಂಕು
ಕಾಳಗ
ನೕಡಲಾಗದದು
ಸಹಾ
ಉಪನರದೕಶ
ನಟಸುತತದದಾರ
ಮಾಡದವು
ನಯತಕ
ಕರಮಗಳು
ಪಾತರಗಳ
ಪಾತರಗಳಲಲ
ನಾಂದ
##itter
ಕೂಟಟದದ
ಧರಮವನನು
ಬರುತತತತು
ವಧದ
ಮಾಡಕೂಂಡದದ
ಧಾರಾಳ
ಹಣಣುಗಳು
ಪರಾಣಕ
ಸಲಹಗಳನನು
ನಲದಾಣದಂದ
ಪರೕಮಗಳ
ಗೂೕಲಡ
ಮುಂಜಾಗರ
ಹಜಾರ
ಡಾಕಟ
ಅಲಪಸಂಖಯಾತ
next
##ಾರೂಢ
ವಘನ
ವಂಗಡಸ
vknews
ಎದಯ
ಟವರ
ಮಸತ
ಯಜಞ
ಸಯಾಮ
##ುಣ
##ರಮಾ
##ಷನಸ
##ೂಸ
##ೖಡರ
##oor
ಮಾಮೂಲ
##ವರತನ
ಸಂಕರ
ಮುನರ
ಕುಂಡ
ಕಾಮು
ಬಂದದದೕನ
ಸವದೕಶ
ಕಡವ
ಮೂದಲನಂದಲೂ
ರೕಮೕಕ
ಸಂಘಗಳ
ಕಳಕಕ
ಅಸಮಾನ
ಬಳಸದರ
ಬುಲ
ಬದಲಾವಣಯ
ಕಾಯುವ
##ಸಕೂಂಡರ
ಮಹಳಯೂಬಬರು
ಬಾಂಡ
ಏರಳತ
##ಪರೕಮ
ಚಾಲಕರ
ರಾಷಟರಗಳು
ಕೕದಾರ
ಬಾಲಕಯ
ವಜೕತರ
ಅನುದಾನವನನು
ಪುಟಾಣ
ಕಲಯಲು
ಭಾವನಗಳನನು
ಮಯಾಚ
ಕಂಬಳ
ಭಯೂೕತಪಾದಕ
ನಯಂತರಸುವ
##ike
ಲಭಸದ
ಸಟೕಟಸ
ಸಲಕಾನ
ನೂೕಕಯಾ
ಕೕಪ
ಗಂತ
ಬಐ
ಭೖ
##ವಾಯತ
##ಪತಾ
##ಜಾಯ
##ತತಾಗ
##ೕರಯ
ಸಾಂಕೕತ
ಹೂಕಕ
##ನಲಲನ
ಚತರೕಕರ
ಹುನನಾರ
ಹೂೕಗುತತವ
ಆಯಲ
ದೂರನಲಲ
ತೂಗು
ಸೂೕಲಗ
ತಗಯುವ
ಸಥಾನದ
ನಾಗಾಲ
ಬಯಾಂಕುಗಳು
##ಪುಸತಕ
ಅರಥದಲಲ
ಧರಮಕಕ
##amp
ಕನಡಾ
ಪರೕತಸ
ಉಂಟಾಗರುವ
ವೕರಪಪ
ಸಮಾರಟಫೂೕ
ಸುಧಾರತ
ಸವಯಂಚಾಲ
ಹಂಗಾಮ
ಹಚಚುವರಯಾಗ
ಹಸತಕಷೕಪ
ಖಾತಯ
ಮರಣೂೕತತರ
ಆವಶಯ
##ಾರಧದಲಲ
ಸಟುಡಯೂೕ
##x150
ಡೖರಕಟರ
ಅಹತ
ಅಳತ
ಊರಲಲ
ಟರನ
ಬಪ
ವವಾದದ
##ುಕತ
##ತಣ
##ತಯಾದ
##ಯಂದರ
##ಡಲಾಗದ
##ಹಾಯ
ಮಾವ
##ತಯರ
##ವಾದರು
ರಾಮಸ
ನೕಡರುವುದು
##ಂಟಲ
##ಯೂನ
ಭಾರದ
ನೂೕಡುತತದದ
ಸಂಗಾತಯ
ಬೕರದ
##ೂೕಲಡ
##ಮೂಲನ
ಕಯಾಮ
ಇದಕಕಂತ
ತಯಾರಸಲು
ವವರಸದದಾರ
ಬಯಸ
ಹತತಕಕ
ಚಕತಸಾ
ವೕರೕಂದರ
##ಗಳನನಾಡ
ಫಲತಾಂಶವನನು
ಉಳಸಲು
ಆಳವಾದ
ವಾಸತವದಲಲ
ಅರುಣಾ
ಒಳಗೂಂಡರುವ
ಅದಕಕಾಗಯೕ
ನರಾಕರಸದ
150x150
ಪರಾಂತಯದ
ಕಾರಮಕರಗ
ತೕಜಸ
ಗಯಾಲಕಸ
ರಾಕೕಶ
##ghttp
ಮಟಟಲೕರ
ಮಹೕಂದರಾ
sit
ಅಸಥ
ಕದಯ
ಕಾಗದದ
ಗೂೕಕ
ಘೂೕರ
ಮಲು
ಮಲೕ
##ವರೂಂದಗ
##ಲುಪೕಟ
ಹೕಳು
ಅವಧಯನನು
ಪುಷ
##ಟಟುಕೂಂಡ
##ಾಮಣ
ಬಲಜಯ
ಹೂೕಗುವುದಲಲ
ಕಾರಣವಾಗತತು
##ಲಪುರ
ನಡಯಬೕಕು
ನಡಯುವುದು
ದೕಸ
ಸಂಗಾ
ಆಸುಪ
ಸಥಳಾಂತರಸ
ಚನನಮಮ
ನಗನ
ಯಾರನನೂ
ಇರದ
ಕರಮಬದಧ
ಇದದದದು
ಗೂತತರಲಲಲ
ಕರಯಲಪಡುವ
ನಂಬಕಯ
ಗುಣಗಳನನು
ಗಲಫ
comeditor
ಪರಮಡ
ನರಮಲಾ
ಬೕಡಕಗಳನನು
ತಂಗಳುಗಳಲಲ
ಉಗರಗಾಮ
ಎನನುವುದ
ನಷಟಕಕ
ರಾಜಕಾರಣಗಳ
ಕರಸಟ
1999
##ಮಾಲಾ
##ಮಾಲನಯ
999
ಪರವರತನಾ
ಒದದಾಡ
ರಮಾನಾಥ
ಅಯೂೕಧಯ
ಪಟರೂೕಲಯಂ
ಷರೕಫ
comeditorbp
part
yeddy
ಒಂಭ
ಕಎ
ಜಾದ
ಟರಸ
ದಾಸತ
ಪಎಸಐ
ರದದ
ಲಸ
ವತ
##ಜಬ
##ಯಾರು
##ದಯಾಲಯ
##ಷಾರ
##ೂಗ
##ಫತ
##oh
##17
ಮಾಡಸದ
ಮಾಡೂೕಕ
ಕರಯಲಲ
ಹೕಳಕೂಂಡ
ಕಾರಯತಂತರ
ಹಂದನಂದಲೂ
ನಡಯುತತಲೕ
ಚುನಾವಣಯನನು
ದೂರವಾಗ
ಬಸಗಳು
##ಮೂದಲ
##ens
ಮನಸು
ಗೂತತಲಲದ
ವರಗಕಕ
ಆಯಕಯನನು
ಶಕಷಕರನನು
ಮೂರತಯ
ಸತಯನಾರಾಯಣ
ರಕಷಣಗಾಗ
ಕಮಷನ
ವಹಸಬೕಕು
ನಯಾಯಪೕಠ
ಬೂಕಕ
ಸವಾತಂತರಯದ
ಬಾಲಕಯರ
ಮಠಾಧ
ಏನೕನು
ತಮಳುನಾಡಗ
ಉತಸಾಹದಂದ
ಇದಲಲದೕ
ನಯಾಯಾಧೕಶರು
ಪಯಾರಸ
ಬೕಲೂರು
ಹೂರತಾಗಯೂ
ಎಸಯುವ
ರತನಾ
ಮತಾಂತರ
ಬಾಂಗಲಾ
ಇವನನು
ಕೂೕಕ
ತರುತತದ
ದೂೕನ
ಮಡದ
ರಜಾ
ಲಾಂ
ಸೕಳ
ಸಳತ
##ಕಲಯ
##ಲಯಾಂಡ
##ಬೕಗ
##ಫಾನ
##ಗಳೕನು
##ಂಬಂತ
ಮುಂಡ
ಕಾರಪೂೕ
##ಡಯಂ
ಎಲಲಕಕಂತ
ತಮಮಲಲ
ಅನರೕಕಷತ
ಹೂರವಲಯ
ಹೂರವಲಯದ
ತರವಳ
ಸೂಕಷ
ಎಂದಾದರ
ಕಾರಣಗಳು
ಕೕಂದರಗಳ
ಮಾತರಕಕ
ಬಡವರು
ಅಸಸಟ
ಫಲಕಾರ
ಮಂಗಳೂರಗ
ಬಯಾಂಕಗ
ಕುಟುಂಬಗಳ
ವಾಹನದಲಲ
##ನಾಥನ
ಹೕಗಾಗಯೕ
ವಧೕಯ
ಮಾಡಕೂಂಡರ
ಮಸಟರ
ಸುಲಭದ
ಸಕಸರ
ಕೂೕರದರು
ಜಾಡು
ಕೂೕರಟಗ
ಉತಸವದ
ಪರಕರಯಗ
ಸೂಚನಗಳನನು
ಎಚಚರಕಯಂದ
##ಲಕಕಲಲ
ಸಳಯುತತದ
ಅಂತಯಕಕ
ಯಲಲಾಪುರ
ಆಸಟರೕ
##ಹೂೕಯತು
ನಾಯಕತವದ
previous
ನಯೂಜಲಂಡ
ಹೖಸಕೂಲ
ಶುರುವಾಯತು
ರೂೕಟರ
ಬಯಾಕಲಂಕ
6ನೕ
loc
ಋತ
ಕುತತ
ಡರಗಸ
ಬತತು
ಮಂತ
ಮೕಯ
೨೬
##cy
##19
##ನನೂರು
##ತರಾಜ
ಸಂಯೂೕ
##ವಾಂಶ
ಮುಳ
ಸುಮನ
ಹೕಳುತತವ
ಹೕಳುತತದದರು
##ಸಥತ
ಅಲಲಗಳ
ರೂಟ
ರಾಜಯವನನು
ಬಜಾರ
ಹಾಕದದು
ತಳಸುವ
ತಳಸದದರು
ಉದದಕಕೂ
ಗಡಯಲಲ
ಸಪರಧಗಳು
ಮಲನಾಡನ
ಗಾಂಧನಗರ
ಗಾಂಧೕಜಯ
ತೂೕರಸಲು
ರವಕುಮಾರ
ಕೂೕರಟನ
ಲೕಖನವನನು
೧೯೩
ಹಂದುತವ
ಹಾಜರು
ಸಂಗತಗಳು
ಕಯಾಮರಾದಲಲ
ಸಂಪುಟದಲಲ
ಆಳವಾಸ
ಭಾಷಣದಲಲ
ಮೂದಲಾದವು
ಬರಗೕಡ
ಮೃದುವ
##ಮಠದ
ಗುರುತಸಲು
ಉಪನಯಾಸಕ
ಅಹಂಕಾರ
ಸಫೂೕಟಕ
ವಾಸತುಶಲಪ
ಒಕಕಲಗ
ಬಂದೂೕಬಸತ
yeddyurappa
ಲಾಂಛ
aw
e0
ಇರುವುದನನು
ಏನನನೂ
ಕಂತು
ಭರಾಟ
ಲಯ
ಶಂಭ
##ವಂಬುದು
##ಶಟು
##ಎಲಸ
##ಫೖ
##ಫಯಾ
##ಘಟನ
##ೂೕರು
##ಂಗಾರ
##ರುವವರು
##ಷಟದ
##ನಾಂ
ಕಾಂಬ
ನರವಾಗ
ವರಧ
ಹಚಚಗ
##ತನಕಕ
##ಜನಗರ
ಹುಮಮ
##ಲಾಮ
ರೂಟಟ
ಅನಧ
ಗರಯಾಂಡ
ಸಪಷಲ
ಮಾಡುವವರ
ಪರದೕಶಗಳು
ಪಡಯತು
##ದನಗಳ
ಮಧಯವರತ
15ರಂದು
ಜಡಎಸಗ
ಲೂೕಕಾರ
ಮಾಡುತತರುವುದು
ಪರವೕಶಸದ
ವಯಾಪಾರಗಳು
ಅಮಮನಗ
ಶರೕರದ
ಕೃತಗಳನನು
ಬರಾಡ
ಶೂೕಭ
##ಹೂೕಗದ
ಗುಂಡಲುಪೕಟ
ಮದಯಪಾನ
ನವೕದ
ಹಸತಾಂತರ
ತಾಪಂ
ಸಂಬಂಧಪಟಟಂತ
ನಮೂನ
ಪಸಐ
ಅರೕಬ
ಮಣಸನಕಾಯ
twitter
ದತತಾಂಶ
ಕಾದಂಬರಯ
ಮೖಕರೂೕಸಾಫಟ
pe
ಖಾಯಲ
ತಥ
ಬಂಡರ
ಸಲೕ
೨೩
##ಗಢ
##ಮುರ
##ಮೖಸ
ಪರಫ
##ವರಸ
##ೕರಸ
ಮುರು
ಮೂಳಗ
##ರೕಮ
ಬಳಗರ
ಅವರನನೂ
##ಡಯವರು
ಬರದದದು
##ರುತತದದಾರ
##ren
ತುಣಣ
ಸಂಗತಯ
ಸೂೕಶಯಲ
##ಗುಂಡ
ನಟಯರು
ಅಸಮ
ಕರಮಗಳ
ಇವರಬಬರ
ಬರುತತಲಲ
ಕೃಷಣರಾಜ
##ame
##ಾಗದದಾಗ
##ಯಾಕಟರ
ಪರಾರಂಭಸದ
##ಬಡುತತಾರ
ಅದರಲಲಯೂ
ಪೂರವಭಾವ
ವಯಾಕರಣ
ಆಚರಸಲು
ಮೃತಪಟಟರುವ
ಸನಮಾಗಳನನು
ವರತಮಾನ
##own
ವಾಸತವಯ
ಮಂದರದ
ತಳದರುವ
ಬಳಲುತತರುವ
ಪೂರೖಸುವ
ಧಾರಾಕಾರ
ಶಾಶವತವಾಗ
ಮಯಾನೕಜಮಂಟ
ಕನಕಪುರ
ನರಾಶರತರ
ಹರಹಾಯ
ಎಪಎಂಸ
ಡಎಂಕ
ಡಯುಯಲ
ಸರಟಫಕ
ಗೂರ
ಗಂಧ
ಬಂಜ
ಲನಸ
ಲಹರ
₹2
##ಎಮ
##ಐಸ
##ವಾಗರುತತವ
##ಯಲಲಯೂ
##ಾದಂದ
ಸರತ
##ವೕಸ
2020
ಚತರಗಳಗ
ರಾಜಯಗಳಗ
ಸೕರಸುವ
ದರೂೕಣ
ಕೂೕಟಗೂ
ಪತರಗಳನನು
ವಧಾನವನನು
ಬಡುಗಡಯ
ಎನಫೕಲಡ
ಇಂಡಸಟರ
11ನೕ
##aksh
ಮೂರತಯನನು
ನಲಮಂಗಲ
ನಡಸದಾಗ
ಉದಯೂೕಗಗಳು
ನರಾಳ
೧೯೪
ಉಳಸುವ
ಕೃತಗಳು
ಹಾಡುಗಳ
ಬಳಗಾವಯ
ಹೂರಟದದ
ಕೂಳಳಲು
ಪೕಠದ
ನವೕಕರಣ
ಜಾಹೕರ
ಮೕಸಲಾ
ಚತತಾರ
ಮಶರತ
ವಾಡಕ
ಕರೕಡಾಕೂಟದಲಲ
ಇನಸಟಾಲ
ಪೕಳಗ
ಖಾದಯ
ಟಾಲವುಡ
ಆಧುನ
ಅನುಮತಸುತತದ
ನಯತಕಾಲಕ
1ರಂದು
wat
ಒಳತ
ಚಾವ
ಜೕನ
ಟಲವ
ವಾತ
##ಗಲಲ
##ಮೂೕರ
##ಲಜ
##ಲಕಷಣ
##ದವಾರ
##ಸರುವುದು
##೦ಟ
##br
##ನನನಾಗ
##ಗಳದದರೂ
##ದರಲ
ಮಾಡುವುದೕ
##ವಾತ
ಕಲಯನನು
ಸರಚ
##ಯಾಗಬಹುದು
ಇಲಲೂಂದು
##ೂೕಡನ
ಸಥತಯ
ಮುಂದೂ
ಜಲಲಯಾದಯಂತ
ಪೂನನ
ಅನತಾ
ಆಯೂೕಜನ
ಮೕವು
ಬಳಕಯನನು
ಸಂಬಂಧವಲಲ
ಭಾಗಗಳು
##ಯಯದ
##ಧಾರತ
ದರಜಯ
ರಾಷಟರಾ
ರಾಷಟರಮ
ಪಡಯುತತದ
ತಪಪತ
ಪಾತರಗಳನನು
ಕಾಯದರ
ಮಂದಣಣ
ಜಾರಖಂಡ
ಮೖಸೂರಗ
ಕೂಟಟದದು
ಅಡಚಣ
ರಚಸುವ
ವಸತುವನನು
ಸಲಹಗಾರ
ಪತನಯನನು
ಲಾಭವನನು
##ಾಗರಬೕಕು
ಬೂಂಬ
ಅಪಾಯದ
ಹಕಕುಗಳನನು
ಅಂಗಡಗಳಲಲ
ಟೖಮಸ
ಇವಲಲಾ
ಇರಸಕೂಳಳ
ಉಪಕರಣಗಳು
ಏಜಂಟ
ಏಕಕಾಲದಲಲ
ಅಸೂೕಸಯೕಷನ
ಪರಶುರಾಮ
ಅನಧಕೃತ
big
em
ii
sidd
ಆಂಬ
ಇಂಪ
ಇದಯೕ
ಟರಯಲ
ನಸು
ಪಡಡ
ಲೕವಡ
ಹಬ
##ಂವಕ
##ಾತು
##ನಂ
##ೂಳಳ
##ಅಂಶ
ಪರಸದದ
##ುವಂಥ
##ವಾಗಲಲಲ
##ೕರಯಾ
ಸಾತವ
ಎಂದುಕೂಂಡ
##ನುಗುಣವಾಗ
ಕರಯೕ
ಹೕಳುತತದದ
##ಯೂಸ
ಇಲಲಯೕ
ಹುಸೕನ
ಹೂರಳ
ಮತತೂ
ಎಂದಾದಲಲ
ದೕಶವಾಸ
##ವನಾಗ
ದೂರಕಸ
ಸಾಧಯವಾಯತು
ಸಂಬಂಧಗಳು
ಆತಥ
ದೂಡಡಬಳಳಾಪುರ
108
190
ವಾರಕಕ
##ುವುದಾದರೂ
ತಾಂತರ
15ನೕ
ಒಳಪಟಟ
ಕವಚ
ತರಗಯನನು
ಎಚಡ
ಬಾಳಗ
ನಂತದದಾರ
##led
14ನೕ
ಕೂರಯಾದ
ಕಾರಯಕರತರಗ
ಇನಂಗಸ
ವೕರಯ
ಉಲಲಾಸ
ನದಗಳು
ಘಟನಯನನು
ಗುಂಡಗ
ಜಗತತನಾದಯಂತ
ಕಬಬು
dec
ಅಮಾನವೕಯ
ಕರಾಂತಕಾರ
ತಣಣಗ
govt
ಜನಸಾಮಾನಯರಗ
ನಟಟುಸರು
ದುರದೃಷಟ
ಹೕನಾಯ
##ಪಂಥೕಯ
ಬಾವುಟ
ಅಹತಕರ
dis
ser
ಗೕಲ
ಠಾ
ಬಲಾ
ಬಯರ
##ೕವಾ
##ಯವರನನು
##ಲಕಷಮ
ಪರೂಟ
##ಾನಂದರ
##ವರಧಕ
##ರೕಕರಣ
##ಲಾಗತದ
##ಾಸಪದ
ಆರಕ
ಇಲಲದಂತ
ಎಲಲಂದರಲಲ
ಪುಸತ
ನೂೕಡದರೂ
ಹೂರಡುವ
ಬೕಡು
ಕಾಂಗರಸನಲಲ
ದೂರದರಶನ
##ೂೕಧನ
ಸಂಸಥಗಳನನು
ಘಟನಗಳನನು
inf
ವಶೕಷವಾದ
ಪರಶನಸದ
##ಾಗದದಾಳ
ಪೕಮಂಟ
ಬದದದದಾರ
##ays
ಗುಂಪನಲಲ
ಸಂದೕಶಗಳನನು
ಕುತೂಹಲಕಕ
ಬೕಜಂಗ
ಸಹೂೕದರರು
ಹರಸಾಹಸ
ಔಷಧೕಯ
ಸೖನಕ
ನೖಸರಗಕವಾಗ
ಕುಣತ
ಪರೂಫಸರ
gand
ಕಕಕ
ಟಾರಗ
ಧನು
ನವಾಜ
ಲೖಸ
ವಸು
೨೭
##ರಂತ
##ವನೕ
##ಕವನನು
##ಸಡ
##ಸೕವ
##ಸಟಕ
##ಟೕ
##ja
##qu
##ವರಧ
##ಕರೕ
##ಂಗಮ
ಮೂಗನ
ಮೂಡುಬದರ
##ಯಾಗರ
ಹೂನನಾ
ಗುಟಟು
ಬರಬರ
ವಶೕಷಣ
##ತಾತಮ
ಕಾರಯಕಾರ
##ಧಾನಯ
ಎಂದಲಲಾ
ಗರಹಸ
ನಗರವು
ಹಲವರ
ಕಾಣುತತಲಲ
##ತಸವ
ತೂಳದು
ಮಾತನಾಡುತತಾ
ಕಂಡದದ
ಲಕಷದ
ಬುಕಕಂಗ
ಆರೂೕಪಗಳಗ
##ali
##ುವುದೂೕ
ಬರುತತದದು
ಹಾರಸ
ಮಾರಗವನನು
ದಾರಯನನು
ಆರಥಕತ
ಸಕೂೕರ
ಗದದದದಾರ
ಕೂೕರಟನಲಲ
ಕಟಟಡಗಳ
ಭಾಗವಹಸದದ
ಕೕರಳಕಕ
ಅಂಗಡಯಲಲ
ಮುಂಚಯೕ
ಒಳಗೂಂಡಂತ
ಕುರುಕಷೕತರ
ಶವರಾಜಕುಮಾರ
ನಭಾಯಸ
ತರವುಗೂಳಸ
class
ಅಣಕಟಟು
ಅನೖತಕ
ಗಂಜ
ಡು
ದಹನ
ನವರು
ಮುತತಗ
ರಾರಾಜ
##tm
##ಸಾವರ
ಪರಪರ
##ವರಟ
##ವರುವುದು
ಕಲಕಾ
ಅವರದು
ನರವನ
ಹೕಳದರೂ
ಎಲಲಲಲೂ
##ಂಪನಮೂಲ
mod
ಮಾತದ
ರೖಲನ
ಹಾಕುತತಾರ
ಹೂಂದರುತತವ
ರೂಪಸಲು
ವೕಸಾ
ಅಸಭಯ
##alk
ಬಟಟಂಗ
ವಶೕಷವಂದರ
ಪಾತರಧಾರ
ನಾಗರಾಜು
ಅನನದ
ನೂೕವನನು
185
ತಾಯಯನನು
ಟರೂೕಲ
ನವದಹಲಯಲಲ
ಮಾದರಯನನು
ಪಾಕಸತಾನಕಕ
ಪಾಕಸತಾನದಲಲ
ಪೂೕಷಣ
ದೕವಾಲಯವು
ತಾರೕಖ
ಮುಂದುವರದು
ಆಗರಲ
ಜೕವಾ
ಎಲಕಟರಾನ
ಕೂಬಬನ
##ಹಡದು
ಪರಢಶಾಲಾ
ಲಖತ
ದನನತಯ
ಮುನನುಗಗ
ಸುಸಜಜ
wom
ಉಸರ
ಏನನನು
ಗೂೕಷಠ
ಗರೕಟ
ನನಯ
ನತನ
##ಮನಗ
##ಯತತ
##ಬಾನ
##ಸಂಸ
##ಡುತತದ
##ೂೕಬಲ
ಮೂನ
ಮೂಗಗ
ನೕಡವ
##ದಯೂ
##ಸತವ
ಜನಜ
ಎಸದು
ಜೕವಗಳು
ಸದನ
ಹಸರಾಂತ
ದರಬಲಯ
ಪರಯಕರ
ಸಾಧನಯನನು
ಮಾಹತಗಳು
ಅಧೕಕಷ
ಹನನಲಯ
ಸಂತಸದ
ನಾಲಕೂ
ಯಶಸ
ಇಡಲ
##orm
##ಕಲಯಾಣ
ಮಾಧಯಮಗಳಗ
ಮನಯಲಲಯೕ
ರೕತಯಾಗ
ರೂಪಾಯಗಳ
ಯೂೕಗದ
ಕೖಗೂಳಳುವಂತ
ಅಂಕಅಂಶ
ಬದಲಾವಣಯನನು
ವಯಕತಪಡಸದದರು
ಉಳಸಕೂಳಳ
ಘಟನಗ
ಹೂಟಟಯ
ಅಂತಯಕರಯ
ಬಾಡಗಗ
ಬಎಸವೖ
ಕಂಡುಬರುವ
ವಯಕತತವದ
ಕುಲದೕಪ
ಪರವರತಸ
ರಫೕಲ
ಚಾಕುವನಂದ
##arend
ಚತುರ
ಲಲತ
ಕರಮಕೖಗೂಳಳ
ತಕರ
ತರುವುದು
ದಾದ
ಮರೕ
ಶಸತ
ಸಆರ
##ಪಟು
##ನಂತಹ
##ತತಲಲ
##ೂೕಲಾ
ಪರೕಯ
##ುವವರಗ
##ವಾಳದ
ಕೂಲಸಟರ
ನಡಸುತತ
ಕಲಹ
ಸುಶೕಲ
ಹೕಳಕೂಡ
##ಕಾಭ
ಬಂದೕ
##ಯೕತರ
ಹೂೕಗೂೕಣ
ಒಂದೂಂದ
ದೕವದಾಸ
ಪೂರತಯಾಗ
ಹಸನ
ಚನನೖನ
102
ಸೕವನಯಂದ
##ಪತರಕ
ಗೂೕಕರಣ
ಗಾಳಗ
##ಶಚಕರ
ಭಾಷಾಂತರ
ಪರಯತನಕಕ
ತಳಯುತತದ
ವಹಸದದ
ವೕರಭದರ
ಒಮಮೂಮಮ
ಕಾಡುವ
ನಾಡಗ
ಬನನಗ
ಬಳಗಾವಯಲಲ
ಶಾಸಕರಾಗ
ವಾಪಾಸ
ಪರವಾಹದ
ಪಡದುಕೂಳಳಲು
ಅಖಂಡ
ಹೂರಬದದ
ಮರವಣಗಯಲಲ
ಎಳದು
ಪಯಾಂಟ
ಘನತ
ಮದದೂರು
ವೃಂದದ
ಮುನರತನ
ಟಾರಗಟ
ಇಂಜ
ಓಲ
ದಯಾನಂದ
ಬೂೕಪ
ಮಂಚನ
##ಕಲು
##ಮೕಟ
##ಬಡದ
##uk
##ಸಲೕ
##ಂತದ
##ಯಾಂ
##ಯಾಕಸ
ಬಳದದ
ಕರಗಳನನು
##ಳಯು
##ವಾರಥ
ಹೂೕಗಲಾ
ತರದುಕೂಳಳ
ತರಪು
##ವರಗದ
ಆಯಕಯ
ಸಪೕನ
##ink
ಪಡಯುತತಾರ
ಎರಡನ
ಭರದಂದ
ಗರಾಫ
ಸಪರಧಸದದ
ಪರಯತನಗಳು
ಮಾಡಕೂಳಳುವುದು
ಪರವೕಶಕಕ
ಧಾರವಾಡದ
ಸಂಜನಾ
ವಭಾಗೕಯ
ಕನಸನನು
ವಡಯೂೕವನನು
ಜೖಪುರ
ಮಾಡುತತದದೕನ
ಜಲಲಾಧಕಾರಗಳು
ಮತದಾರರಗ
ಕೖಗಟುಕ
ಮಯಾಜಕ
೨೦೧೭
ಪಾದಯಾತರ
ಕಾರಯಕರತರನನು
ಪರಾರಯಾಗದದಾರ
ಯುವತಯರು
ಪರಾಂತಯ
ಹಜಜಯ
ಒಗಗೂಡ
##ಬಹುದಾಗದದು
ಅವಭಾಜಯ
2ರಂದು
care
ಗಗ
ಚಮಮ
ಟಸ
ನಲಗ
ಪಲೕಸ
ಬಚ
##ೂಚ
##ೖತ
ಪರಣಯ
ಮಾಸದ
##ರಾದರೂ
##ಯಾಗದದರ
ಹಚಚುವ
ಎಲಲದರ
ಬರನ
ಬರಯಾಂಡ
##ೕತುವ
ಬಲವಾಗ
ದೕಶಗಳಗ
ಮಾರಕಸ
ಹಾಕುತತದದಾರ
##ಸಸಸ
ಮಾಡುವವರಗ
ಸಾರುವ
ವಯವಸಥಾಪ
ತಂದಗ
ಜಾಗರೂ
ಜಗನನಾ
ಕೃಷಗ
ಇಷಟವಲಲ
ಕನಯಾ
ಎಲಇಡ
ಆಲಬ
ಅಭನಯಸದದಾರ
##ett
##ವಂದೂ
ಸಂತೂೕಷದ
ನೖರಮ
ಮಂಜುಳಾ
ಪುರಸಕೃತ
ಬಳಳಾರಯಲಲ
ನವಾರಣಗ
ಧವಂಸ
ಕರದೂಯ
ಆವಷಕಾರ
ಪರವಚನ
##ಪೕಡತ
ಬಹುನರೕಕಷತ
ಕರಮಾಂಕ
ಕೂಲಸಟರಾಲ
can
ಕಯ
ಕಣಗ
ಜಪತ
ಡಾನ
ರಟರನ
ರಲಾಯ
##ಭಾಯ
##ಾಗಯೂ
ಕಲಕಯ
ಕಾರಟ
ಸರಯಾಗದ
ಕುಮಟ
ಜನರೂ
ಬರದಂತ
##ರುತತಾಳ
ಕಾಲದಂದ
ವೖವಾಹಕ
ಉಪದೕಶ
ಉಪಹಾರ
ಕೕಂದರಗಳು
ಸಟಾರಟ
ವಚಾರದ
ಮೂೕದಗ
ಬೕಕಾ
##ಸದದಾಳ
##ಸಕೂಂಡದದ
ಕಥಗಳನನು
ನಂಬಲಾಗದ
180
ಕರಕಟನಲಲ
ಸದದರಾಮಯಯನವರ
ಮಸೕ
ನರವಹಣಗ
ಕೂಲಯಾದ
ವೃತತದ
ಕಾವಲು
ಸಂಭರಮಾ
ಪಲಟ
##ಬಟಟದದಾರ
##ೂೕತಸವದಲಲ
ರನಗಳ
ಸಂಶೂೕಧಕರು
ಎಷಟರ
##ರಾಷಟರ
##ಪೂರವಕ
ಕಲಯುವ
ಸಮಮೕಳನಾ
ಸಪಂದನ
ಬಾಹರ
##ಚೕತನ
ಸಾಮಗರಗಳು
ಸಾಮಗರಗಳನನು
ಬಯಾನರಜ
ಸಂಧಯಾ
ಡೕಟಾವನನು
ಮಂಗೂೕಲ
ಪೂೕರಚು
ಹುರದು
ನತೕಶ
ಕಲಾಕೃತ
ಸುಬರಮಣಯ
ಸರಟಫಕೕಟ
ರಲಾಯನಸ
acc
high
sch
ಅಲಕ
ಕಂದು
ಟೕವ
ಬವರು
ವೂೕಲಟ
ಹಡಸ
##ಾತನ
##ಕಟಟು
##ೕನಲಲ
##af
##ಸಂದರ
##ತತಗೂ
##ಟಟನನು
##ವಾಗದದವು
ಮಾಡುವುದರ
##ರಾದರ
ಸುರಸ
ಹೂಗಳು
ಹೕಳವ
ಅವನೕ
##ಲಕು
ಸರಕಾರಗಳ
##ಾಪಾಯ
ನಲಲಸದ
ಅಧಕಾರಗಳೂಂದಗ
ವದಯುನ
ತೂಗರ
ತಂಡದಂದ
ಆರೂೕಪಕಕ
ಗೂೕಣ
ಮಕಕಳೂಂದಗ
ಬಯಾಂಕಗಳು
ಗೂತತಾಗುತತದ
2018ರಂದು
ರಾಜಕೕಯವಾಗ
ಕೂಟಟದದರು
ಪಾರಂಪರಕ
ಟರೖ
##ತಯಂದಾಗ
##ಸುತತದದವು
ಹೖಡರ
ಲಭಯವಾಗಲದ
ಸನೕಹತನ
ಬದದರುವ
ಅಧಯಯನದ
ಚೕನಾದಲಲ
ಒತತಡಕಕ
ಶಶಾಂಕ
ಕೖಗೂಂಡರುವ
ಶಾಪರಸ
ಪಾಂಡಯ
ವಫಲವಾಗದ
ಪರಗಣಸಲಾಗುತತದ
ಗುರುತಸುವ
ಬಡಡದರ
ಪರೕರತ
ಸನಮಾನಸಲಾಯತು
ಪತರಕಾಗೂೕಷಠ
ಅಚಚುಮ
ಪರಕಲಪನ
##ರಸಥಾನ
ನರಭಕಷ
ಆತಂಕಕಕ
ಕೖಲಾಸ
ಶವೕತ
ಆಯುರವೕದ
fe
jds
ಉಚಛ
ಗದದರು
ಡಾಟಾ
ಪಳಗ
ಬಟರ
ಬಸಯ
##ವಟ
##ಾಖ
##li
##68
##ಗಳದ
##ಗಳದು
ಕರೂೕ
ಕರತರ
##ಯಾಗುತತರುವ
##ಮಾತಯ
##ಂಟಂಗ
ನಮಮಬಬರ
ಹೕಳುತತ
ಹೕಳುತತಾ
##ಸುವವರಗ
##ವೕದಯ
ಕಾಲಘಟಟ
##ಮುಚಚ
##ತಯಲಲರುವ
ಸಂಬಂಧಕರು
ನೕರಗಾಗ
ಇನನೂಮಮ
ಚನನಪಟಟಣ
ಸೕವಕ
ಸೕವಯ
ಬುಲಟ
ಸಕಕತತು
ವಭಜನ
ಹಸರುಗಳು
ವಾಹನಗಳಲಲ
ಮಹಳಯರಲಲ
ತೕವಾಂಶ
ಪರಯಾಣಸುತತದದ
ಕುಮಾರಸವಾಮಯವರು
ಮಾಡಕೂಂಡರು
ಕಾಲೕಜುಗಳು
ಚಟುವಟಕಗಳಗ
ಆಚರಸಲಾಯತು
ಘಟನಾ
ಟೕಕಸದರು
ಪರಯೂೕಗಾಲಯ
ಗಳಯರ
##ಫರನಸ
ಜಲಾಶಯದ
ಕಳುಹಸದ
ಹಲಲುಗಳು
##ricket
ತಾತಕಾಲಕವಾಗ
ತವರತವಾಗ
##ಾಶರಮ
ಅದಧೂರಯಾಗ
ಸಹಸರಾರು
ಕಟಟುನಟಟನ
ಎಲಲದಕಕೂ
ತಂಬಾಕು
ಇನಫೂೕಸಸ
ಗಯಾಲರ
kr
ಆಜಞ
ಇಲಕಟರ
ಖನನ
ಚೕರ
ಜವಾಹ
ಸಲೕಸ
##ಾರೂೕಹಣ
##ತರೂ
ಮುಳಳ
ಕೂಂಬ
ಹೂದಕ
ಎಂಬುವರ
ಇಲಲೂ
ಗುರೂ
##ಮಾನಕ
ಅರಜಯ
##ೕನಹಳಳ
ಹುಡ
ತುದಗ
ಸವತಾ
##ದಂತಯೕ
ಮಾರುವ
ಮೕಲುಗ
ತಳವಳಕ
##ಗಾರಕಗ
ಕಾಣುವುದು
ದೂರವರ
ಸಟೕಷನ
ಬಡಲು
##ina
ಪರೕಕಷಕ
ಅಂಗಡಗ
ಕಂಡುಕೂಳಳ
ಅದಕಕೕ
ಅಂತರಜಲ
ಮಾಡುತತಲೕ
ನೂೕಟುಗಳು
ಕನಡ
ದೃಶ
ಅರಜಂಟ
ಬಂಡಯ
ದುರಘಟನ
ಅಭಪರಾಯವನನು
೧೯೧
ಭಯಂಕರ
ಇಳುವರ
ವಜಾಗ
ಸವಯಂಸ
ಪರಭಾರ
ಪರಢಶ
ಸುತತಮುತತಲ
ಪೂರೖಸಲು
ಸಸಟಂ
ಭುಗಲ
##ಡಎಂಕ
ವತತೕಯ
ಮುಸಲಮರು
ವಾಸುದೕವ
ಕಮರಷಯಲ
ಜಲಸಂಪನಮೂಲ
ಅಧವೕಶನದಲಲ
ತುಂಗಭದರ
ಸಕಲೕಶಪುರ
ಸವಾಯತತ
ದಾಸತಾನು
ಜಗನನಾಥ
cent
ಅಳು
ಖಂಡನ
ಗುತತ
ಗಣಯ
ತವಕ
ಪನನ
ಲಾಹ
ಲಾಬ
ಸಕಕಾಗ
೬೦
##ಾಜನ
##ಸಪ
##40
##ರುಗಳ
##ಗಳತತ
ಮಾಡಬೕಕದ
##ತಯಯ
##ವಾಟ
##ರಾತ
ಕಲಕಷನ
ಕಾವು
ಆದರೕಗ
ಮಹಾರ
ಇದಯಾ
ವಶವಾ
##ಯೕಂದರ
ಸೕರಕೂಂಡ
##ಾಟದಲಲ
ಕಷಪರ
ಕಷುಲಲ
ಕಾಣುತತವ
ಕೕಳದದ
ಇದೕನ
ಬಡದು
ಬಹುಸಂ
ವದಯಾರಥಗಳಲಲ
ಶವಸೕನ
ಆಟಗಳು
##ಸದದದರ
ಮಂಡಯದಲಲ
ಇಡಲು
ಹಡದದದಾರ
ಚರಚಯ
ತಲಮಾರನ
##ಸಥಾನದ
ಗಾಯನ
ತಳಯತು
ಅಶವ
ಸಥಾಪನಗ
ಬದಲಾವಣಗಳು
##ುತತದದುದು
ಬದುಕಲು
ವಯಸಸಾದ
ಪಂದಯಗಳನನು
ಸಮಾರಂಭಕಕ
ಸಬಲೕಕರಣ
ಜಲಾವೃತ
ನರದೕಶನದಲಲ
ಪರತನಧಸುವ
ಬಹರಂಗಪಡಸ
ಯುವಕನನನು
ನಹಯ
ವವೕಕಾನಂದರ
ಪೂರೖಸದ
ಅಣಕಟಟ
ಅವಲಂಬಸ
ಚೂಕಕ
2007ರಲಲ
ಭಟಟರು
ಮಥುನ
ಮತಯಂತರ
ಅಮೕರಕಾದ
ಚಂಡಮಾರುತ
ಕಲುಷತ
ಕರುಣಾನಧ
ಕೂೕಮುವಾದ
ಸರಾಗವಾಗ
ಗೂೕಕಾಕ
spe
ಅಪಪು
ಚೕತ
ತಳು
ನಕಕು
ಮಗಳಗ
ಶಲೂೕಕ
##ವನನನು
##ಚದ
##ಫೕಸ
##ನನನೕ
ಪರಹಲಾದ
ಮುಜ
ಮೂವ
ಕೂಲಯ
##ಾಸರ
ಕುಶ
ನೕಡಲ
ಹೕಳುತತಾನ
##ದಧಾರ
ಅರಮನಯ
ಸಹಪಾಠ
ಪರತಸಪರ
ತುಂಟ
ಅನುಸರ
ಹೂೕಗು
##ಂಜೕವ
ಹೂೕಳ
ನಗರದಲಲರುವ
ಯೂೕಧರ
##arama
ಒಂದೂಮಮ
ಅತವೃಷಟ
ಯುವತಯನನು
ಸಗುತತ
ಹರಯುತತದ
ಇರುವವರಗ
ಜೂತಗೕ
ಜಡಪ
##icle
ವವರಸ
ಏನದ
ಹಂತವಾಗ
ಚಾಲತ
ಸತಯದ
ಕೂರಗ
ಅಭಮಾನಗಳನನು
ಮುನನಡಯ
17ನೕ
ವಸತುವ
ಸೖನಾ
ಕತತಲ
ಘೂೕಷಸಲಾಗದ
ಸವೕಕರಸದರು
ಭಾಗವಹಸಲದದಾರ
ಹೂಟಟಯಲಲ
ತಂಗು
ಸಲುಕದ
ತಕಕಷಟು
ಅನನೂೕದನನು
ಕಲಸದಂದ
ಸಾಕಾಗ
ಆಗಮಸದದ
ಸಂತರಸತ
ಪದಾರಥಗಳನನು
ರಾಶಯವರಗ
ಹೕಮಂತ
##ವೕನಂದರ
ಅವಶವಾಸ
ಉಜವಲ
ಇಂಡೂೕನೕಷಯಾ
ಕಾಂಕರೕಟ
ಜಪಾನನ
minister
ಕುಂಕುಮ
ಮೕಲುಗೖ
cricket
ಕತಯ
ಜಕಾರ
ಜರಗ
ಬಕ
ಬತತದ
ಭಜನ
ವಕಲ
##ತಾರಾ
##ಜಡ
##ele
##ವರೂಪ
##ಂಗಗಳು
##ನಾಂಶ
ನೕಡದರೂ
ನೕಡಲಲಲ
ಆರಡರ
##ೂೕರಟನ
ಸವಚ
##anet
ಅನುಗರಹ
ಬಜಾಪುರ
ಆಯಕಷನ
##ಯುಗ
ಕಾಣುವಂತ
ಸಲವರ
ಒಂದನೕ
ಭಾಗಶಃ
##ಯೂೕದಯ
ಗಳತ
ವಯವಹರಸ
ಸೕವಸದರ
ಮಧಯಂತರ
ಮಧಯಪರವೕಶ
ಮಕಕಳಂದ
110
ಚರಚಗಳು
ಮೂಡಬದರ
ವಕೃತ
ಪರಾಣಾಪಾಯ
ಪರಸರಕಕ
ಮನುಷಯನಗ
ಜಾತಕ
##ಸಂಹ
##ಯಾಗದದಾಳ
##ಹೂೕಗುವ
ಸಡಡು
ತೕರಮಾನಕಕ
ಟೖಗರ
ಸಾಹತಗಳು
ಗೂೕಡಂಬ
ಭಾಗವಹಸದ
ಸವತಂತರವಾಗ
ಸಂದರಶನದಲಲ
ಜಾತಯತೕತ
ಹರದಾಡುತತದ
ಸಾರಥಕ
ಶಲಾಘನೕಯ
ಶಾಹದ
ಬಗಬಾಸ
ಜಾಹೕರಾತ
gandhi
ಹೂನನಾವರ
9ನೕ
jul
your
ಅಕಸ
ಗಾಣ
ಚಳಳ
ಪೂೕಟ
##ಯಪ
##oy
##ೂೕರಾ
##ಯಾಕಟ
ಸಂಬಂದ
##ರಾಳ
ನೕತಯ
ಕಲಸುವ
##ಹುದೕ
ಆಗರುವುದು
ಅವನಾಶ
ದನಕರ
ಹುತಾತಮ
ಅಲಲಾಹ
ನನನದೕ
ಪರಶನಯನನು
##arm
##ates
ಕಂಡರೂ
ಆತಮಕ
ದಾಖಲಾಗದದು
ವೕಳಾಪಟಟ
ನಡಸಕೂಂಡು
ಉತತರಪರದೕಶದ
ಚರಂಜೕವ
ಆನೕಕ
ಒಳಚರ
ಅನುಭವಸುವ
ಕಥನ
ತೂೕಳ
ಸಾಹತಯದಲಲ
ಮಾರಗಸೂಚ
ರಂಗದಲಲ
ಕಪಲ
ಕಾವಯದ
ಸಾಧನಗಳು
ನರಾಕರಣ
ಇತಯಾದಗಳನನು
ನತಯದ
ನಾಯಕರಾಗ
ಚನನೖನಲಲ
ಒಪಪಂದಕಕ
ನಗರಸಭಯ
ಕೂಳಚ
police
ಭುಜ
ಆಯುಕತರು
ಲಖನ
ಪೃಥವ
ಪಸತೂಲ
ಆತಥೕಯ
##arendra
##aramaiah
fir
rah
ಎಕಾ
ಛಂದ
ಜದದ
ಟರಮ
ರೂೕಹ
ಶಾನ
ಸೂೕಪ
##ವಪ
##ಮಗಳು
##ಚಟ
##ಾಗಯ
##ತತಯ
##ವಾಗದದರು
ನಡವಳ
ಸಮತಗ
ಸುರಂಗ
ಅವರಬಬರ
##ಕೂಂಡಲಲ
ಇಲಲದದದರೂ
ವರಷಾ
ಹುದು
##ರಯದ
ಬಲಟ
##ಕರಮಣ
ನೕರಲಲ
ಮಾತನಾಡರುವ
ಸಟಂಟ
ಆರಂಭಗೂಂಡ
ಆರಂಭವಾಗುತತದ
##ೂೕನಮುಖ
ಜಗನ
ಪರಚೂೕದನ
ಅಷಟಾಗ
ಸಕಾಲ
ಹಂದೂಗಳ
ಕಾಡಾನ
##ema
ತೂೕಟದಲಲ
ಉದಯಮಗಳು
ಶೕಘರವಾಗ
ಮೃತರ
ಫೂೕನನ
##ದಯಾಧಕಾರ
ಹಮಮಕೂಳಳಲಾಗದ
ಚುಕಕಾಣ
ಜಂಕಷನ
ವಂಕಟರಮಣ
august
ಮಜಜಗ
ಮಲೕಷಯಾ
ಸಮಮೕಳನಾಧಯಕಷ
ವದಯುನಮಾನ
bh
tem
ಛತರ
ಜಾಗದ
ಜವಳ
ನ೦
ಭೂೕಗ
ಭಕತಯಂದ
ಸಧಯ
ಹರಣ
ಹತದ
##ಶರಮ
##ಬಂಡ
##ೂಜ
##ಭರ
##get
##ಂತಾಗದ
##ಕಕಕೂ
##ಕರನಾಟಕ
ಸುಶ
##ಲೕಟರ
##ಲೕಬೕಕಾದ
##ರಗು
ಬರದರು
ದನಕಕೂಂದು
ಅನುಪಾತ
##ಯೂೕಲ
ಅತೕವ
ಅಸಂಖಯ
ಕಾಯದಯನನು
ವರಗನ
##ital
ಕೃಷಕ
ಇಷಟವಾಗ
##ಗಳೂಳಗ
ಅಂತರದ
ಲೕಖಕರ
ದಾಖಲಗಳ
ಪರಾರಂಭಸ
ತಳಯುವ
ಮೃತಪಟಟು
ಪರಸರವನನು
ಫಲತಾಂಶದ
ಮುಂದುವರದದದು
ಕುತೂಹಲಕಾರ
ಆಚರಣಗ
ಕಾಣಸಕೂಂಡದದು
ಹುಡುಕುವ
ಸಮಾನತ
ಸವಾರಸಯ
ನರವಹಸುತತದ
ಫೕಮಸ
ಆವೃತತಯ
ಪದಾರಥಗಳು
ಬರೕಕಂಗ
ಎಐಎ
##ವಾಸದಂದ
ಶಾರೕರಕ
ಫಲಾನುಭವಗಳಗ
ಯೕಸು
whats
ರೂಡರಗಸ
ನೕನಾಸಂ
ಶವಾಸಕೂೕಶ
ಹಣದುಬಬರ
ಇಮಮಡ
ಕುದುರಮುಖ
ಲೂೕಕಾರಪಣ
ಒಳಚರಂಡ
ಚಪ
ಜತಯಲಲ
ಡಾಟ
ದತ
ಬೖಲ
ಲೕನ
ವಟಲ
ಹಯೂ
##ನವರಗ
##ಬಂದು
##kumar
##ಸಂಪ
ಮಾಡಬಹುದಾದ
ಸಂವೕ
##ಗೂಲ
ಕಲಂ
ಕಲಕಾಲ
ಸುಜುಕ
##ಯಾಗಯೕ
ರಾಜಸತಾನ
ನಮಮದಯ
ಅವಹೕಳ
ತುದ
##ುರಟ
ಹೕಗದದರೂ
ಅಂತಲಲ
##ೂೕಪಾಯ
##ಾಹರ
##ಸಲರುವ
ತೂಡಕ
ವಯಕತಗಳಗ
ತುಂಬು
ತಗಲ
ಮುಖಭಂಗ
##ಗೂಳಳುತತವ
ತಪಪಗ
ತಂದದದಾರ
ಬಾಲಕರ
ವರಗದಲಲ
##ict
ಹಸರನಂದ
ಜಗತ
ಅನನಸ
##ite
ಮಹಳಯಾರ
ಕರೕಟ
ಕರಯುವ
ಗುಣವನನು
ಪರಯತನದಲಲ
ಸಪಷಟಪಡಸ
ನಯಮವನನು
ಉಳದರುವ
ಪೂರವದಲಲ
ಜಾವಾ
ಉತಪಾದಸುವ
ಬಾಲಕಯನನು
ತಾಣದಲಲ
pric
ಬಳವಣಗಯ
ಆಯೂೕಜಸಲಾಗದ
ಸುರಕಷತಾ
ಎತತರದಲಲ
ಜೕಬ
ಹತೂೕಟ
ಭಗವದ
ಸರಸು
ಕಾಣಸಕೂಳಳುತತದ
ಒಳಳೕ
ಮೕಳದ
ಮೕಡಯಾದಲಲ
ಸಜಜನ
ರಪೕರ
ಷೕರುಪೕಟ
ಅನುಮೂೕದ
ಸಹಯೂೕಗದೂಂದಗ
ಟವಟರನಲಲ
ಸಾಮರಾಜಯದ
ಫಾಂಟ
ಮಹಾವದಯಾಲಯ
ಯಲಹ
ಟೂಮಟೂ
ಠಾಕೂರ
ಕಷುಲಲಕ
ಉಂಗುರ
ಜಕ
ಟಟ
ಡಡ
ಪಂತ
ರಬಬರ
ರಂಜನ
ಸತು
೨೮
##ರಗಳು
##ಪಾಸ
##ಪಂಚ
##ಯಂ
##ೂಮ
##bs
ಪರಭಾಷ
##ಯಾಸತ
##ಕೂರು
##ಂಬಂಧ
##ರೕಗಡ
ಸುಭದರ
##ಯಾಗುವುದಲಲ
ನೕಡುತತೕವ
ಆರಮ
ಸೕರಸಲಾಗದ
ಬಲಡ
ನಗರವನನು
ರೂಪಾಂತರ
ಅತೃಪತ
ಬೕರಯವರಗ
ವಯವಸಾಯ
ಭಾಜನ
ಚರತಯ
ಮಂಡಯದ
ಇಡುವ
ಅಭಯರಥಗಳಂದ
ಧರಮಗಳ
ಮನಯವರ
ಹಾರುವ
ಅಡವ
ಒದಗಸದ
ಸೂೕಮಣಣ
ಹೕಳದಳು
ಪರಾರಂಭದಲಲ
##ings
ಅಭಪರಾಯಗಳನನು
##ism
ಸಂಭವಸದದು
ಬೂದ
ಬಹುತೕಕರು
ದೕವಾಲಯವನನು
ಪರೂಸ
ಸಂಚರಸುವ
ಮಠದಲಲ
ಪರಕಾಶನ
ಹೂೕದವು
ಲಾಟರ
ವಮರಶಗಳು
ದಂಪತಗಳು
ಫೖನಲನಲಲ
ಹೂರಬದದದ
ಅಂತರಜಾಲದಲಲ
ಸಥಗತಗೂಳಸ
ಕೂದಲನ
ನಖರವಾಗ
ಧರಮಾ
ಏಕಕಾಲಕಕ
ರಶೕದ
ಹರಯಾಣದ
ಸಮಾಲೂೕಚ
ವೕಶಯಾ
ಮೂಢನಂಬ
ಮಹಾಬಲ
siddaramaiah
ಯಲಹಂಕ
bra
sm
ಏಕರ
ಒಸ
ಧೃ
ನುರ
ಯಹೂ
ರಲೕ
ರೂೕಹಣ
##ನಡ
##kannada
##ೖಜ
##60
ಮುರುಗ
ಮುಳಳು
ನಡಸತು
ಕರಡು
ಕುಂಠ
ನೕಡುತತ
ನಮಮನನ
##ಡಯನ
ಹಚಚಸದ
ಕಾರಯಗಳಗ
ಕೖಗೂಂಡು
ಎಂದನ
ಆಯಂಟ
ವೖಷಣ
ಸಂಗಲ
ದೕವಗ
ದೕವನಹಳಳ
ಮರಳದ
ಬಡುತತದ
ವಯಕತಗಳನನು
ಆರಂಭಸುವ
ದಾಖಲಾತ
ಸೕತಾ
ಪಡಯಲಾಗದ
ಸಗಬೕಕು
ತಂದರು
ಕೂೕಸಟ
ಪರೕಕಷಯನನು
ವಾಹನವನನು
ಅಲರಜ
ಸಂಪರಕಕಕ
ಸಣಣಗ
ವರದಗಾರ
ಪೂಜಗ
ಕೂರತಯ
ಬಳಯುತತರುವ
ಟೕಚರ
ಮೕರಾ
ಯಾಚ
ರಾಯರ
ವೕಗವನನು
ಪಂದಯಗಳು
ಸಂಸಕರ
ಸಲಭಯಗಳು
ಶವಮೂಗಗದ
ತಂಗನಕಾಯ
ಕೂಳಳೕಗ
ಇಟಟದದಾರ
ಎಣಣಯನನು
ಕಾಪಾಡಲು
ಸಲುಕರುವ
##ಬೖಲು
ಹದಹರಯ
ಸನನವೕಶದಲಲ
ತೃಪ
ರಾಜಯಸಭಾ
ಪೕಜಾವರ
##skannada
ಮಾಗಡ
ಲೕಟರಗ
ಪಾರಥವ
ವಪತತು
ಲೖಸನಸ
ಇಣು
ಒಲಯ
ಗೕರು
ಜವಾಲ
ದಮನ
ನಘ
ಪಯು
ಫಫಾ
ಫಯಾಕಟರ
ವಜಾ
ಹನನೂಂದು
##ತೕವ
##ಪರಾಣ
##ಶಕ
##cl
##aw
##ೃಪ
##ೂೕವಾ
##ೂೕಜಾ
##ಕಕಂದು
ನಡಸುತತದದು
ಕಲಾತಮಕ
ಸಮಾಚಾರ
ಬಳಗಾರರ
ಕರಬ
ಕುಶಲ
ವರಮಾನ
##ನಯೂಂದಗ
ಆರಯ
##ಕಾಡು
ಕಾರಯದ
##ಂಚಯಾ
##ಾಪಟ
##ಡಸನ
ನೂೕಡಲ
ಹೂೕಗಲಲ
##ಸಟಸ
ಎಂದದದ
ಹೂಸಕೂೕಟ
ಹಲತ
ಬಹುಮುಖಯ
ವಯವಸಥತವಾಗ
ಇದದೕನ
ಗಡರ
ಕಷಟವಾಗುತತದ
ವಧವಶ
ಸವಾಮಯದ
ಮೂಬೖಲನಲಲ
ಟವಯಲಲ
##ೕಕರಸದ
ವದಯಾಸ
ಕತತಳ
ಪರಷಕೃತ
ಕೕಂಬರ
##hav
##ಗಳನನೂಳಗೂಂಡ
ಪುರುಷೂೕತತಮ
ಫೂೕಟೂೕವನನು
ನೖವೕದಯ
ಒತತಡವನನು
ವಶವವದಯಾಲಯದಲಲ
ಶವಮೂಗಗದಲಲ
ಕರಸಮಸ
ಸಚವರಾಗ
ದಂಪತಗಳ
ಅಖಾಡ
ಕಾಣಸಕೂಳಳುವ
ಜೂೕರಾಗದ
ನಧನರಾಗದದಾರ
ಕಾರಣವಾಗಬಹುದು
ಡಬಬಂಗ
ಟರಯಾಕಟರ
ಕೂೕಲಕತತ
ಫಯಾಮಲ
ಮಠಾಧೕಶ
bs
per
sy
ಆಸಯ
ಕಕಷ
ಚಕನ
ಡಫ
ಡೕರ
ತಹಸ
ಬದದರು
##ಮೂೕನ
##ಪಲಸ
##ಳಂತ
##ಹೂಂದ
##ನನೂೕ
##ದರಬಹುದು
##ಟಟನಲಲ
##ಾಯರು
##ಂಬಕ
ನಡದಾಗ
ಕಲಹಾಕ
ಸುಟಟ
##ಪರತ
ಹೕಳಲಲ
##ಕೂಳಳುತತದದಾರ
ಜಲಲಗಳಗ
ಬಲಬಾಳ
ಬೕಕರ
ಆಯಂಬ
##ಟುಕು
##ಸಲವ
ಗೂಳಸ
ಆಸನ
ಕಟಟದಾಗ
ದುರು
##ಬರರ
ಅಗರಸಥಾನ
191
##ುವುದಷಟೕ
ಪರಣಮಸ
ಆಫೕಸರ
ವಾಹನಯಲಲ
ಸುತತುವರ
ವೃಕಷ
ಚಕಕೂೕಡ
ಗಡಗಳು
25ರಂದು
##ಬಡುವ
ವಸತೃತ
ತನಖಯನನು
ಪರೕಮಗಳು
ಪಕಕಕಕ
ಬೕಡಕಗ
ಬಳವಣಗಗಳು
ವಾತಾವರಣವನನು
ಪಾಂಡವ
ಬಲಗೖ
##ಮಂಡಳ
ತಳದುಕೂಳಳಲು
ಕಣಕಕಳಯ
ಶವರಾತರ
ಶಾಕಂಗ
##ತೕರಥ
##ಬಹುದೕನೂೕ
ಪರವಾಸಗರನನು
ವಧಾನಸಧದ
ಹುಣಸೂರು
ಹಯಾರಸ
whatsapp
htm
met
ಅಲುಗ
ಓಹ
ಜೂೕಳ
ಫು
ರಸಲ
ಸಕಾ
##ವನನಲಲ
##ವಾಲು
##ಾಡಸ
##ಬದದು
##ಷರ
##oot
##ಯಾಹಾರ
##ಾಯಸದ
ರಾಮು
ರಾಶಚಕರ
ಕಾರಗಲ
##ಾಸಪತರ
ಅವರದೕ
ಹೂಡಯುವ
ಮೕಲದದ
##adi
ಅಭರುಚ
ಕಾರಯಗಳಲಲ
ಕಾರಯಕಾರಣ
##ಾಗದಂತ
ಶರೕಫ
ಎಸಗದ
ನಡಯಲು
ನಡಯಲವ
ಗೂಳ
ಬಯಾಪಟ
ರೂಪದ
ಸಥಳದಂದ
ದುಡದ
ಬಸವನ
ಆರಂಭವಾಗುವ
ಶವವನನು
##ೕಸವಾಮ
ಸುದದಗಳನನು
ಒಬಬೂಬಬ
ಕಂಡುಕೂಂಡ
ಅರಥವನನು
ತರಗತಗ
ಸಾಹತಯವನನು
ನಾಯರ
ಬಣಣವನನು
ಬಳಗಗಯಂದ
ಸೂಚನಯ
##ಾಂನ
ಅಶು
ಪರಮಳ
ವದವತ
ವಯಾಪಾರದ
ನೖತ
##ಕಾಲು
ಮುಚಚದ
ಆದಾಯದ
ಕಳದುಕೂಂಡದದಾರ
ಅತಥಯಾಗ
ಒಪಪಂದದ
ಸಂಸಕø
ಪಠಯಪುಸತಕ
ಸುದದಗೂೕಷಠ
ಮಹಾಸಭ
ಫೖಬರ
ಪರಕರಯಯ
ಎಂಜಾಯ
ಪರಣಾಳಕ
thatskannada
ಹೃದಯಾಘಾತದಂದ
ಶಾರದಾ
ಧೂಮಪಾನ
ಅವಹೕಳನ
3ರಂದು
year
ಇಚಚ
ಕಮಾಂಡ
ಫಡರ
ಶೕಲ
ಶಥಲ
##ಸುವುದರಂದ
ಮುಟಟದ
##ಕಾರು
ಸರಭ
ಸುಣಣ
##ೂೕಗಯದ
##ಧಯಂದ
##ಮಾಳ
ರಾಜನಾಥ
##ಕುಂಜ
ಪಡಗಳು
ಸೕಡ
ವಧಾನಗಳನನು
##ತಪೂರವ
ಆದಮ
ಸುದದಯಾಗ
ವಯವಸಥತ
ಸದದಾಂತ
##ನಕೂೕಡ
ಏನದು
ಸುರದು
ಉದದೕಶತ
ಸವಾಮಯ
ಸಥಳೕಯರ
ಪರಶಸತಗಳನನು
ಬಟಟುಕೂಡ
ಟವಂಟ
ಅಷಟೕನೂ
ಪೕಟರ
ಸುಲಭವಲಲ
ಪರದರಶನವನನು
ಸೖದಧ
ಲಕಕದಲಲ
ತೂಡಗದದಾರ
ಉಡುಪಯಲಲ
ರಕತದಾನ
ವಯಾಲ
ಬಂಕಯ
ಮುಂದುವರಸದ
ಉಗರಪಪ
##ಎಫಸ
##ಹೂೕಗುತತದ
ಭಕತಾದ
ಭರವಸಯನನು
ವಯವಹಾರದಲಲ
ಅಳವಡಸಲು
ಬಳಳಾರಯ
ಗೂಂದಲಕಕ
ಮುಂದುವರಯುತತದ
2008ರ
ಅಸಾಮಾನಯ
ಕಲಾವದರಗ
ಸವಾಲುಗಳನನು
ಹಂಪಡಯ
##ock
##ification
ಸೕವಸುವುದರಂದ
ಮಾರಗದರಶನದಲಲ
##ಧವಜ
ನೖರಮಲಯ
ಅಂಪ
ಅಣಣನ
ಆಮಂತರ
ಏರುತತ
ಚಾಪ
ಜೕಡ
ದಣ
ಪೂೕನ
ಲಸಟ
##ಫುಲ
ಕಾರಬನ
ಕುಕಕರ
ಹೕಳತತು
##ೕಯವಾಗ
ಎಲಲರನನು
##ಲಯು
ಅರವಗ
ಆಯದುಕೂಂಡ
ದೂರದದಾರ
ಹಣಯ
ನಟರು
ಮೂೕನ
ಪಡಯರ
ಜೕವನಶೖಲ
ಗುರುಗಳ
ಪಾತರವಾಗದ
ಸದಧಾರಥ
ಒಪಪದ
ಅಭಯರಥಯನನು
ಸಾರವಕಾಲಕ
##ಾಭಷೕಕ
ಕಷಟಕರ
ರಂಗೂೕಲ
ರಂಗಮಂದರ
ಎನನಲಾದ
ತಾಲೂಕ
ಇತತೕಚಗಷಟ
13ನೕ
ನಾವಲಲಾ
ಪರಚಯಸದ
ವಚಚವನನು
##ident
ಎನನುವುದೕ
ಅನುಕೂಲವಾಗುವಂತ
ಆತಂಕದ
ಸಂಗತಗಳನನು
ಅನಂತಮೂರತ
ಭನನವಾಗ
ಹುಡುಕಲು
ಪದಧತಯ
ಸರಣಯನನು
ಕರಾವಳಯಲಲ
ಅಂದಾಜಸಲಾಗದ
ಭವನದ
ಮಾಡತೕನ
ಸಜಜಾಗ
ಕಯಾಲಂಡರ
ರಪಬಲಕ
ಕಾರಯನರವಹಸುತತದ
ಉಸರಾಟದ
ಲಕನೂೕ
ಪರಚಲತ
ಇಂಟರನಯಾಷನಲ
ಎಪರಲ
ಕಮಾ
ಟವೕ
ಥಾಮಸ
ದನಗ
ಬಲೕ
##ಾಗದದರ
ಪರಾವ
ಪರಾಸತ
ಮಾಧವ
##ಾದವು
##ಾವಾರು
ಕಾಪು
ನೕಡುತತಲಲ
##ಪರಶ
ಹೕಳುತತೕನ
ಹೕಳಬೕಕಂದರ
ಆಗರುವುದರಂದ
ಮಹರಷ
ಬರಮಾಡ
ಬರದದದರು
##ೕನದ
ಹೂೕಗುತತ
ನಲಲೂ
##ಂಜಸ
ಕಲಸಗಳಗ
ಹೂೕಬ
ಗರೕಕ
ದೕಕಷತ
ಒಂದಲಲಾ
ಹಣಾಹ
ಸಟರಾ
ಚನನಸವಾಮ
ಬೕಕೂೕ
ಸಥಾನದಂದ
##ಸದದಕಕ
ಗೂೕಡಯ
ಗೂೕಚರ
ಸಂತಾಪ
ಇಂಡಸಟ
ಹಾರರ
ಗಲೂೕಬಲ
ಕನರಾ
##ild
ನಾನೂಬಬ
130
ಓದುತತದದ
ದೕಪಾ
ರೂೕಗದ
ಗಳಸದದ
ಆಯೂೕಗಕಕ
ಬೕಜವಾಬದಾರ
ಶಾಸತರದ
ಕಡತಗಳನನು
ಇಂಗು
ಕಳಯಲು
ಅಸಾಧಾರಣ
ಪರಾರಯಾಗರುವ
ಶಫಾರಸಸು
ಬನಶಂಕರ
ಜೕವಂತವಾಗ
ಗಣನೕಯವಾಗ
ಟಪಪಣ
ದೂೕಸತ
ಸಾಂತವನ
ಸಂಕರಾಂತ
ಸಂಭರಮಾಚರಣ
ಸರಸುಮಾರು
8ರಂದು
vir
ಅಕಾಲಕ
ಗಂಘ
ಜಎಸ
ಟೂೕಪ
ಟಬಟ
ದಡಡ
ಹಪಪ
ಹಾತ
##ral
##ಭೕರ
##ೃದಯ
##ಾಗರಾಮ
ಸಾವತರ
ನರಳು
##ನಲಲಾ
##ನಸುತತದ
ಮೕಲಮೖ
ಬರತಾ
##ಂಚೂ
ಮುಂದಡ
ಪೂಲ
ಕೖವಾಡ
##ವೂಡಡ
ತನನದಾಗ
ರೖಸ
ಕೕಂದರಗಳಗ
##ಬಂಧನ
ನಗರಗಳು
ಹೂಂದದದರ
ಭಾಗಗಳನನು
ಕಂಡಾಗ
ಹಸರಾದ
ಸೕರುತತದ
ರಾಷಟರಗ
ಪಡಯುತತರುವ
ಹಾಡುಗ
ಇದದಾನ
ಭಾವನಾ
ರಾಮದಾಸ
##ಾರಾಂ
ಪರವಾಸಗರಗ
ತಲಮರಸ
ನವಲ
ಆಡಳತಕಕ
ಧಾರಣ
ಎನನುತತದ
##ರಲಾಲ
ಸಬಬಂದಯ
ಪರಾರಂಭವಾಗ
ಬಾಗಲಗ
ಹಳಳಗ
ಹಳಳಗಳ
ಪರಷಕರ
ನಮಷದ
ನಮಷಗಳಲಲ
##ವಲತ
ಸಂಗರಹಸದ
##ಕಾಲದ
ನಾಡನಲಲ
ತಪಪುಗಳನನು
ನಾಗರಕರಗ
ಸುಧಾರಸಲು
ಮುಖಯಸಥರು
ಬರಗು
ವಲಾಸ
ಬತತಲ
೨೦೧೬
ಬಸಸನಲಲ
ಅಗರವಾಲ
ಉಸರಾಡ
ತೂಡಕು
ಬಂಬಲಸುತತದ
ಮಯೂರ
ಧುಮುಕ
ಸಾಕಷಯಚತರ
ರೂೕಮಾಂಚನ
bus
ಜಾಬ
ಡೂೕ
ನಾಜ
ಮೃತಯ
ರಯೂೕ
##ಹಣ
##man
##ಲಲಯಾ
##ಾಗಳ
ಮುಂದು
ನೕನೕ
ಮೂವತತ
ಕಾರಯಾಲಯ
ಬಳಗಾರ
ನೕಡದದಾಳ
ನರಮೂಲನ
##ಯೕಕರಣ
ತುಲ
ಅಂತಃ
ಕಾರಣವಾದ
ಬೕಸತತು
ಒಂದೂಂದೕ
ಸಚವರಗ
ತಂಡಗಳನನು
ಸಥಳವಾಗದ
ಕೂೕಟಗ
ವಶವದಲಲೕ
ಬಳಸಕೂಳಳುವ
##ಗೂಳಸತು
ಪಾಲಕರು
ಒಬಬನೕ
ಬಡುಗಡಯಾಗದದು
ಸಂಖಯಯೂ
ಅರಥಶಾಸತರ
188
##ಮಾಡಲು
ಗಲುವ
ಹೂೕರಾಟವನನು
ಮಲಯವನನು
ರಕಷಣಯ
ಶಕತಶಾಲ
ಸಥಾಪಸದ
ಹುಟಟುವ
ಗದದರುವ
ಸವಾತಂತರಯೂೕ
ಸಂಗರಹಸಲು
ಜಾನಕ
##ಸೂತರ
ತಳದುಬಂದ
##ove
ಬಾಳಹಣಣು
ಬೕಕಾದಷಟು
ಚರಮವನನು
ಮಯಾಕಸ
ಸಂಪರದಾಯದ
ಶಕತಯುತ
ಗರಾಮಸಥರ
2011ರಲಲ
ಪಾಲಗೂಳಳಲು
2010ರಲಲ
ಎಚಚರಸದರು
ಜಲಪಾತದ
ವಯಂಗಯವಾಡ
ನಸರಗದ
ಕಂಡುಹಡಯ
ಶೕತಲ
ಹೂಸದೂಂದು
ಸಾಬೕತಾಗದ
ಮನವೂಲ
ragh
ಮೕಲಮನವ
ಸಶಸತರ
ಪರಾಸತಾವ
narendra
utc
win
ಆಟಕ
ಈಸಟ
ಈಕಯ
ಏಡಸ
ಜಗು
ಟೂೕಲ
ಬ೦ದ
ಸಾರು
##ಕಾನ
##ಕೕಂದರ
##ಸದಲಲ
##ಹಡಯ
##ಹಚಚು
##oss
ಮಾಡಬೕಕಂಬ
##ೕರಥ
##ಂಬಾ
##ತುಲ
ಕಲಗಳು
ಸರಜಕಲ
ನೕಡುತತಾ
##ಸಥಕ
##ಂಗಳೂರು
ಮುಂದರುವ
ಕೖಕ
ಹೂೕಗವ
ಹಂದರುವ
ವೖಮಾನಕ
ಕೕಳದದಾರ
ಸಂಬಂಧಕರ
ಸಥಳಗಳು
##ೂೕಷತ
##int
ದರದ
ಆಟದಲಲ
ಶರದಧಯ
ಬಟಟಗಳನನು
ಗೂತತಾಯತು
ವರಗಾಯಸ
ಚಕಕದಾಗ
ಹಬಬುಲ
ಧರಮದಲಲ
ಕರೕಮ
189
ರಾಮನಾಥ
ಮೂಡಗರ
ಆಡಳತಾರೂಢ
ನರವಹಸುತತರುವ
ಹಣಣುಗಳ
ಉದಯೂೕಗಾವಕಾಶ
ನಷಕರಯ
ಸಂಸತತನಲಲ
ದೕವಾಲಯಗಳಲಲ
ಸಂಗರಹಣ
ನಷೕಧದ
ಇಳಮುಖ
##ivers
ವಶವಾಸಾರಹ
ಪರತಯೂಬಬರು
ಮಲಗದದ
ಅದಭುತವಾಗ
ಹೂೕಟಲನಲಲ
ಸವಚಛತಾ
ತಗದುಕೂಂಡರು
ಹುಬಬಳಳಯ
ಮುಂದುವರಸದದಾರ
ಉಳಯುತತದ
ಹಸತಾಂತರಸ
ಅಹವಾಲು
ಬಯುಸನಸ
##ober
ಸುಬಬಣಣ
ಜನಸಾಮಾನಯರು
ಕಾರಂತರು
ಫರನಾಂಡಸ
ಬಲಜಯಂ
ಪರತಸಪರಧ
native
ome
sha
ಕಎಲ
ದವಂದ
ಬುತತ
ಮಕರ
ಮತಯನನು
ಲೕಲಾ
##ಗಧ
##ಗೕಡ
##ಾಠ
##ಾದದ
##ಯರಸ
##ram
ಪರಬುದಧ
##ಟಟದದು
##ಸದಸಯ
ಎಂದುಕೂಂಡು
##ರೕನ
##ಯಾಗರುವುದು
ಕುಂಟ
ನೕಡುತತದದು
ಆಗದದರೂ
ಜನಮಾ
ಮೕಲತತ
ಮಹಲ
ಕಾರಯವೖ
ಕಾಲೂೕನ
ಹೂರಟರ
##ಗಾರಕಯ
##ಭವೃ
ಸಟಾ
ಸಟೕವ
ಹರಡುವ
ವೕಣಾ
ಬಳಸಲಾಗದ
ಆರೂೕಪದಲಲ
ಸಗಲ
ತೕರದ
2003
ಹಸರುಗಳನನು
ಅನುಭವಗಳನನು
ರಸವನನು
ಅನನಸುತತದ
ಏನಾಗುತತದ
ಸಪರಧಗ
ಸದದರಾಮಯಯನವರು
ಹಂಚಕೂಳಳಲು
ಬರಯುವುದು
ಆಟಗಾರರಗ
ಸೖಫ
ಮುಂದುವರದರ
ಬಳವಣಗಯನನು
ಮತದಾರರನನು
##ರೂೕಹತ
ಪಡದುಕೂಂಡದದು
2015ರ
ಅದಭುತವಾದ
ಇಂಗಲಷನಲಲ
ಪರಭುತವ
ಆಳವಾಗ
ಜೂೕಡಯ
ಕಾಪಾಡುವ
ಸಕರಯವಾಗ
ವಭನನವಾಗ
ನರವೕರತು
ಇಳಕಯಾಗದ
ಆಕರಷಕವಾಗ
ಮದುಳು
ಸವಾಲನ
ಆಪರೕಟಂಗ
ಬಸಲನ
ಕಯಾಪಟಲ
ರಸರಚ
ಪಲಲವ
ಹಗಗಳಕಗ
ಹಡಗು
ಸಾಮರಸಯ
ಶಬರಮಲ
ಕೂೕಟಯಾಂತರ
ಜಾದೂ
ಆಯಾಸ
ನಖಲ
ಪೕಯ
ಫಲಾ
ಬಾನ
ಬಂಗಲ
ಹವಯ
##ಗವ
##ವಯೂ
##con
##ಹಂಸ
##ಭಮ
##ool
##ಾಗಣ
##ಾಗಾಂಧ
##ತರೂೕ
ಮುಗು
ಸಾವ
ಬಳಗಳ
ಕರಳಸ
ಕುಂದು
ಗುಂಟ
ಸಥಾವರ
ಕಾರಯಗತ
ಸಹಚರ
##ಾಜಞ
ನಲಲೕ
ವೖದಯಾಧಕಾರ
ದೂರಕದ
ಮಾತನಾಡುತತದದರು
ಸಂದರಯದ
ದೂಡಡದಾದ
##ಗೂಳಸದದು
ತಪಪದೕ
ಸಗರೕ
##ಮೂನ
ಸಥಾನಗಳ
##ವಯವಸಥ
ಮಧಯದ
ಪರಾಭವ
ಬಡುಗಡಯಾಗುತತದ
12ರಂದು
ಚಕಕಂದ
ಅದೕನು
##ors
ಅಮಾಯಕ
ವದೕಶಗಳಲಲ
ಮನವಯನನು
##ಬಟಟತು
ಸಂಶೂೕಧನಯ
ಲಂಗಾಯ
ನಯಂತರಣದಲಲ
##ಎಫಐ
ಉಳಸಕೂಂಡು
ಸಾಮಾಗರ
ಪರತಭಟನಗ
ಪಾಲಗೂಂಡದದ
ತಲಾಖ
ಬೂೕಧನ
ಸುಧಾ
ಉಡುಗೂರಯಾಗ
##ಕೂೕರರು
ಕಾಮನವಲತ
ಖುಷಯಂದ
ಕೃತಜಞತ
ಜಗದಗುರು
ವಾಟಸಆಯಪ
ಬಂದೂಕು
ಮರುಪಾವತ
##ology
ರಾಷಟರಾಧಯಕಷ
rahul
ಎಐಎಡಎಂಕ
ಬಲಬಾಳುವ
html
5ರಂದು
7ರಂದು
get
ಕಟು
ಚಂಪ
ಪಲೕಟ
ರಸಕ
ವಂಗಡ
೨೯
##ವೕಕ
##ನೂೕಟ
##ಜಸಟ
##ಬಣ
##ಚತತ
##mp
ಮಾಧಯ
ಮಾಡಬಲಲ
##ನಾಕ
##ಾವೂ
ಬಳು
ಕುತಂತರ
ಹೂಮಮ
ಕಾಂಟ
ಆಗುತತವ
##ಯೂಮ
ಮಹಾಂತ
ಮಹೂೕತಸವದ
ಮುಂದಾಗದದು
##ರಯಂದ
ಸೕರರುವ
ಬಲಯಾದ
ಎಂದರುವ
ಕಾರಣವೕನು
ಗರಂ
ಹೂಂದದದರು
##000
ಸೂೕಲಾರ
ಹಣದಲಲ
ಸಂಬಂಧಗಳ
ಕಾರಯಕರಮಗಳಗ
ಸೕಡು
ನರದೕಶಕರಾಗ
##ಗೂಳಸರುವ
ಜಾರಯಲಲ
ಅಗತಯವಾಗದ
ಸದಧವಾಗದ
ಮುಗದದ
ಪಂಚಮ
ಅಲಮಾರ
ಸಾಮಾಜ
ಆಸಪತರಗಳಲಲ
##ಗಳಾಗದದಾರ
ತಲಯನನು
ತಂತರಗಳನನು
ಇವುಗಳಗ
ಕಾನೂನನನು
ಮಾಡಕೂಂಡದದು
ಮುನನಡಸ
ಪರಹಾರವನನು
ಶಕತಗಳು
ಲಭಯವಾಗ
ಸೂರಯೂೕದಯ
ತೂಡಗದ
ದೕವಾಲಯಗಳು
##ಕಾಲಕಕ
26ರಂದು
ಬೕಜಗಳನನು
##ಲಾರರು
ಇದದುದರಂದ
ಸಮಾನವಾಗ
ಸಾಯಂಕ
ಶೕರೂರು
ಓದುಗರಗ
ಭಯೂೕತಪಾದಕರ
ಫೕಫಾ
2009ರಲಲ
##ದೂಳಗನ
ಅಭನಂದನಗಳು
ಹಗರಣದ
ಮಾತೃಭಾಷ
ಮಾರಕಟಂಗ
ಹಣಣುಮಕಕಳು
ಅನೕಕರಗ
ಅಳವಡಸುವ
ರಕತಸರಾವ
ಸವಟಜರಲಂಡ
ಆಲೂಗಡಡ
ಇವೕ
ಟಕಕ
ಡಬಟ
ಬಂಪರ
ವಥ
##ತಂತ
##ವಯಯ
##ಪಎಸ
##ಯಂತಹ
##ಬರುತತದ
##ck
##ಸಂತ
##ril
##ೖದಯ
##ho
##ಐಎ
##ಾಯಕರ
ಸಂಖಯಾ
##ಮಮಾ
ರಾಬರಟ
ನರದದದ
ಎಂಬವರ
##ಸಥತಯಲಲ
ಅವೖ
##ರುತತದದರು
ಪುರೂೕಹತ
ಮುಂದಟಟುಕೂಂಡು
mon
ಹಂದನಂದ
ಎಸಸಸಸ
ಮೕನನ
ಅಥಲೕಟ
ನಗರದಂದ
ಸಪೖ
ಸಪತಾ
ಬಡುತತಾರ
ಶಾಲಯಂದ
ಸೕಠ
ಯುನವರ
ಕೂೕಷಟ
ಪರಮುಖರು
##ೕಪಲಲ
ಸಾಕಷರ
ಕಾಯುತತದದ
ಒಬಬರಗ
ಏಕಾಗರ
ಅಭಯರಥಗ
ಚರಚಸಲು
##ಕೂಡುತತದ
ಬಂಬಲವನನು
ಬೂತ
ಸಂಭರಮದಲಲ
ವಜಯೕಂದರ
ಮೂರತಗಳ
ಮೂರತಗಳು
ಉಲಲೕಖನ
ಬದಧತ
ಡರೂೕನ
ವಾರಡಗಳಲಲ
##planet
ಮಚಚುಗಗ
ಕಳುಹಸಲು
sup
ತಲಂಗಾಣದ
ತಗಗು
ಇಲಲಯವರಗೂ
order
ಸುಪರಂ
ವಧಾನಸಧದಲಲ
ಗೖರು
ಒಂದಲಲೂಂದು
ಅನವೕಷ
ಶರವಣಬಳ
ಡಬಲಸ
ಅವಾಂತರ
ತರುವನಂತಪುರಂ
ವಸಾಹತುಶಾಹ
ಜೂೕಸಫ
ಎನಕಂಟರ
ಅಚಚುಕಟಟಾಗ
ಸುಸಜಜತ
first
nativeplanet
cm
gl
ಅದರೂಳಗ
ಈಸ
ಉತತು
ಕನಯ
ಜಮಾ
ಟಂಟ
ಡಯೂ
ತದ
ದಂಡು
ಪಲಾಟ
ಹರಾಜ
##ಕೂೕಡ
##ಲತಾ
##ಸೕತುವ
##ಳಾದ
##ಟರಸ
##ತತಾರ
ರಾವತ
##ಾವಯ
ಅವರದದ
ನರತ
ನರವಾಹಕ
ರಾಜಣಣ
ಜನರೕ
ಮಹಡ
ಕೂಡುವುದಲಲ
ಕೖಫ
##ಾತೕತ
ತರಲಾಗದ
ಬೕಧ
ಪಡರ
ಚುಂಬ
ರೖಡ
ಜೕವತ
##ರೂಡನ
ಸಪೕಸ
ಗರಾಮಗಳಗ
ಪಡಯಬಹುದಾಗದ
ವದಯಾರಥಯೂಬಬ
ಆರೂೕಪವನನು
ತಪಪೕಸವಾಮ
##ಮೂದಲು
ಇರೂೕದು
ಶರೂರು
ಪರಣಬ
ಮಂಡಸದ
ಸಭಾಪತ
ಕೃಷಕರ
ರಾಮಣಣ
ಇವಎಂ
ಪರಗತಯ
ಪರವೕಶಸಲು
ಹಚಚಾಗದದು
ಬಂಬಲತ
ಫರಂಡಸ
##ಾಚಾರಯ
50ರಷಟು
ಸಂಪರಕಸುವ
ವಹಸುತತದ
ಸಲಹಾ
ವಯಕತಯೂಬಬರು
ಸೂರಯಾಸತ
ರಕಷಸುವ
ಘಟಕಗಳು
ಅಮಮಾ
ಗುರುವನ
ತಗದುಕೂಳಳಬೕಕು
ನರಮಸದದಾರ
ತಾರಕ
ನದಗಳ
ಉಗರರನನು
ವಯವಹಾರದ
ಸವಯಲು
ಹೂಟಟಗ
ನರಸಂಗ
##ಫರಡ
ವಾರಷಕೂೕತಸವ
ರಣಜ
ಏಳನೕ
2012ರಲಲ
ಅನಾರೂೕಗಯದ
ಪರಾಂತಯದಲಲ
ಯಾರಗಾದರೂ
ಗುತತಗದಾರ
ಕೂದಲನನು
ಆಳವಕ
tech
ಸಪೂೕರಟಸ
ಏರುಪೕರು
ಇಬರಾಹಂ
ನುಸುಳ
vill
ಅರಗ
ಅಂಟು
ಉಗುರು
ಕಸು
ಗಲಲು
ಚಪಾತ
ಥಾಯಲ
ಪನಸ
ಯಡವ
ಲಸಕ
ಶಕು
##ಂಖ
##ಗದದ
##ವಂಟ
##ಾಪರ
##ಾಳಯ
##ೕಬಲ
##utt
##ರುವರ
ಪರಂಟ
ಮುಗಗ
ಮೂಸರ
##ತುಪಪ
##ಬೕಕಾಗದದ
ಹೕಳಲ
##ಕೂಳಳುತತವ
ಇಲಲಯೂ
##ನಗಂತ
ಮಹಮದ
ಸರಕಾರೕ
##ಜನಮ
##ಂಚು
ಪರತಕೂಲ
##anth
ನೂೕಡುತತಾರ
ಕೖಹಾಕ
ನಂತರವೕ
ಬಳಕಯಂದ
ಕಾಣುತತತತು
ಕಾಣಸಕೂಂಡು
ಸಪನನರ
ಪೂರವದ
ಸಂಸಥಾಪ
104
ಅಸಂ
ಬಳಸುತತದ
ಬಟಟದದಾರ
ಮಗಲಾಗ
ಸಾಕಷಾತ
ಜೂತಗೂಡ
ಸದಧರ
##icon
ಅಭಯರಥಯ
##ಗಳಾಗುತತವ
ವಾಚನ
ವಧಸುವ
ಮೂಡಬಂದ
ಕಲಪನಾ
ನಾನಲಲ
ವಜಞಾನಗಳ
ವಭಾಗಗಳಲಲ
ಕಮಂಟ
ನಲದಾಣಗಳಲಲ
ಉಳದವರು
ಬೂಮಮ
ಕಟಟಡದಲಲ
##ಯೂಂದಕಕ
ಖುಷಯಾಗ
ಅರಧಶತಕ
ಶಶಧರ
ಪರತಷಠಾನದ
ಆಚರಣಯ
##ತೂಡಗದರು
ಪೂಲೕಸರನನು
ಗಾಳಯಲಲ
ಪರಗಣಸಲಾಗದ
ಅಣಬ
ಪೂರಕವಾದ
ಮೖಕರೂೕ
ತಾಕೕತು
ವಯಂಗಯಚತರ
##ರೂಪಕಕ
ಬಗಹರಸಲು
ಹೕಮಾವತ
ಸಾಮಾನಯರ
ಚಳಗಾಲದಲಲ
##ದದೕಶಸ
ಐಶವರಯಾ
jpg
ಅಮತಾಬ
ಪರೂೕಗರಾಮ
ಮಾರಣಾಂತಕ
ನುರತ
ಉತಕ
ಐರಲಂಡ
ಒಬ
ಓಣ
ಖುರ
ಚಗುರ
ನಾಕ
ಪಯಾಟ
ಭಾಯ
ಲವಲ
##ುು
##ಾನನ
##7ರ
##bp9
##ೂೕಲಕ
ಪರವಾದ
ಮಾಡರುವುದಾಗ
##ಂಗದಲಲ
ಅವರನನ
##ೂೕಗರಫ
ನೕಡದದೕವ
##ನಯಲ
ಜನಕಕ
ವಯಾನ
ಚತರಕಲ
ಪುಣಯಲಲ
##ಾಪೂೕಹ
ಮುಂದೂಂದು
ಅಲಲರುವ
ಕಾರಣಗಳಂದಾಗ
ಹಲವರಗ
ಮರಕಕ
ಬಡಬೕಕು
ದರೂೕಹ
ನಮಗಲಲಾ
ಬಸನ
ಅಸಮತ
ಭರದಲಲ
ಬಗಯಲಲ
ಒಳಾಂಗಣ
##ಪುರುಷ
ಗಂಟು
ಪಾರಾಗದದಾರ
ಏನಾಯತು
ಬರುತತದದಂತ
ಹಾರಮೂೕ
ವರದಕಷಣ
ವರೂೕಧದ
ಉದದೕಶಕಕ
ರಚತಾ
##ions
ಪರಾಣಗಳನನು
ವಭಾಗಕಕ
ಖುಶ
##ೂೕದನನ
ವಸತೕರಣ
ತೂಂದರಗಳು
ಗಮನಸಬೕಕು
ಅಂಬರೕಷ
ಎತತದ
ಸವೕಕರಸಲು
ಆಯೂೕಗವು
ಕಂಗೂಳ
ಸುರಕಷಾ
ನಾಗರತನ
ಮಣಸು
ಗಂಗಾವತ
ಪುಟಗಳ
ಲಾಠ
ಶೕಘರದಲಲ
ಆಹವಾನಸಲಾಗದ
ಹಚಚಳವಾಗದ
ಕೂೕಪಗೂಂಡ
ಬೕದಗಳಲಲ
ನಶಚಯ
ಮಾಡತದದಾರ
ವಾಗವಾದ
ಚಾಂಪಯನಷಪ
ಗುಣಮಟಟವನನು
ಟಕೕಟ
ಒಗಗರ
ಒಲಂಪಕಸನಲಲ
ಇಂಚು
ಪರೂಫೖಲ
ಅಟಟಹಾಸ
ಆರಾಧಯ
ಮೂಮಮಗ
ಶರೕರಂಗಪಟಟಣ
videos
ಮೂಸಳ
ತರಬೕತುದಾರ
ಮುನಯಪಪ
ಸಾಧಯವಾದಷಟು
ಒಂಭತತು
ವಶೕಷಣಗಳು
ಕೖಗಟುಕುವ
ವೂೕಲಟೕಜ
ಪರೂಸಸರ
ಏಕರೂಪ
ಕೂಳಳೕಗಾಲ
b2
do
how
have
lat
ಎಪಪ
ಎಲಯ
ಕತಯನನು
ಕಮಮು
ಚತ
ಟಾಂಗ
ನಯೂೕಜನ
ಲಫ
ಲತಾ
ಸತವ
ಹಫ
##ಂಸರ
##ಪಡಗ
##ೕಮು
##ದೂೕಷ
##99
ಪರಯರ
ಪರಕಕರ
##ಯಾಂಟಕ
ಮೂದಲಲ
##ರಸಕೂಂಡು
ಕುಸು
ಕುಖಯಾತ
ನೕಡದಂತ
ಆಗನೕಯ
##ಸುವಷಟು
ಮಹಾದ
ಭಾರತದಂದ
red
ಹೂೕಗುವಂತ
##ಸಟಾರ
ಹಂದಯೂ
ಉಪಮ
ಆಸತಯನನು
##ated
##ಂಥಾ
ಬಳಸಕೂಳಳಲು
ಸಗದೕ
ಬಟಟಗಳ
ಎರಡನನೂ
ಪರಣವ
ಜಡೕಜ
ಸಾಗರದ
ನೂೕವನಂದ
ಏನಂದು
ಇಷಟಕಕೂ
ಸುರತ
ಬಯಸದ
ಟರೖನ
ಇವಳ
ಆಹಾರದಲಲ
ಹೂೕರಾಟಗಾರರು
140
ಕರುಚತರ
ಆರಥಕತಯ
ಅಭಮಾನಗಳಲಲ
ನರವಹಣಯ
ಖರೕದಸದ
ಪರಾರಂಭವಾಯತು
ರೂೕಗಗಳನನು
ಸಂಪರಕವನನು
ಪತಂಜಲ
ಬೕಡಕಯನನು
ಕಾಮಗಾರಗಳನನು
##ೂೕದರಲಲ
ಆವರಸದ
ಖಾತಗಳನನು
ಮೃತಪಟಟದದು
ಎಚಚರಕಯ
ಆಯುಷ
ಪರದರಶಸ
ಒಟಟಾರಯಾಗ
ತೕರಥಹಳಳ
ಸನಸಕಸ
ಕೂದಲಗ
ಅಯೂೕಗಯ
##ಮಟಟದಲಲ
##ಡಪಐ
ಏರುಪೕರ
ಚಕತಸಯ
ಅಕಕಪಕಕದ
ಎಸಎಸಎಲಸ
ಇಸರೂೕ
article
ಮಾಂಸದ
##ಸಂಸಕಾರ
ತಹಸೕಲ
4ಜ
bel
cin
ಉಬು
ಗಡಗ
ತೕವ
ಧಾಟ
ಯಮ
ರಸದ
##ರಧ
##ರಲು
##ಮಧಯ
##ಪಳಳ
##ಪಚಾರಕ
##ಯಷಟ
##sc
##ಧಪತ
##ಫಲಕ
##ಭದಲಲ
##ಅಯೂೕ
##ಇಒ
##ಾಗರೂ
##ೂೕರಸ
ಮಾವೂೕ
##ವರದ
ಮುಡ
ಕೂಣ
ಕಾರಬ
##ಾವಲು
ಸರಯೕ
ಕರಮಸ
##ಕತವ
ಆಗದಂತ
##ರುತತಾ
ವಶಾಖ
ವರಷಕಕೂಮಮ
ಮುಂದಯೂ
ಅನುಕರಣ
##ೂಂದಗೂ
ಹೕಗಂದು
ಎಂದದ
ದೕಶದಲಲೕ
ಮೕಜನ
ಮೖಕಲ
##ಶಯಪ
ಬಹುಭಾಷಾ
19ರಂದು
ಸೕವಯಲಲ
ಕಡಮಯ
ಸಥಾನದಲಲರುವ
ಪರಾತಯ
ತಂದರುವ
ತಂದೂಡಡ
ಅವಕಾಶವಲಲ
ಬಾಲಕನೂಬಬ
ಉದಾಸ
ಮುಗಯತು
##ಬಹುದಾ
ವವರಸದ
##ಗಳಾಗದದ
ವೖದಯರನನು
ನಲುವನನು
##und
ತನವೕರ
ಗಾಯದ
ಯೂೕಗರಾಜ
21ರಂದು
ದೂರುಗಳು
ಉತಸು
ಗಳಸರುವ
ತಾರಕಕ
ಪುರುಷರಗ
ತಾಣವಾಗದ
ಬರಹಮಾಂಡ
ಭಯದಂದ
ಇಂಗಲಂಡನಲಲ
ಮಾಹತಗ
ಕಾಣಸಕೂಂಡದ
ಸಸಯಾಹಾರ
ಭಾಷಣದ
##ತಾನಾ
ಕಾರಯಾಚರಣಯಲಲ
##ಸಾಧಯ
ಐಪಸ
ಸವರೂಪದ
ನರವೕರಸ
ನನಪುಗಳು
ವರಷಠರು
ಪಠಯಕರಮ
ಇಸಲಾಮಕ
##lywood
ಚಾಕು
ಹಲಸು
ಆಯಪಲ
ರಥೂೕತಸವ
ಸುಮಮನಾಗ
ಈಜಪಟ
ಕೕಳಬರುತತದ
ಬರಳಣಕಯ
ಮೕಘನಾ
ವದಯಾರಥನಯರು
ರಾಕಷಸ
ಫರಾನಸಸ
ac
cour
var
ال
ಉಳವ
ಒಡದ
ಜನನಾ
ಡಮ
ಫಲಕಸ
ಭಾನು
ಲಯನಸ
ಶಾರಟ
##ಮತರ
##ಶಣ
##ನಗೂ
##ದವ
##ಬೂೕಟ
##ಬಯಾಂಕ
##ax
##kar
##ve
##ಗಳದದ
ಮೂಟ
##ಾದಾಯಕ
ಕುದಯ
##ಬೕಕನನುವ
##ಲೕಖ
##ಡಯವರ
ಹಚಚರುವ
ಮಹಮ
ಬಗಗಯೕ
ಮಾತನಾ
ಜೕವಗಳ
ಕೕಳುತತಾರ
ಅದರೂಂದಗ
ಅಧಯಕಷತಯನನು
ಬೕರಡ
ಗಣಪತಯ
ವಧಾನಗಳು
ನರದೕಶಕರಾದ
ಆಟಕಕ
ಯುಕ
ಶರದ
ಕರಮದಲಲ
ಬಟಟರು
ಕೂೕವಂದ
ವರಷದೂಳಗನ
##its
ಇಬಬರನನು
ಇಂದೂ
ಹಾರನ
ಅಡಗರ
ಮಲವನ
##unand
##ಾಪುರದ
comp
ಕರುಚ
ಚಂತಕ
ಪೂರಣಗೂಂಡ
ನವದಹಲಯ
ಚಲಸುವ
##ಣಣನವರ
ಪಾಟನಾ
28ರಂದು
ಜೖಅಯೂೕ
ಸವೕಕರಸುವ
ಯಾವುದಕಕೂ
ಹಾನಯಾಗದ
ಪದವಪೂರವ
ಭವಷಯವನನು
ಸಹೂೕದರರ
ಜಾಲತಾಣಗಳ
ಮಾನಯವಾಗರುವ
ಫೂೕನು
ಮಧುಗರ
bureaubp9
ಕರೖಂ
ಧೂಳು
ನೕತರಾವತ
ಸಕಯುರಟ
ಹಂಜರಯ
ದುರದೖವ
october
ಮೕಷಟರು
ಗಂಘಸ
650
9ರಂದು
att
bi
car
har
out
ಅನನೂ
ಎಲಕ
ಕಯಯ
ಕದಕ
ಟೂೕನ
ರಫರ
##ಂಗಳು
##ಶೕರ
##gb
##¨ª
##ುತತತು
ಮಾಡುವುದರಲಲ
ಸಂಕು
ಕೂಟದ
##ಗೂಬಬರ
ಕರರಯ
##ಕೂಂಡವರು
##ಯೂಡನ
ಗುಪತಾ
ಕೂಡುವಂತ
ದನವಡೕ
ಅದಾಗಲೕ
ಸೕರದರು
ನೂೕಡದದ
ತರಶ
##ಗೂಂಡರು
ನಲಲದದ
ನಲಲುತತದ
ಒಂದಕಕೂಂದು
ವರುಣಾ
ಮರಮಾ
ಬಡಾವಣಯ
##ಂಥರಾ
ಬೕರೂಂದು
ಆರಂಭವಾಗದದು
ನನಗು
ಸಗುವಂತ
ಗುರುರಾಜ
ಅಂಗಾಂಗ
ಮಹಳಯೂಬಬ
ಬರುತತದದರು
ಗುಣಮುಖ
ಹಾಲಪಪ
ಮಲಬದಧ
ದಾಖಲಸಲು
ತಂತರಜಞ
ಪರೕತಸುವ
ಸಮಮಾನ
ನಾನೕನು
ರಾಹುಲಗ
ವಯಕತಯಾಗ
ಕೂೕರದ
ಜಾಥಾ
ಹೂಡದದ
ಬೂಜಜು
ಶರೕರವನನು
ಬರಾಕ
ಎದುರಸಬೕಕಾಗುತತದ
ಬರಹಮಾ
ಉಳಸಕೂಳಳುವ
##ign
ತೕರಮಾನಸಲಾಗದ
ಅನಸತು
ಕೖಗೂಂಡಲಲ
ಕಟೕಲ
ಪುನಶಚ
ಉಲಲೕಖಸ
ಸಲುಕದದಾರ
ಭಯೂೕತಪಾದಕರು
ಹುಬಬಳಳಯಲಲ
ಬೂೕನಸ
ಉಂಟಾಗಬಹುದು
ಕಳುಹಸುವ
ಎದುರಸದ
ಮಮೂರ
ಚಾಕಲೕಟ
##ಲಾರಂಭಸದ
ಮಾಲೕಕರಗ
ಋಣಾತಮಕ
ಕಾಯದಯಡ
ತೂಳಯರ
ಗುಲಬರಗಾ
ತಲಲಣ
ಮಂಜೂರಾತ
ಪಶುವ
ದೕಪಾವಳಯ
ಮಲುಕು
ಪರಪರಥಮ
6ರಂದು
sn
ter
ಐಎಸ
ಓದನ
ಗಾನ
ಘಟಟದ
ಚಾರಟ
ಪರು
ಪಕಸಲ
ಫನ
ಭಟಟರ
ಲವರ
##ವಲನ
##ಕತಯಲಲ
##ದರುವ
##air
##ಸರಗ
##ಚಂದರಾ
##oon
##12
##4ರ
##bi
##ಾಲಾ
##ನಾದರು
ಕೂಳಗ
##ಗೂಳವ
##ಾವಧಾನ
ಬಳಗಳಗ
##ಾಸಪ
ಸುದರಶನ
ಕುಡು
##ಬಬರನನು
ಹಚಚಚಚು
ಅವಧಾನ
##ನೕಡ
ಬಂದರುವುದು
ಮುಂದದ
ಕಡೂರು
ನೂೕಡಕೂಳಳಬೕಕು
ಕಾರಣಗಳನನು
ಬೕದಗ
ದೕಶದರೂೕಹ
ಗರಹದ
ಬಳಕಯಲಲ
ಕಾಣಲಲಲ
ಆತಥಯ
ದರಶ
ವಯಕತವಾಗುತತದ
ಪತರದ
ವಾರಂಟ
ಸಗರೕಟ
ಸಥಾನಗಳಗ
ಫಲಂ
ಗೂತತತತು
ಇವರಡೂ
ಶಕಷಣದಲಲ
ಅದೕನೂೕ
ಅಮರಕಕಕ
ಪರಕಟಸದದಾರ
ಗುಣಲಕಷಣ
##ಮೕದ
ಸೂಚಸುವ
ಮಲಯಗಳನನು
ಪರಯತನಸದ
ಒದಗಸುವುದು
ಡಸೂೕಜ
ಮಾಡಕೂಂಡದದರು
ತಮಳನ
ನರೕಕಷಯಂತ
ಪರಾರಂಭವಾದ
ಯಾಂತರಕ
ಸಾಧನಗಳ
ತೂಡಗರುವ
ನಯಾಯಾಲಯವು
ದೖಹಕವಾಗ
ಜಞಾನಪೕಠ
ಕಂಗನಾ
ನಷಟದ
ತೕರಮಾನಸದ
ಜಲಾನ
ಹೂರಟದದಾರ
5000
ಜೂೕಡು
ಮಡಲ
ಮುಂದಾಗಬೕಕು
ವಹವಾಟನ
ಗುಜರಾತನಲಲ
ಶುಲಕವನನು
##view
ಹೂರತಂದ
ಕೂಠಡಯಲಲ
ಕಳದುಕೂಳಳುವ
ನಧಗ
ಹಠಾತ
ಸರವೕಸ
ಫೖಲಗಳನನು
ಮಹಾಕಾ
ತೖಲದ
ಪಷಟಕಾಂಶ
ವದಯಾರಹತ
ಸಾತವಕ
omegle
has
mp
ಐರ
ಚಸ
ನವಾಸದ
ಪಾಳ
ಬದನ
ಮದನ
ಯಂಗ
ಯವರು
ರೕಗ
ಶೂೕಕ
೦೦೦
೩೧
##az
##ಭೂೕಗ
##ನನಷಟೕ
##ೂೕದೕ
ಪರಾಮರ
##ಾಯಣದ
##ರಾಹಕ
##ಕಾರನ
ಎಂದುಕೂಳಳ
##ಾವಸಥ
ನರಧರ
ಅರಕ
ತುರತ
ಜಲಲಾಸಪತರ
##aneditor
ನೂೕಡಕೂಳಳುವ
ಪಡಸದ
ಮಾತೕ
ಅಪಮಾನ
ಸಾಧಯತಯ
ಬಯಾಲ
##ಗುಟಟ
ರೂಪಸಲಾಗದ
##ಂಥದದು
ಬಸಗಳ
ಕಾರಯಕರಮವೂಂದರಲಲ
ಸಂಘಗಳು
##ದಾನಂದ
ಇವರೕ
ಸಭಾಗಯ
ಭಾವನಯನನು
ಕವಮಾತು
##itt
ಸಾಗಸುತತದದ
186
ಬಯಲಾಗದ
ರೖತರನನು
ಸಹಾಯಕಕ
ಕರುಣಾ
ಕೂರಯ
##ಬಂದಂತ
ಸಕೖ
ಬಾಗೕಪಲಲ
ಗುರಯಾಗದ
ದೕವರೕ
ಸಂಚಾರವನನು
ನವಾಸಕಕ
ಬೖಕನ
ಪೂೕಷಕರಗ
ಕಂಗಡ
ಅನುಕೂಲಕಕಾಗ
ರಾಜಕಾರಣಕಕ
ಅನುದಾನತ
ಸಾಂವಧಾನ
ಹೖದರಾಬಾದನಲಲ
ಕುಳತುಕೂಳಳ
ಪರವಾಹದಂದ
ನಕಲಸ
ಸಂವಧಾನವನನು
ಲವಂಗ
ಜಮೕನನ
ಜಗಳವಾಡ
ಬಸಸನ
ನೂೕಂದಾಯ
ಅರಹತಾ
ರದದುಪಡಸ
##ಗಳಗಂತಲೂ
ಬಸವರಾಜು
ಬಂಗಳೂರಲಲ
ಮೕಡಂ
ಸೃಜ
##ಷಾಢ
ತರಕಂಡ
ಊಹಾಪೂೕಹ
ಉಳಳಾಲ
2004ರಲಲ
ಜೕನುತುಪಪ
march
ವವೕಕಾನಂದರು
##ಕೂಳತಾರ
ಬಂತಂದರ
ಅರಣಯಾಧಕಾರ
ಪಂಗಡದ
ಅಸಸಟಂಟ
ಗರಾಫಕಸ
ತುಂಗಭದರಾ
ವರಷಾಚರಣ
raghunand
##aneditor1
raghunandaneditor1
sr
ಆತುರ
ಏಷಯಾದ
ಐಐ
ಗದದರ
ಪಜ
ಬಾಪ
ವಚ
##ತೂೕಟ
##ಜೂರ
##ೂತಪೂರವ
##ಲಲೂೕ
##ಾಗಳು
##ತತೂರು
ಮಾಡುವಂತಹ
##ವಾಟಕ
##ಲುಕ
ಕೂಬಬರ
##ರಸತಯಲಲ
ಬಳಸುತತರುವ
ಸರಕಸ
ಸರದೂ
ಕುಮಮ
ಕುದಸ
ಹೂಳು
##ಗರೂ
##ಸತೕನ
##ಸಥಳದ
ಮೕಲೕ
ಅಭೂತಪೂರವ
##ಬಹುದಲಲ
ಪರತಜಞ
ನೂೕಡಲಲ
##ಕಟಸ
ಹೂರಕಕ
ಜೂಜ
ಮೂಲಕವೂ
ವೖಯುಕತ
##ವನಂತ
ಮೖಲಗ
ಸನಹ
ಹೂಂದತತು
ಸಥಳಗಳನನು
ಸಂಸಥಾನದ
ವರುದಧವೂ
ಬಹುಬೕಗ
ಕಳಂಕ
ಪಡಯುತತದದ
##ಗೂಳಳುವುದು
ಕರಮದ
ಬಟಟಯ
ind
ಮಕಕಳೂ
ಫಲೖ
##ಸಕೂಳಳುತತದ
ವಾಹನಯ
ಬಾಲವುಡನ
ಕುಟುಂಬಸಥರು
ಅಗತಯಕಕ
ಇವರಬಬರು
ಒಪಪಕೂಂಡದದಾರ
ಇಡಲಾಗದ
ಮನಯವರಗ
ಜಡಎಸನಂದ
11ರಂದು
ವವರವಾದ
ವಜಯದ
ಪರಕಟಸುವ
ತೕಕಷಣ
ಉದದೕಶವಾಗದ
ಮನಯಲಲದದ
##ಗಡರ
ಕೂರತಯನನು
ಪರವೕಶಸುವ
ಹೖಡ
160
ಮಾದರಯಾಗ
ತರಳದದಾರ
ಆಟಗಾರರನನು
ಯಡಯೂರಪಪನವರ
ಹೕರದ
ಪರಚಯಸುವ
ಉದಾಹರಣಗಳು
ಘೂೕಷಸದರು
ಬೖಯ
ದನಾಂಕವನನು
ಬಳವಣಗಯಲಲ
27ರಂದು
ಸನನಧ
ವತರಣಾ
ದೂರಯತು
ಮಾಹತಗಾಗ
ಮೕನುಗಾರರು
ಗಾಯಗೂಂಡದದು
ಜನವರಯಲಲ
ಹದದಾರಯ
ವನಯೂೕಗ
ಶೕರಷ
ಡೕಟಂಗ
ಇರುತತತತು
ಬೕದಯಲಲ
ಓಡಾಡುವ
ಕೂಗದರು
ಉಲಲಂಘಸ
##ife
ಶಲಪಾ
ಅಸಹಾಯಕ
ಲಯಾಬ
ಕಯಾಂಪಸ
exp
ಚೕತರಕ
span
ಪರವಾರದ
trans
ಆಕರಮಣಕಾರ
ಪರೂೕಟೕನ
ಕೂೕಲಕತತಾ
ಗಡಯಾರ
ಛಾಯಾಗರಾಹ
ಆಚರಸದರು
ರಾಮಸವಾಮ
ಎಲಕಟರಾನಕಸ
ಅವೖಜಞಾನ
4ರಂದು
ve
vis
ಅದಯ
ಎಳಳು
ಏಕತ
ಒರಗ
ಒಡಯುವ
ಕತತನ
ಚಟನ
ಟಪಸ
ತತತವ
ಧೕರ
ಪಬ
ಫಯಾನ
ಬೃಹ
ಮಲಪ
ಲಫಟ
ವದರ
##ಶಕತಯ
##ಜಾಲ
##ual
##ys
##೫ರಲಲ
##ಾರಸ
##ಕಕಳ
##ಕಕೂೕ
##ವುಂಟ
##ವಾಗರಲಲಲ
##ಕರೕನ
ನೕವಲಲ
ಕಲರಸ
ಸರಯಾ
ಸುಲಗ
ಕುನ
ಕುಟ
ನೕಡುತತೕನ
ಹಚಚಕೂಳಳ
ಮಹಾಯು
##ೂೕಟಾ
ಕೂಡುತತೕನ
ಬರತದ
ಸೕರದದರು
ಅನಲೖನ
ಕೖಗಳನನು
ಅಂತಯದಲಲ
ಶರೕಯಾ
ವೖಚಾರಕ
ಎಸಬಐ
ಪಕಷಗಳನನು
ಬಳಕನಲಲ
##ಯಾದವು
ಸಂಗತಯನನು
ಸೂೕಮಾರ
ಸಪಎಂ
ಕೂೕಟಯನನು
ವಷಯವಾಗದ
ಕಳಸದ
ಉತತರಸದರು
ಅಂಗೖ
ಮೖಸೂರ
ಮುಗಲು
ಶಕಷಗ
ಕವಲು
ಹಡದದದ
ಪರಣಾಮಗಳನನು
ವವರವಾಗ
ಗಮನವನನು
ಗಡರು
ಸಾಹತಯಕ
ಹಾಲನಲಲ
ಒಳಗಡ
ತಂತರಗಾರಕ
ವಕಟರ
ಬಂಬಲಕಕ
17ರಂದು
ಮರುಕಳ
ಪರತಕರಯಸದದಾರ
ಬದಲಾಗುತತವ
ವಕಟೂೕರ
ಗರಭಗು
ವನಯಾಸವನನು
##owda
ಇಟಟದದ
ತರಯುವ
##ವೖದಯ
ಸಾಯುವ
ಹೂರಬಂದು
ಶರೕಕಂಠ
##ವಾಲಾ
ರಣಬೕರ
ಕಾನಫರನಸ
ಪರವರತಕ
ಪಾಲಗೂಳಳಲದದಾರ
ವಶಾಲವಾದ
ಜಂಟಯಾಗ
ಮಾಂಸಾಹಾರ
ನಯಾಯಾಧೕಶರ
ಜರಮನಯ
ಅಬಬಾ
ಕಣವಯಲಲ
april
##ಕಕೂಳಗಾಗ
##ಕಕೂಳಗಾದ
ಒಕಕಲ
ಉತತರಾಧಕಾರ
ಹಣಣುಮಕಕಳ
ಕಾಲನಡಗ
##ಮೂರತಯ
ವಾಟಾಳ
ಸವತಛ
ನಾಗಾಲಯಾಂಡ
ಟರಸಟನ
model
ಆಮಂತರಣ
ಹೂೕಬಳಯ
ಉತಕೃಷಟ
face
ಅಮಾನಯ
ಓಟದ
ಕ೦
ಕೕನ
ಡಂಗ
ದಾಹ
ನಚಕ
ಬವರ
ರಟರ
ವಾಮ
ಶವಾಜ
##ಜೂೕಳ
##ಇಂಡ
##ಂದಗ
##ತತರು
##ಗಳದದರ
ಮಾಡಸುವ
ನಡಸುತತಾರ
ನಡದರುವುದು
##ಾವತಾರ
ಹೂತತನ
##ಗಳಲಲೂಂದು
ಆಗಬಾರದು
ಹಚಚಲು
ಇಲಲೂಬಬ
ಜನಪ
ವಯತಯಯ
ಮಹಣು
ಅದನನೂ
ತುರು
ಕಡನ
ಅನವರ
ಕೖಯ
##ರಮಟಟಗ
##ಕಸೂಚ
##ಮಗಡ
ಮೕಜರ
##ಎಸಇ
ಕೕಂದರವನನು
ಕಾಣುವುದಲಲ
ಚುನಾವಣಗೂ
##araj
ಒಂದಕಕಂತ
ಸಪಾಟ
ನಟರಾಜ
ದರಪ
ಬೕರಯೕ
ಪರದೕಶವು
ನಯನ
ಸನಮಾಕಕ
ಸುತತುವ
ಆಯಕಗ
ಭಾಷಗಳು
ಅಮರನಾಥ
ನೂೕಡಯೕ
ಜಯಭೕರ
ಬಯಸದರ
ಎಂದರೂ
ನೂೕಟೕಸ
ರಚಸರುವ
ರೂಪಾಯಯ
ಚಂತಸ
ದಾಳಂಬ
ಹತತನೕ
ಉದಯೂೕಗದ
ಸಂಭೂೕಗ
ಪರಶೕಲನಾ
ಬದದತತು
24ರಂದು
##ಬಟಟತತು
ಶಾಂತಯುತವಾಗ
ಕಟಟಡವನನು
ವಧಾನಸಭಗ
ನಷೕಧಸಲಾಗದ
ಪುಟದಲಲ
ಜಪಎಸ
ಪೕಠೂೕಪಕರಣ
ಒಳಗೂಂಡರುತತದ
ದುಡಮ
ಬರುಸ
ಬರುಸನ
ಒಳಳಯದ
ದನಾಚರಣಯ
ಬರಟಷರು
ತಡಯುತತದ
ಪದಾರಥಗಳ
ಫಂಡೕಷನ
ಯಶಸಸಗ
ಯಶಸಸನನು
ಅಯಯರ
ಮಕಸಕೂೕ
ಪರತಷಠಾಪನ
ಉಕಕನ
ಕಾಂಪಂಡ
ಪೕಳಗಗ
ಕರೕಡಾಪಟುಗಳು
ಲನಕಸಾಯಣ
ಸಹಭಾಗತವದಲಲ
ವಾಟಸಆಪ
jpghttp
ಬಯಾಕಟೕರಯಾ
ಮಾಯಾವತ
ಸವಯಂಸೕವ
ಸಂವೕದನ
ವೕಶಯಾವಾಟಕ
sl
ಇಯರ
ಎಸದ
ಕಯು
ಗರುಡ
ಡೂೕರ
ಡಯಟ
ತಶ
ನನನೂಂದಗ
ಪಾಣ
ಬಾಜ
ಮಮಮ
ಹಯು
##ಪತನ
##ೕನೕ
##ಬಾಣ
##ಬಸವ
##line
##act
##16
##5ರ
##ಢಯ
##ರುತಯ
ಮಾಡದದರಂದ
ಸಂಕರಣ
##ವಾಣಯ
##ಂದರೂ
ಮೂವರ
ಸುರು
ನೕಡದದಾನ
##ಪರವೃತತ
ಎಲಲರಲಲೂ
##ಲಯಾರ
ಬಂದದದವು
ಅಲಲೂಂದು
ರಾಜಯಮಟಟದ
##anj
##ರಲಲೕ
ಎಸಡ
ಬಳಕವೂ
ಬಾರಸದ
ಮಾತನಾಡುತತದದ
ನಟಸದ
ಬಡುವು
ಹರಪನ
ತುಂಬಾನೕ
ನಡಸದರ
ನಯಾಯದ
ವಧಾನದಲಲ
ಶವಾನ
ಯಾವುವು
inde
ಸಲಲಸಬೕಕು
ಗೂೕವಾದ
ಒಬಬರೕ
ಬಯಾಂಕಗಳ
ಭಾಷಗಳನನು
ಕವಂಟ
ಸಾಗಸುವ
ಸಾಗಸಲು
ಧರಮಗುರು
ನಂತಲಲ
ಹಾರಾಡ
ಪರಕಟವಾಗ
ಸಣಣದಾಗ
ನವಜಾತ
ರಚಸಲಾಗದ
ಕಚೕರಗಳು
ಹಾಸನದ
##ವಂತರು
ಸಥಾಪಸುವ
ಮರುಕ
ಲಭಯವದದು
ಸೃಷಟಸುವ
ನನಪಸಕೂಳಳ
ಹಂದೂಸತಾನ
ಹೕಳಕಗಳನನು
ಲಕಕಸದ
ಸಮುದಾಯಗಳ
ಅಧಯಯನಕಕ
ತಾರೕಕ
ಕುತೂಹಲದಂದ
ಕಾಳಂಗ
ಬುದಧಜೕವ
ಫಾರಂ
ಪುರಾತತವ
ಚತರೕಕರಣದ
ಸೕತುವಯ
ವಶಷಟವಾದ
ಕಾಸಟಂಗ
ಕಳಯುವ
ಶಬರದಲಲ
ಕಾರಯನರವಹಸುತತರುವ
ಮೂೕಟಾರು
ಶತಕೂೕಟ
##ಗೂಳಗಾಗ
ಒಣಗದ
ರವೕಂದರನಾಥ
##ಸಮರಣ
ತರಕೂೕನ
ಚಳಗಾಲದ
ಮನಸಥತ
ಸೕತಾರಾಮನ
ವರುಣನ
ಸರವೂೕಚಚ
boss
ಮೂಳಕಾಲ
ಹೕಗರಬೕಕು
ಶರದಧಾಂಜಲ
ದೃಶಯಾವಳ
ಅಸಂಖಯಾತ
cor
sri
ಆಲವ
ಕಮಸ
ಗದಯ
ಗದದದ
ಥೖಲ
##ಟರಗ
##ೂಪಪ
##book
##ಾಲಗ
ಸಮತಯಲಲ
ಸರಗ
ಸರಪಡಸಲು
ಸುರಮ
ಕರನ
ಕುಣಗ
ಹೕಳದದಾನ
ಎಂಬಾತನ
##ವೕಣ
##ಂಕಟ
ಗುಡಸಲು
##ಳುಗಳು
ಬರಯರ
ಮನೕಶ
ಮುಂದಾಗದದ
ಅಲಲೂ
ಕಡಗೂ
ಎಂದವರು
ಪರಶನಯೕ
ದೕಶಯ
ಉಪಕಾರ
ಹಾಕುತತದ
ಪಕಷವಾಗ
##ಸಸಗ
ಸಂಬಂಧದಲಲ
ಕಟಟಗ
ಆರಂಭದಲಲೕ
ದಾಖಲಾಗತತು
ಮುಖವಾಡ
ವಷಯವಂದರ
ಅಗಲದ
ಅಸಮರ
ಬುದಧಯ
ಯಾರೂಬಬ
ತಳಸಕೂಡ
ಪರಸನಲ
ಇದದದದರ
ಪರತಯೂಂದ
##ಪಟಟಣದ
ಪರೕಕಷಸ
ಕೂಟಟಲಲ
ಬರುತತೕನ
ಟರಪ
ಪೂಜಯನನು
ಕೂರಟ
ದನಗಳವರಗ
ಕಲಪನಯ
ಹಾಡದ
ಸಂದಾಯ
ಆಲಟ
ಕನಸಲಂಗ
ಸಥಾಪಕ
ಪತರಕಗಳ
ಇದರಲಲರುವ
ಉತಪನನದ
ಪತತಯಾಗದದು
ಮನುಷಯರು
##ಬಟಟದದ
ಕೕಬೂೕರಡ
ಬಂದರಲಲಲ
ಪರಭಾವದಂದ
ಒಡವ
ಇಳದದ
ಬೕಜಾರ
ಶಶಕುಮಾರ
ತರುವಾಯ
ಮಣಸನ
ಗಂಗೂಲ
ಕರಸತ
ಯೂೕಚಸದ
ತಗದುಕೂಂಡದದಾರ
ತಕಕಗ
##able
ಪಾಸವರಡ
ಸತರೕಯ
ವಶವಕೂೕಶ
ಸಮೕಕಷಯಲಲ
ಜರುಗದ
ಮಾರಕಾಸತರ
ಉಷಣಾಂಶ
ನಭಾಯಸಲು
ಚತರಮಂದರಗಳಲಲ
ಲಲತಾ
ಶೕಖರಣ
ಅರೕಬಯಾ
##ಪೂಜ
ಪಾಶಚಮಾತಯ
ಯಶವಂತಪುರ
ಲಾಹೂೕರ
ಕಮಾಂಡರ
ಸುರತಕಲ
1ರ
ಆಂತರ
ಆಲಕ
ಈರ
ಖನನತ
ಗಪಯ
ಢಕಕ
ತವಾರ
ದಂಡನ
ನಾರು
ಫಲಾಟ
ಬಸರ
ಮತಯಲಲ
ಸಲಾಟ
ಹಾವನ
೩೨
##ರಗಳ
##ರನಲಲ
##ವಹಾರ
##ಮೕಶವರ
##ಬಕ
##iy
##೦ರ
##ಲಲರ
##ುತತಲ
##ದರಲು
ಮಾಡಬೕಕಾಗದ
##ಲುಮ
ಸಮೕರ
ಸುಗಗ
ಕುಲದ
ನರವಾಹ
##ಪರದ
ಹೕಳಕೂಳಳುವ
ಅವಾರಡ
##ನೕಷನ
ಅರವ
ಕಾರಯರೂಪಕಕ
ಸಹವಾಸ
ಸಹಮತ
##ಂಚನಗರ
ಅದೕಕ
ಸೕರಸದ
ಕಾರಣಗಳಗಾಗ
ಹೂೕದಲಲ
##ವನೕಯ
ಗರಭಾವ
ಬಳಕನನು
ಒಂದೂೕ
ಹಣಕಕ
ದಾಂಡ
ಬಸು
##annad
ಆರಂಭದಂದಲೂ
ಸಾಲುಗಳು
ಬಟಟದದು
ಸುದದಯಲಲ
ಭೂಷಣ
ಬಡುಗಡಯಾಗಲದ
ನರಮಾಣದಲಲ
ಬಂಧನದ
ಕೃಷಯಲಲ
ವಧಾನಸಭಯ
ಪರತಭಯನನು
ಅಡಪಾಯ
ಪರಕಟಸದರು
ಬಳಗಗನ
ರಂಗಾಯಣ
ಗಾಯಗೂಂಡು
ಎನನುತತದದಾರ
ಪರಾರಂಭಸದರು
ರಕಷಕ
ಪುಟಟರಾಜು
##ement
##oth
ಚಾಕೂ
ಉದಯಮದಲಲ
ಕಡಗಣಸ
ಕಲಲದದ
ಬಾಳುವ
ಲಕಷಮೕನ
ಸಚವರಾಗದದ
ತೂರಾಟ
ಪರಗಣಸದ
ಪರಂಪರಯನನು
ಬರಾಹಮಣರು
ವಾಯುಮಾಲನಯ
ಶೂದರ
ಶೂಟರ
ಈತನನನು
2006ರಲಲ
##ಕಷೕತರದಲಲ
ಸಂರಕಷಣಾ
ಅಬಬರಸ
ಬೕಯಸದ
ಸಂಭಾವಯ
ತನಸು
ಜಾಸತಯಾಗ
ಉಲಬಣ
ವೕಕಂಡ
ಇನನಲಲದ
ಭರೂಣ
ಮುಂಜಾಗರತಾ
ಭಾರದವಾಜ
cinema
1ನೕ
ಏಟು
ಗಮಕ
ಚಣಣ
ಜಂಜ
ಡಾರ
ಭಸಮ
ರನನ
##ತಂದು
##ಮನಾ
##ಮಾದ
##pf
##ಲಲಂ
##ಲಲನನು
##ನನರು
ಪರಯಾಪ
ಮಾಣ
##ವರದದಾರ
##ತರಾಗರುವ
ಸಂಧರ
##ಂಗಯಾ
##ಾಸಥ
ಸುಮಾರ
ಸುಗಂಧ
ನರವನನು
ಹೕಳತಾರ
ಆಗಲೂ
ಮಹಾಪ
ಬರಜ
ರೂನ
ನೂೕಡುವಾಗ
ತೂಲಗ
ಆಸವಾದ
ತುಂಬಲು
ಕೂೕಟಯಾನ
ಬಹುಜನ
ಬಹುಕೂೕಟ
ಪರದೕಶಗಳನನು
ನಡಸಲದ
ಕಳಕಳ
##ರಾಗುತತಾರ
ಬೕಕಂದು
ತಪಪಸುವ
##ale
ಸಕಕು
ಸಲಲಸಲಾಗದ
ತಳಸಲು
ತಳಸುತತದ
ಆನಗಳು
##stit
##ಾಭಯಾಸ
ಬರುವವರಗ
ಪರಶಸತಗಳು
ತಲುಪಸುವ
ಖುದದಾಗ
ಮಾಡದದದರ
ಉದಯೂೕಗಗಳ
ನಯಮದ
ಸೖಟನ
ಪರಚಾರದಲಲ
ಪತತಗ
ಬದದಲಲ
ಪಂದಯಕಕ
ಗರವಸಲಾಯತು
ನಾಟಕಗಳು
ಲಾಭದ
ಹತಯಯ
ವಯಾಟ
ಸಂಗರಹಸುವ
ಮುಚಚುವ
ನಾಮನರದೕಶ
ಪುರಸಭಾ
ಟೕಕಗ
ಅನಸುತತ
ವಕಟಗ
1998
ಸಾವನನಪಪದದು
state
ಪದಕಗಳನನು
ಅಂಥಾ
ಹಕಕಗಳು
ಮಡವಾಳ
ಯಾತರಗ
ಪರತಭಟನಯ
ಯೂನಯನ
ಕುರುಬ
ನರಣಯವನನು
ತಳಳಹಾಕ
ಬೂೕಧಕ
ನಾಟಯ
ಬದಲಾಯಸುವ
ಸುಧೕರ
ಉಪಪನಕಾಯ
ಕರತಂದ
ಗುಲಾಮ
priceicon
ಸುಮಮನೕ
ಶೃಂಗಾರ
##ಸಥಾಪನ
ಕಡಗೕಡಗಳು
ಪರೂಡಕಷನ
ಇಕಬಾಲ
bigg
ವಶವಾದಯಂತ
ev
gu
sk
ಅಸಥರ
ಆಧರಸದ
ಖಂಡರ
ಚದು
ಟಾರ
ತನು
ಪಟು
ಸವಾದ
##ುಲದ
##ಕೕಟ
##ಾಗಲಲ
##ತತಾಯ
##ೂೕನಾ
##ೂೕರಾತರ
##ಕಕಲ
ಮಾಡಲೕ
ಮಾಡದದರೂ
ಮಾಡರಲಲಲ
ಸಂಜು
##ಕೂಂಡವು
##ವೕಷ
##ಯೂಷನ
ಗುಡಸ
##ಯನನುಂಟು
ಅವತರ
ವಯಟ
ಇದನನಲಲ
ಪುಲ
##ಂಚಂ
ಕಾಲಕಾಲಕಕ
ಅನಮ
ಹೕಗಲಲಾ
ಸೂಟ
ಎಸಕ
ಉಪಸ
##ಯುಲರ
ಇದೕನು
##ತವಾಯತು
ಕಳಕಂಡ
ಅಸಹನ
ಪರಯರಗ
ಶವಯೂೕಗ
ತಪಪಸಕೂಳಳ
ಯುಗದ
##ೕಸನ
##ೃಷಟಯಂದ
ಸಕಕರಯ
ಮಕಕಳಗೂ
ನಾಥ
ಬಂಧಸದ
ಹಡದದ
ತಯಾರಸಲಾಗುತತದ
ನಂಬದ
ಪಾತಾಳ
ಪರಯತನಗಳನನು
ಪರಯಾಣಕರನನು
ನೕಡುವಲಲ
ಎಲಗಳನನು
ವಕಫ
ಚಂತಾಮಣ
ಹಾಸು
ನರೕಕಷಯ
ಹತತದ
ಪೕದ
ಕಮಷನರ
ಲಭಯವಾಗದ
ವಸತೕರ
ವಯಸಸಗ
ಪರೕಮದ
ವಸತರಸ
ಗುಂಪೂಂದು
ವಯಕತಪಡಸರುವ
ದವಯಾ
ಆಯೂೕಜಸದ
ವವಾದತ
ಘಟನಯಂದ
ಚಾರಮಾಡ
ವಶವಾಸಕಕ
##ಲಕಷಮೕ
ಅಳದು
ದಂಪತಯ
ಸಭಾಂಗಣ
ಮುಂದುವರಯಲದ
ಪರಾಯದ
ಆಶಚರಯಕರ
ಗೂೕಡಗಳ
ಪಾದಾರಪಣ
ರಾಗಣ
ಮಚಚನ
ಒಳಳಯದಲಲ
ಉಪನಯಾಸಕರ
ಬೕಟಯಾಡ
ಹಣಣಗ
ತಡಗೂೕಡ
ಎಸತಗಳಲಲ
ಶುಭಾಶಯಗಳು
ಮುನನುಡ
ಲಂಡನನಲಲ
ಕಂತನ
ಪರಶುದಧ
video
ಗಮನದಲಲಟಟುಕೂಂಡು
ಶಕಾರಪುರ
ಮೕಲವಚಾರಣ
ಏನನನಾದರೂ
ವವಾಹತ
ಪಾಂಡವಪುರ
ತಹಸೕಲದಾರ
ಜಲಾನಯನ
ಮಹಣುನ
mah
pra
wind
ಅಮಾ
ಅಜಞಾನ
ಊಳಗ
ಜೂೕಪ
ತಾಗ
ದಾಲ
ಪಚಚ
ಪವಾರ
ಬಡಯ
ಶೃತ
ಶಸತನ
##ತವನನು
##ತೕರಾ
##ರಟ
##ಲಾಲ
##ff
##೭ರಲಲ
ಪರಪಪನ
ಕೂಲಕ
ಕಲಷಟ
##ನುಸಾರ
ಬಳಗಳು
ಸುನಾಮ
ಕರತಾ
ನರಧ
##ಗರಂಥ
ರಾಜಭವನ
##ಗಗಾಗ
##ಮಾನಂದ
ಅವನಯೂ
ಕೂಡಲಾಗದ
ಬರತು
ಅಭನವ
##ತಾದರೂ
##ಟಟುಗಳು
ಹುಷಾರ
rele
ನಲಲಸಲು
ದೕಶದಂದ
ಗರಹಕ
ಹೂಸಬರ
ಸಲೖಡರ
ಸಂಬಂಧಗಳನನು
ಸಪನ
ಮಾತನಾಡುವಾಗ
ಸಟಪ
ಪೂರವಾ
ಕಂಡಲಲ
ದುರಯ
ಹಸಮಣ
ಇನನೂಬಬರ
ಸೕಸ
ಅಸೂಯ
ಶವಪಪ
ಸದಧವಾಗ
ರಸತಗಳನನು
ಎನಸದ
ಹಂತಗಳಲಲ
ದಕಷಣದ
ಉದದೕಶವನನು
ಮಾಡುತತದದರ
ಪೂಜಸ
ಸಥಳೕಯವಾಗ
ನರೕಕಷಯದ
ಹತತವರು
ಅಪಪರ
ಕನಸುಗಳು
ರೂೕಗಕಕ
ಸನಮಾವ
##ಮಂಟಸ
ಜತಗನ
ಚಲಸುತತದದ
ಚಲಾಯಸ
ಪರಪಾಠ
ಮಕಕಳಗಾಗ
ಕಸಾಪ
ಪೂೕಷಕ
ಅರಧದಷಟು
ಅಂಗಡಗಳು
ಚಾರಲಸ
ಶತಮಾನಗಳ
##ಗೂಳಸುವಲಲ
ಕಾರಯಾಚರಣಗ
ಸಂಘಟನಾ
ಬಲಲವ
ಧಯಾನದ
ವಾಟಸಪ
ಖಚತವಾಗದ
ದುಡದು
ತಪಸಸು
ಬಹಾರದಲಲ
ಜೖಲನಂದ
ಗೂೕವಾದಲಲ
ಜಯೂೕತಷ
ಧೂಳ
ತಾಳಮದದ
ಯುರೂೕಪಯನ
ಕದಂಬ
ವಕರ೦
ಬ೦ಗಳ
ಕಟಟುನಟಟಾಗ
ಮುಕಕಾಲು
ರಾಮಲಂಗಾರಡಡ
ಹಂಭಾಗದಲಲ
ಕಾನಸಟಬಲ
ಅಫಘಾನಸತಾನ
ವಜೃಂಭಣಯಂದ
ದುಪಪಟಟು
ನನಗುದಗ
ಸಾಂವಧಾನಕ
ಮಹಾಯುದಧ
found
ಕಷಯ
ಕವಾಡ
ಖಗೂೕಳ
ಗುವ
ಛದರ
ಜನು
ತಾಮ
ತಶಂ
ಪಳಳ
ಫಸಲು
ಭಕತಯ
ಭಗತ
ಮರುಗ
ವಡಡ
ಸದದಾರ
##ತಥ
##ಬರುವ
##ks
##ಚವ
##ಚೕರ
##70
##ps
##45
##ಾಗೃತ
##ೂೕಳಕ
ಪರಖರ
##ವರಬಹುದು
##ಟಟದದರು
##ವಾಗದಂತ
##ಂಗಗ
##ನಾದರ
ನಡಸುತತದದರು
ಸಮತಾ
##ಯಾಗುವಂತ
ನೕಡದಾಗ
ನೕಡುವುದರ
ಆರಡ
##ಯೂಲ
2022
ವರಷಕಕಂತ
ಹುತಾತ
ಮನಬಂದಂತ
ತುದಯಲಲ
ಕನನಡಪರ
ಸೂಬ
ಕಾರಣದಂದಲೕ
ಅಧಕಾರಗಳಂದ
##ದಾಗತತು
ಕೕಂದರವಾಗ
ಕೃತಯನನು
ಸಪತ
ದಾಳಯಂದ
ಆತನು
ಮಾಡುವರು
ವೕಳಯ
ಕಳಕ
ವಾರತಗಳು
ಬಹಷಕರ
ಉತತಮವಾಗದ
ಸಲಲುತತದ
ಬದಲಸುವ
##ದುಕೂಂಡದ
ವಭಜ
ಪರೕಕಷಗಳು
ಜಾರಗೂಳಸಲು
ನನಪರಲ
ಅಲವ
ಹಬಬಗಳ
ಜಯಮಾಲಾ
ಎಚಐ
ಬಾಬರ
ರಾಮೕಶವರ
ಸಪರಧಸುವ
ರಾಜಯದಾದಯಂತ
ಒದಗಸಲಾಗದ
ಕಲಪಸದ
ಹಂಚಕೂಳಳುವ
##old
ಟವಸಟ
ಸಕವ
ಲಭಯವವ
ಸೃಷಟಯಾಗದ
ಹಮಮಯಂದ
ಒಟಟೂ
ಒಟಟಗೕ
ಲಕಕಕಕ
ಸಮುದಾಯವನನು
##ಬಸಪಪ
ಅಪರತಮ
ಹೃದಯದಲಲ
ವತರಸಲಾಯತು
ರಜತ
ಚಂದದ
ಗರಭಣಯ
ಸಾಮಥ
ಮಲಗದ
ಕೂಡುಗಯನನು
ಜಯಂತಯನನು
ನಕಲು
ಲೂಯಸ
ಸಪಂದಸದ
##ally
ಅಡಗದ
ಮೂಟಟಯ
ನಧನರಾದ
##ಪರಭು
##ಭೂಮಯಲಲ
ಮಂಡಳಯು
##ಬಲಯು
ತಯಜಸ
ವೕಕಷಣಗ
ಕಾಗೂೕಡು
ಧರಸದ
##ಮಹಾಲ
ಕಹಳ
ಉಪಚುನಾವಣಯಲಲ
ಮುದುಕ
ತಲದೂೕರ
ಕಆರಎಸ
ಪರಮಾತಮ
ಖನಜ
career
ಪರಾಣಾಪಾಯದಂದ
ಪುನಶಚೕತನ
au
air
down
ಅಲಗ
ಆಣ
ಓಂಕಾರ
ಖಳನ
ಚಟಕ
ಟಯೂಬ
ದಗಂತ
ಪಲಯ
ಲೖಕ
ಶಡ
ಸಂತರ
ಸಣಸ
ಹಳಗ
ಹವಣ
₹5
##ವಜಯ
##ನಷಠ
##ಬರಾ
##ಸಲಲಲ
##ಾನಾಯಕ
ಕಲೖ
ಬಳಸುತತದದ
##ಲಾಗಲಲಲ
ಕರಯಾತಮಕ
##ಯಾಗನ
ಹೂದ
ಕಾಮುಕ
##ದೕಯ
##ಪರಮಾಣ
##ನಗುಡ
ಮೕಲಯೂ
ಮಹಜ
ಚತರಕಕಾಗ
##ತನಕ
##ಸುತತರಲಲಲ
##ಸುತತದದಾನ
##ನೕಹ
ಸಹನ
ಹುರುಳ
ಕಾಲರ
ರೂವಾರ
ನೂೕಡದದೕವ
##ಗೂಂಡದದರು
ದೕಶಕಕಾಗ
##ಯುಟ
ಸನಹಾ
##ಮುಗ
ದೕವಳದ
ರೂಪಕ
ಬೕರಪಡಸ
ಪರದೕಶದಲಲರುವ
105
ಅಸಂಬ
##ರಾಗರುತತಾರ
ಸೕವಸುವುದು
##ಗೂಳಸಲಾಗುತತದ
ಬಟಟದದ
##ವಯತ
ಸಾಕಷಯಾಗದ
ಮನಸೂರ
ಸಾವರದ
2018ರಲಲ
##ಶಚಂದರ
ಅಲಹ
ರಸಗೂಬಬರ
ಜಯರಾಮ
ಅಂದಾಗ
ಹಾರಮೂೕನ
ರಚರಡ
ಡಸಎಂ
ನರವಹಸದ
ನರವಹಸುತತದದಾರ
ಬೕಳಲದ
##ಯಾಮೂೕಹ
ಮುಂದುವರಸುವ
##ಹಾಕಲು
ಕಲಾವದನ
ಸಲಭಯಗಳ
ವಸತರಣಗ
ವತರಸುವ
ಬೕಜಗಳು
ಪುರಸಭಯ
ಹೕರುವ
ನಾಯಕರಾದ
ಹಂಗಸರು
ಸಸಪ
ಕತಗಳು
ಚರಮಕಕ
ಮಂಚು
ಯಂತರೂೕಪಕರಣ
ಮುಂದುವರಸಲು
ಯಾತರಯ
ಪರಜಾಸ
ತರಕಾರಗಳು
ಕಾರಯನರವಹಣಾಧಕಾರ
ಮಾಡಕೂಡುವ
ಗದದುಗ
ದಾಸೂೕಹ
ಗರೕಡ
ಕಣಕಕಳ
ಅನಯಮತ
ದುಬೖನಲಲ
ಆಫೕಸಗ
ರಪೂೕರಟ
ಚುರುಕ
ನೂೕಡುಗರ
ಗಾರಡನನಲಲ
ಸರಪಳ
ಹೂಲದಲಲ
ಮಂಟಪದಲಲ
ಮೂೕರಚಾ
ವಯೂೕಮತ
ಅಸಪಷಟ
ತಲನೂೕವು
ಪೂೕಲೕಸರು
ಟಲವಷನ
ಬಚಾವ
ಮಹಾರಾಣ
ಆತಮಕಥ
ತುರತಾಗ
ಹರಪನಹಳಳ
ಉಳು
ಏಕಾಂತ
ಔತಣ
ಕಾನಸ
ಖಜಾನ
ಗಡದ
ಡಟ
ಬಲಲದ
ಮನೕ
ಯಮು
ಶಯೂೕ
ಸಜೕವ
೪೫
##ವಲು
##ಕಂಠ
##ಸವರ
##ಸಕಸ
##ೂಬ
ಪರಕಷ
ಬಳಗಳನನು
##ಲಾಗುತತರುವ
ಕುದ
ಅವರೂೕಧ
ನೕಡುತತದದೕವ
##ನಯಮ
##ನಯಾರ
##ಲೕಜ
202
##ನೕಟ
ಹುಲಯ
ಮುಂದಾದರು
ತಮಮಣಣ
ನೂೕಡದದೕನ
ಉಪನಗರ
ಮೖಗೂಡಸ
ಕಾಣಸತು
ಕರನಾಟಕವನನು
ಕಷೕತರಗಳು
ಬಡಲಲಲ
ಬೕರಯವರು
ತುಂಬಸ
10ರಂದ
ಕಳದದ
ಬೕಕದದರ
ತೕರದಲಲ
ಮಾತುಗಳನನಾಡ
ಅಂಗೕಕಾರ
ಆನಗಳ
ಸಾಹತಯಕಕ
##ಮಾಡುತತದ
ಕಂಪನಗಳಲಲ
ಎನನಲಾಗದದು
ಇಂಗಲಶ
ಕಣಜ
ವಮಾನಗಳ
ಕುಮಾರಸವಾಮಯವರ
ಚಂತನಯ
ಹೖನು
ಪರಸಥತಗ
ಪೂರಣಗೂಳಸಲು
ಆದೕಶದಂತ
ಗಣೕಶನನನು
ಕಾರುಗಳಲಲ
ಅಪಪಳಸ
ಬರಯಲಾಗದ
ತರಳದದರು
ತರಳದರು
ಮುಂಬೖಗ
ಜಲಲಯಲಲರುವ
ಜಾತಕದಲಲ
ಘಟಕಗಳ
ಘಟಕಗಳನನು
ವಲಯಮಸ
ಗರವವನನು
ತಂಡದವರು
ಗದದದದ
ಜಾಧವ
ಕಟಟಡಕಕ
ವಸತರಸಲು
ನೂರಕಕೂ
ನೖರುತಯ
ಉಪಯೂೕಗಕಕ
ಅನುಕೂಲವಾಗುತತದ
ಅಂಗಡಗಳ
##ational
ಕುಳತರುವ
ಡಸಂಬರನಲಲ
ಜಗತತನನು
ಮೂಡಸರುವ
ಬಹರಂಗವಾಗದ
ಶೕಘರದಲಲಯೕ
ಆಹವಾನಸದ
ಸವಾರರಗ
ಮಯಾನಮಾರ
ನರೂಪಕ
##ರಾಡಳತ
ಉಳಯಲು
ಶುದಧೕಕರಣ
ಸಕರಪಟ
##ಫಾರಮ
ಆಗಮಸುವ
ಮಟರಕ
ಆಗಮಸದದರು
ಮರಣದ
ಬೕಸಗಯ
ಅಂತರಜಾಲದ
ಭರತನಾಟ
ಕರಕಟರ
ಚಾಂಪಯನಶಪ
ಕರದೂಯದು
##ವನಸುತತದ
ಮಶರಣವನನು
ವದವಾಂಸರ
ಪರಾಯೂೕಗಕವಾಗ
rajkumar
ಕಲಕಕಸ
ಪಾರದರಶಕ
ಉದಧಾರ
ಆಜಾದ
ಏಕಾಂಗಯಾಗ
ಆನೕಕಲ
ಸೖದಧಾಂತಕ
ಸಗರೕಟು
latest
ಸರದೂಗ
window
jpe
road
ಇಟಲ
ಎಜುಕ
ಚಡಡ
ಜಸಟ
ತನನೂ
ಥೂಡ
ಪನನು
ಬಕರ
ಬೂಬಬ
ರಂಧರ
ಸೂೕಗ
ಸಕತ
##ವಷಟ
##ಕತತ
##ಮಯಾ
##ೂಲಕ
##ಾರಯ
##ದದೂೕ
ಮಾಮೂ
##ಕಕಾ
##ಂಗಣದ
##ರಾವತ
ಸಾಮಯ
##ಚಚನ
##ರೕಕರ
##ನುಡ
ಸಮನಾಗ
##ಯಾಗದದರೂ
ನೕಡಬಾರದು
##ಪರಶನ
##ಪರಮುಖ
ಹೕಳಕಯ
##ಯೂಡ
ಬಂದದದೕವ
##ದದರಲಲ
ಹೂೕಗುತತದದರು
ಕಾರಣರಾದ
ನಲಲದ
ಕಲಸಗಳ
ಕಲಸವಲಲ
ಕಾಂಗರಸಸಗ
ಕೕಳುವುದು
ಕೕಳರಮ
ಬಯಾಚ
ಸೂೕನು
ಮರದದದಾರ
ನಟಸದದ
ಮಾಡದಳು
ಹಸಟರ
ಬಸಯೂಟ
ತುಂಬಕೂಂಡು
ಗಳತಯ
ಸಂಪತತನನು
ಸಾರಾ
ನಡಸತತು
##ಷಟೕಕರಣ
ನಯಾಶನಲ
ತಪಪಸಕೂಂಡು
ಸಗಟು
ಘಟನಗಳ
##alth
ಬಟಟದಲಲ
ಮಂಡಸ
ಗೂೕಳ
ಕಾಯದಗ
ಕಾಯದುಕೂಳಳ
ವರಷದೂಳಗ
##ord
ತಯಾರಾದ
ಪಾರವ
ಸಾಗಾಟ
ನಂತಾಗ
30ರಂದ
ಪರತಭಾನ
ಮಲಯಗಳು
ತೕವರತ
ತೂೕರಸದದಾರ
ಪಡದವರು
ಇಂಥದದೂಂದು
ಹುಟಟದದು
ರಮೕಕ
ಚನನಾಗಯೕ
ಪರತಕರಯಸರುವ
ಸಂಸತತನ
ತಗದುಕೂಳಳುತತದ
ತಗದುಕೂಳಳುವುದು
ಆಚರಸುತತಾರ
ರೖಲುಗಳ
ಆವರಸ
ಸುಧಾರಣಾ
ಕಳಳರ
ಘೂೕಷಣಗಳನನು
##ations
ಒಂದರಂದ
ಇಟಟಗ
ಹಕಕಗಳ
ಅರಸಟ
ಸೖಕಲಂಗ
ಸಕರಯರ
ಅಂಚನಲಲ
##ಎನಎಲ
ಮೂಟಟಮೂದಲ
ಹನುಮಾನ
ಗುಡಡದ
##iki
ಪಾಲಗೂಳಳುವ
ವಾಕಂಗ
ತಾವೂ
ಪರಾಮಾಣಕತ
ಉಸರುಗ
ಗುತತಗದಾರರು
ಜಾತರಯ
ದಂಪತಗಳಗ
who
ಮೂತರಪಂಡ
ಅಬಬರದ
photos
ಕಂಚು
##ಯಾವುದೂೕ
ಚಹಾಣ
ಮಹಾಭಾರ
ಕಾಂಡೂೕಮ
ಕಯಾಲಫೂೕರನಯಾ
ಸವಾಭಾವಕ
july
ಅಜಞ
ಎಎ
ಓದದದ
ಚೕಸ
ಜಾಡ
ಝು
ಡಮಾ
ತಾಮರ
ದಟ
ಪಯಾಡ
ಮರಮ
ವಯಾಮೂೕಹ
ಶರಯ
##ಪನಕ
##sp
##ience
##ಾಗಲದ
##ೂೕಲಲ
ಮುಟಟು
##ರಸಂ
ಹೂಡಯಲು
ನರೂೕಧ
ನರವಾಗುವುದು
##ಾಕಾಲ
##ಸಥರಗ
ಮೕಲಪಟಟ
ಮಹಬೂ
ಕೂಡಲಲಲ
ಬರದುಕೂಂಡದದಾರ
##ರುತತದದು
##ಂಧರದ
ಕಾರಯಗಳ
ಬಂದವರ
ತಮಮದಾಗ
ನೂೕಡಬೕಕದ
ಬಲಪಡಸ
##ತಗಾರ
##ಕಕೂಳಳ
ರೖಫಲ
ಯೂೕನ
ಜೕವಕಕ
ಸಲಸಯ
ಗೂಬ
ಸಟಲ
ಎಂಬುದೂ
##ert
ಪದಕಕ
ಸೕವಸದ
ಆದಚು
ಎರಡರಡು
ಫಲವತತ
ಉದದನ
ಪಂಚಾಂಗ
ಆಯಕಮಾಡ
ಮಳಯಲಲ
ನರಮಾಣಕಕಾಗ
ಅನನಸತು
ವವರಣಯನನು
##ಗಳಾಗಲ
##ರಂದಲೂ
ವಾಶ
18ರಂದು
ಪಾಡು
ನಾಯಗಳು
ಮಾಧಯಮಕಕ
ಸಂಗೕತವನನು
ತಲುಪಬಹುದು
ಪರಹಾರಕಕ
13ರಂದು
ಸಪಷಟಪಡಸದ
ಪತರಕಗಳು
##ಆರಪ
ಪತೃ
ಶಾಂತಯುತ
ಇತಯಾದಗಳ
ಉತಪಾದನಗ
ಕಷಣಗಳು
ತರುಗುವ
ತರುಗಾಡ
ರಕತನಾಳ
ಶೂೕನಲಲ
ಉದಯಮಗಳ
ಲೕಸರ
ಅಜಾಗರೂ
ಪದವಯನನು
ಕಾಳಜಯ
ಮನಸಸನಂದ
ಸಮಾನತಯ
ನರಸೕಪುರ
ಮಯಾಥ
ತೂಕವನನು
ವಹವಾಟನಲಲ
ಉರಯೂ
##ಕಷೕತರದ
ಕಯಾಲಸಯಂ
ವಯಕತತವವನನು
ಅಮರಕಾದಲಲ
ಪರಪಂಚದಾದಯಂತ
ಮಹದೕವಪಪ
ಎಂಪ೩
ಪರಹರಸಲು
ಮಹಾಲಕಷಮ
ಕತತರಸದ
ನಲುಗಡ
ಹೂರಬರಲು
ಗುಡುಗು
mysore
ವವೕಚ
ಅರುಣಾಚಲ
ಫಲಕಾರಯಾಗದ
ತಕರಾರು
ಟವೕಟರ
ಸಪತಾಹ
cele
hel
ra
ಆಂಗ
ಖುಲ
ದಸತ
ದಕಸೂಚ
ಪಾಯಸ
ಪಡುಬದರ
ಫಾಸಟ
ಮಯಾಕ
ವಯೂ
ಷಡಯ
##ರದೕಶ
##ವಂಶ
##ವಯಾಸ
##ೕಚ
##ೕಮಾ
##ಶಕಷ
##ಬುತ
##ಬಾಕಸ
##ಡುವುದು
##ೃತಾ
ಮಾಡಸಲು
ಮುರದ
ರಾಡ
##ಾದಾರ
##ಾವತಯ
ಸಮಂಜಸ
ಸುರೕಂದರ
##ಬೕಕರುವ
ರಾಜನಾಮ
##ಣಣವರ
ಸರಕಾರವೂ
ಪೂದ
##ವಾರದ
ಅನರಹ
ಗರಜ
##ಲಸನ
ಎನನುವರು
ಆಸಡ
##ುವಂತದ
ರೂಪಾ
ನಟಸುವ
ವಚಾರಧಾರ
ಶಾಲಯನನು
ಸೕನಯರ
ಸಂಘಟಕ
10ರ
ಕಡಮಯೕ
ಶವನು
ಸಕಕರುವ
##ಸದದನನು
ಸಾಕಷಯಾಗ
ಉದದನಯ
ಸದದರಾಮ
ಭೕಟಗ
ಅನನಭಾಗಯ
##aks
##ಗಳಾಗರುವ
ತಂಗಳಗೂಮಮ
ವರದಗಳನನು
ಸಪರಧಗಳಲಲ
ವಧಸಲಾಗದ
ಮನಯಲಲರುವ
ಒದಗಸಬೕಕು
ಕೂರಸ
ಇವುಗಳಂದ
ಬಂಬಲಸುವ
ನರೕಕಷಯಲಲ
ಓದುವುದು
ಹಾಡನಲಲ
ಮಾಡದದವು
ಬೕಳೂರು
ಬದಲಾವಣಯು
ಸಂಭವನೕಯ
ಪರಶೕಲಸದರು
ಉತಪನನಗಳಗ
ತೂಂದರಗ
ಜಾಲತಾಣದ
ಬೕಡಕಯ
ಕಾಮಗಾರಗಳು
ತರುಗಸ
ಪರಭಾವವನನು
ಬಂಗೕರ
ಸಪಟಂಬರನಲಲ
ನಾಗರಹ
ಆಸಕತರು
ವಶವಾಸವದ
ವನಯಾಸಗೂಳಸಲಾಗದ
ಇಸರೕ
ಉಲಲೕಖಸಲಾಗದ
ಪಡದುಕೂಳಳಬಹುದು
ನಾಲಕನಯ
##alli
ನರಾಕರಸ
ಉಪನಯಾಸಕರು
ಡಕಕಯಾಗ
ಮೕಳದಲಲ
ಯುವತಯೂಬಬಳು
2012ರ
ದಸಯಲಲ
ಆಕರಷಸುತತದ
ಬಂಗಾಳದಲಲ
ಗಯಾಜಟ
ಮಣಣನಲಲ
ಮಜಸಟಕ
ಆರೂೕಪದಡ
ರಂಜಾನ
ಡರಾಪ
ದೕಗುಲದ
ಗೕಮಸನಲಲ
ಕೕಳಬರುತತವ
2005ರಲಲ
ತಪಪಾಗಲಾರದು
ಫಾಲೂೕ
ಜಸಬ
ವಾತಾವರಣದ
ಶಾರುಕ
ಶಂಖ
ಅದದೂರಯಾಗ
ಉಪವಭಾಗಾಧಕಾರ
ಅಸಭಯವಾಗ
ಯಹೂದ
ಸಾಯಂಕಾಲ
ಶಕುಂತ
ಪಶುವೖದಯ
ಚಾಕೂಲೕಟ
ಊಳಗಮಾನಯ
bre
bmi
ಆಲದ
ಇರುವುದೕ
ತೂೕಪ
ದರು
ಪೂೕಪ
ಪಎಚ
ಬೂೕಲಡ
ಸಕರಮ
ಹರಸುವ
##ಭೕದ
##15
##48
##೧ರಲಲ
##ುತತೕರಾ
##ವಾಗುತತದದು
##ೕರೂೕ
ಮುಕೕಶ
##ಷಟಮ
ಮೂವರನನು
ಕಲಮ
ಕಲಗಳನನು
ಅವರನನೕ
ವರಡ
ನಮಮೂರ
ಹೕಳುವುದಲಲ
ಹೕಳಕೂಟಟ
##adu
##ದೕಶವರ
ಅರಪಸ
##ಂಪಲ
ತುಟಟ
ಸವತತು
ಕೖಗಳು
ತರಲ
ಅಂತೕರಾ
ಉಪರಾಂತ
ಮೕರು
ಅಧಕಾರದಂದ
ಅಪವಾದ
ಕೕಳಬಹುದು
ಸಟರೕ
ನಟಸಲು
ಅತಹಚಚು
ಸಂಪತತನ
ಚನನಪಪ
ಮುಖೕಶ
ಎಲಲಾದರೂ
ಇರಫಾನ
ಮಗನೕ
ಕಯಾಂಡ
ಕಂಡುಕೂಳಳಲು
ಬದುಕದ
##ಕಟಟನ
ಅನುಭವಕಕ
ಚಕಕುಲ
ಭಾರತೕಯರಗ
ಗಂಟಯವರಗ
ಜಗದು
ಕವಗಳು
ಧರಮಸಥಳದ
ಪರಣಾಮಗಳು
30ರಂದು
ಅಂತರಕಷ
ಮಾಡಕೂಳಳುತತಾರ
##ional
ಓದುತತರುವ
##ೕಕರಸುವ
ಹುಟಟಸುವ
##ಹೂಸ
ತೂಡಗದದ
ಕತತೂರು
ಘಟಕದಲಲ
ಎಡಬಡದ
ಸಂಚಕ
ಕೂನಯದಾಗ
ಸಂತೂೕಷದಂದ
prof
ಆದಾಯವನನು
ಕಾರಡಾರ
ಬುದಧನ
ವಂಕಟೕಶವರ
ಸಲುಕಕೂಂಡ
star
ನವಾರಸಲು
ತುಮಕೂರನ
ಚಕಟಟು
ದಶಕಗಳಲಲ
ಮುಂದುವರಯತು
ಅನವಯಸುತತದ
ಎದುರಾಗುತತದ
ಅಯಯಂಗಾರ
ಸಳದರು
ತೂಡದು
ಹೂರಡಸದದಾರ
ಆಫೕಸನಲಲ
ವಗರಹವನನು
ಹಮಾಲಯ
ದವೕಷದ
ಡಪಲೂ
ಸಂಶಯವಲಲ
##ವರುವುದರಂದ
ಭಗವಂತನ
ಮಾಲಕರು
blog
ಅವಾಚಯ
ತರುವನಂತಪುರ
ಕಮಯುನಸಟ
##ೂೕತಪನನ
ಖಾಯಂ
ಸವಯಂಚಾಲತ
ಅಕಸಮಾತ
temple
ಇಣುಕ
ದವಂದವ
ಹವಯಕ
##ಚಂದರಾಪುರ
ಕುಣಗಲ
ur
vish
ಏಳಗ
ಜಾಯತ
ಟಂಬ
ರಮಯ
ಸಖಯ
ಹೖಲ
೩೫
##ುಂದ
##ಗಂಗ
##ರನನಾಗ
##ವಗನ
##ವಖಯಾತ
##ೖಯ
##ಾಗಬಹುದು
##ದದದರಂದ
##ುವಂಶ
ಮಾಲಾ
ಮಾಪನ
##ಕಷಮೕ
##ಂಗೂ
##ಾದನ
ಸಮತಯನನು
##ಬಬರಗ
ಸಥೂಲ
ಹುಂಡ
ಪರತಪ
ತುಳಯ
ಕೖತಪಪ
##ರಲಲದ
ಹೂೕಗುತತೕನ
ಮತತೕ
ಹಂದಂದೂ
ಕಾರಣವನನು
ಯಾವುದನನು
ಕಾಂಗರಸಸನ
ಹಲೂೕ
ಭಾಗದಲಲರುವ
ರೂಪವನನು
ಸಥಳದಲಲಯೕ
ನಮಗೕ
##ಯಾಸಪದ
ಸಾರಾಂಶ
ನನಗೕ
101
##ರಾಗನ
ಬಳಸಕೂಳಳಬೕಕು
##ಸಕಲ
ಬಟಟಲು
ಸಲಲಸಬಹುದು
ಭೂಗತ
ಗೂೕಮಾಂಸ
ನಾಗಮಂಗಲ
15ರ
ಕಾಯುತತದದಾರ
ಒಬಬಳು
ಬಯಾಂಕುಗಳ
ಬಗದುಕೂಂಡು
ಕಂಡುಹಡ
ಒಪಪಕೂಂಡು
ಕೂಟಟಗ
ವವರವನನು
ವವರಸುತತಾರ
187
ತಲುಗನ
ತಲಬು
ಉದದೕಶಕಕಾಗ
ರಾಷಟರೕಕೃತ
##ಚಛಕ
ದೕವರಲಲ
ಹಮಮಕೂಂಡ
ಸಂಕೂೕಚ
ಕಾರಯದರಶಯಾಗ
##ಾಗರಬಹುದು
ಅಕಕಯನನು
ಅಧಯಯನಗಳು
ಕಾಮಗಾರಯನನು
ಸಂತೂೕಷವನನು
ಕಸರು
ವರಷಗಳಂದಲೂ
ನಷಟವಾಗದ
ಸುರಕಷತಯ
ಒಡತನದ
ಒಡಶಾ
ತೂೕರಸದರು
ಹೂರಟಾಗ
##ಾಧಪತ
##ival
ಚಾರತರಕ
ಸಾಂಸಕ
ಬಾಳಕ
ಆಳುವ
ವೕಕಷಕರ
ಅನುಮಾನಾಸಪದ
ಭಗೂೕಳಕ
ರಾಜಧಾನಯಲಲ
ಸಾಹಸಕಕ
ಪಟಟಣಕಕ
ಕಂಡುಬರುತತವ
ನಧಾನಕಕ
ಶಬರದ
ಉಪಕರಣಗಳನನು
ದೂರಕುತತದ
##ಬದಧವಾಗ
##ದರುವುದಲಲ
##ದರುವುದನನು
ಚೖನಾ
ಮಣಣನನು
ಕೂಟದಲಲ
ಚಾಲಂಜರಸ
ಕಲಾಸಕ
ಮಹಾಸವಾಮ
ಕರತಂದು
ಚಾರಜಂಗ
ಕಾರಣಕಕಾಗಯೕ
ಅಧಯಾಪಕ
ಸಾಮಾನು
ಮೃತದೕಹವನನು
ನಲವತತು
ದೕಶಭಕತ
ರಭಸಕಕ
##ಬಣಣದ
ಅಲಕಸಾ
ಜದದಾಜ
ಶರವಣಬಳಗೂಳ
ಬರಹಮಾವರ
ಆದಚುಂಚನಗರ
med
ಅಂಚನ
ಆಷಾಢ
ಐಐಟ
ಕವಾ
ಕರಾಟ
ಕವೕನ
ಗಮ
ಜೂೕಹರ
ಟಾಸಕ
ನಪು
ಷೂೕ
ಸಕಾರ
##ವಾಯ
##ಶಾಪ
##ಬೕಕಷ
##ಚಲು
##ೂಯಯ
##ಎಎಲ
##ian
##we
##ಾರದಲಲ
##ವರಬೕಕು
##ಯಾಂನ
##ವುಗಳ
ನೕತು
##ಷಟಕಕ
ಹೂಲಗ
ವರಮಹಾಲ
##ಹುಲ
ಹೕಳುತತಲೕ
##ರಗಾಂವ
ಬಂದವರಗ
ಮನತನ
ಅಲಲಯೂ
ಅಲಲಯವರಗ
ಪರತಷಟ
ನೂೕಡಕೂಳಳಲು
ಹೕಗತತು
ತನನತತ
ಮಾರಷಲ
ಅಪಷಟ
ದೕವನ
ಆಸತಯ
ಕಂಡಕಟರ
ಮೂೕಜು
ಸಾಲಾಗ
ಸಂಪತ
ನಡಸುವುದಾಗ
ವಾರಣ
##ಾಂತು
ಪಡಯಲದದಾರ
ಉತತರವನನು
ಬಟಟಗಳು
ವಯವಸಥಯು
ಕಯಾಚ
ಸದದಲಂಗ
ಭೕಟಯ
ಏಕೕಕರಣ
ಇಡಬೕಕು
ನಂತದದು
ಅಡವಾಣ
ವಜಯನಗರದ
ನುಡಗ
ಸವಾತ
ಬಳಳಗ
ಅಂಶವಂದರ
ಕಮಯೂ
ತಂದುಕೂಡ
ಆಪಟ
ದೕವಾಲಯಗಳ
ಕೃತಗಳ
ಜುಲೖನಲಲ
ಸಡಲು
ತರುವಂತ
ಫಾರೂಕ
ನೂತನವಾಗ
ಇಟಟರುವ
ತರಯಲಾಗದ
ಸಂಘಟತ
ಮಂಚದ
ವಾಲಾ
ವಲಕಷಣ
ಪಡಸಲು
ಪಾವತಸಲು
ಮೂೕದಯವರನನು
ಚತರದುರಗದ
ನಧನಕಕ
ಬದಲಾಯಸಲು
ಉಪಕರಣಗಳ
ಸವಾಲಾಗ
ಮೕಟೂ
ಮಹಾತಮಾ
ಧಾವಸ
ಅಭಯಂತರ
ಫಸಟವಲ
ಮಲಟಪ
ಆಡಳತಾಧಕಾರ
ಶಹಾಪುರ
actress
ಛತತೕಸಗಢ
ವನಾಕಾರಣ
ಉಪಪನಂಗಡ
ಮೕನಾಕಷ
ರತನಾಕರ
ಬರಬರವಾಗ
ಸಲೕಸಾಗ
ವಕಲಚೕತನ
ಚಳಳಕರ
court
ಅಪಪರಚಾರ
ಷಡಯಂತರ
bb
gan
its
ಗಸತು
ನಳ
ಮಯಾಪ
ವಾಂತ
ವಾಯಸ
ಸಧು
##ವಯಾ
##ಾಧಯ
##ಬಾಹರ
##ಹಗ
##ಹಯ
##೯ರಲಲ
##pos
##ದರವ
##ತರಾಗದದ
##ವಾದಯ
##ಂಬಯ
ನಡದರೂ
##ಚಚರ
ಸರೂೕಜ
ಕುಳಳ
ವರಮ
##ಗಗು
ಆರಟಸ
ಮೕಲಸೕತುವ
ವಯೂೕಮ
##ತನಧಯ
ಮನಕ
ಕಾಲಪನಕ
##ೂೕರೂ
ತರಕಾಣ
ಪಡುತತಾರ
ಕಲಸಗಳಲಲ
ಕಾಣುತತರುವ
ಗೂಢ
ಸಾಧಯತಯನನು
ಸಾಧಯತಯೂ
ಸಥಳಗಳ
ಬಹುಮುಖ
ಸೕವಯಂದ
ಯುಕತ
ಇರಬಾರದು
ಸದಸಯರಲಲ
##ಸದದೕ
ಹಾಂಕ
ತಂದಯನನು
ಕೂೕಣಯ
ವರಗದವರಗ
ಒಪಪಸ
ಸಮಾಜಮುಖ
ರಸಾಯನ
ಬಂಬಸುವ
ಕೂಟಟರೂ
118
ಚರಚಯಲಲ
ಗಮನಸದಾಗ
ಇಂದಲಲ
##ಗಳಾಗದದವು
ನಂತದದರು
ಲೂೕಹದ
ನುಣು
ಉದದೕಶಪೂರವಕವಾಗ
ಮಲನಾಡ
##edek
ಚಂದರಕಾಂತ
ಫರಂಟ
ಹಾಡುವ
ಸಲಹಗಳು
ಹಂದೂಮಮ
ವೕರೕಶ
ಕೂೕರಕ
ರೂೕಮನ
ದೕಶದಲಲಡ
ಸಂಚಾಲ
ಅಕಷರದ
ತೂೕಟಕಕ
ಬಳವಣಗಗಳ
ನಷೕಧಸ
ನಷಟವನನು
ಕಲಲಡಕ
ಸಫೂರ
29ರಂದು
ಅಂತಯಸಂಸಕಾರ
ಪೕಟಯ
ಉಳಯುವ
ಜಮೕನನನು
ಜಾಹರಾ
ಬರುದು
ಅಪಲಕೕಷನ
ಚಾಮರಾಜಪೕಟ
ಸೕಮತವಾಗ
ತಡಯುವುದು
ಜರುಗತು
ರಾಧಾ
ಕೖಗಾರಕಗಳು
ಸಮೂಹದ
ನಧನದ
ಶೃಂಗಸ
ಇಟಲಯ
ಪೂೕರನ
ಅಧಯಾಪಕರು
ಸುಗಮವಾಗ
ವಠಲ
ಎಬಎಸ
ತಾಲಬಾನ
ರಮಣೕಯ
##ಬಲಲುದು
ಜವಾಹರಲಾಲ
pricedek
ಎಸಸಸಸಲಸ
ಶೕರಷಕಯ
ಕೂರಟಗರ
careerindia
ಉಸರುಗಟಟ
celebr
pricedekho
love
mus
ಅದರು
ಆದಲಲ
ಇಡಯ
ಉನ
ಕತಾರ
ದರಗ
ದವಾನ
ನಯುಕತ
ಮಯಾರ
ಶಯಾ
ಶಂಕತ
ಸಡನ
ಸತಕ
ಹಕ
ಹೂೕರ
##ವಟಟು
##ವದದಾಗ
##ಮನನ
##ಮಲಯ
##ಪೕಕಷ
##ದೂರ
##ls
##pr
##ಘಾಟ
##3ರ
##ಾರನನು
ಪರಲ
ಮಾದಯ
ಮಾಡತದ
##ಗಳುಳಳ
##ಷಟಯಲಲ
ಸಾಂಕರ
ನಡಸುತತವ
ಕಲಡ
ಕರಯನನು
##ಯಾಗುತತ
##ಯಾಗಯೂ
ಹೂಸದೕ
ರಾಜಸತಾನದ
##ಕೂಳಳುವುದಲಲ
ಅಭಯಾರ
ಕಾರಯಪರವೃತತ
ಸಹೃದಯ
##ಸರಬಹುದು
ಪೂಟ
ಅನಕಷ
ಸೂಫ
##ಗೂಂಡರ
ಶರೕಯ
##ದಂತದ
ಕಷೕಮ
ಕಾಣಸುವ
ಗೂಣಗ
ಸಂಗತಯಾಗದ
ಸಂಗೕತಾ
ಹಣಪಟಟ
ಕೃತಯಲಲ
ಸಪೂರತ
ಸಟಾಕ
ಮಾಡದವರಗ
ಬೕರಬೕರ
ಗಳತನ
ಗಣಪನ
ಬೕಕಾಗದ
ನಗುತತಾ
ಮುಖಯಮಂತರಯಾಗದದ
ಬಟಟಕಕ
ಮಾಹತಗಳ
ಮಂಡಸದರು
ಇದದೕವ
ಅಂಗಾಂಶ
ಮುಗಸಕೂಂಡು
ಆಯಕಯಾಗರುವ
ಆಯಕಯಾದರು
ಬಣಣದಲಲ
##ದದದವು
ಹುಡುಗಯನನು
ಪರಯಾಣಕ
14ರಂದು
ಕಚೕರಯಂದ
ವಮಾನಗಳು
ಹೖರಾಣ
ಚಂದರಗರಹಣ
ಭದರಾ
ತಗದುಕೂಳಳಬಹುದು
ಉತಸವದಲಲ
23ರಂದು
##ctor
ವಡಯೂೕದಲಲ
ಸತಂಭ
ಕಷಣದ
ಗಮನಸಬೕಕಾದ
##ಕಾಲುವ
ಪಶಚಾ
ಟೕಕಸದದಾರ
ಅಪಘಾತಕಕೕಡ
ಸಂಪುಟದ
ಪರಭೕದ
ಕಲಯಬೕಕು
ಜೂೕರು
ತಗದುಕೂಂಡದ
ಇವಲಲವನನೂ
ಕಕಂತ
ಯಂತರದ
ಔಷಧಗಳನನು
ದಂಪತಗ
ಲೂಕ
ಸಯಾಂಡವಚ
##avani
ವಾರಡನಲಲ
ಹಗಗಡ
ಆಕಾಶದಲಲ
ಟೂಮ
ರದದುಗೂಳಸ
##t11
ಜಲಲಾಡಳತದ
ತೃಣ
ವೖಜಞಾನಕವಾಗ
3000
ಶುರುವಾಗಲದ
ಹದರಕ
ಅಲಪಸಂಖಯಾ
ಜನಪರತನಧಗಳ
ಜಾನುವಾರುಗಳಗ
ವಕೂೕಪಕಕ
ಆರಾಮವಾಗ
ಅನೕಕರ
ದಬಬಾಳ
ಹಾಂಗಾಸರ
ರಗಬ
ಪಾಡಗ
ಕಡಕಾರದದಾರ
ಕಡಕಾರದರು
ಪುನರಾವರತನ
mysuru
ಜಯದೕವ
ಕಳದರಡು
ಭೖರವ
ವದಯಾಸಂ
ಕಾರಯವೖಖರ
ಎಚಐವ
5ರಂದ
dig
dire
na
sur
ಆಹಾ
ಇರಲಲ
ಉಗಮ
ಎನರ
ಓದದದು
ಘಮ
ಜಖ
ಜಾಂ
ನಖ
ನಪಪ
ನಲಕ
ಯಸ
ವಕರಣ
ಹಯಾಮ
##ವತಸ
##ಡಬೕಕು
##ಚಂದ
##ಝಲ
##ಯಾಂಶ
ಮುಡಗ
##ರುವನ
##ರಾದಲಲ
ಬಳಸುತತದದಾರ
ಸುಸಥರ
ಕರಗಳಗ
ನೕಡದೕ
ನೕಡದದೕನ
##ಕೂಂಡರೂ
ಮೕಲಧಕಾರ
##ade
ಕೂಡಗ
rem
ಕೖಕೂಟಟ
ತರೂರ
ಸೂಪಪ
ಉಪಾಹಾರ
##ವನಸದ
##ವನಯಾಸ
ಹಾಕಲಾಗುತತದ
ಕಾಂಗರಸಸ
ಕೕಂದರೕಕೃತ
ಹೂಸಟನ
ಕಾಣುತತ
ಕಾಣುತತೕವ
ದೂರದಂದ
ಬಾರದಂತ
ಹಣಕಕಾಗ
ಸಟೂೕ
ಶುದದ
ರೂಪಕಕ
ಬಸನಸ
ತುಂಬದದ
ಕಾರಯಕರಮವು
ಸಾರಸ
ವಾರಗಳಲಲ
ಬಳಸಬಹುದಾಗದ
ನರದೕಶಸದದಾರ
ಚರಪರ
ಬಟಟಯನನು
ಪರಾಶಸ
ಭೂಮಕ
ಗೂೕಕುಲ
ಮಟಟದಂದ
ಮಂಗಳೂರ
ಕಯಾಬನ
ಜಾರಗೂಳಸದ
##ಪುಡ
ಸದಧರಾಗ
##ಸಕೂಂಡದದರು
ಮಳಯಾಗುವ
ಜಯಶರೕ
ಕೃಷಕರು
ವಜಯನ
ಮೂರೕ
ನುಡಸ
ಅಮೕನ
ಹೂೕರಾಟಗಾರರ
ವರಷಗಳೕ
ಕಷಟಗಳನನು
ರಂಗನ
ರಂಗಭೂಮಯ
ಎನನಲು
ಡಸೂೕಜಾ
ಪರಚತ
ಹುಡುಗರಗ
ಪರದರಶನದಲಲ
ಸಕಟರ
ಸಥಾಪಸಲಾಗದ
ತೂಂದರಗಳನನು
ಸಂಶೂೕಧಕ
ಗುರುತಸಕೂಂಡರುವ
ಕಟಟಡಗಳನನು
ನಗದಪಡಸದ
ಕಣಣುಗಳನನು
ಯುದಧಕಕ
ಕಲಲರ
ಸವಾತಂತರಯವನನು
##apur
##ower
##ತೂಡಗದವು
ಭಾವನಗಳು
ಪಡಸದದಾರ
ಐಟಂ
೨೦೧೦
ಮಾಡುವಂತಲಲ
ವಯಕತಯೂಬಬನನನು
ತಳದುಕೂಳಳುವ
ನದದಗ
ಡವಲಪ
ಕರಕೕಟ
ಅಬದುಲಲಾ
ಜನಸಂಖಯಯ
ವಶಪಡಸಕೂಳಳಲಾಗದ
ಅಸಹಜ
ಅಸಹಾಯ
ಸಟಟಂಗ
ಒನಪಲಸ
ಧವಜಾರೂೕಹಣ
ಬೕಕಾಗಲಲ
ಎಂಬಾತನನನು
ಮನಮೂೕಹ
ಕೂರತಯಂದಾಗ
ಅತರೕಕ
ಗಾರಡನಸನಲಲ
##ರತನಂ
location
ಸಂಯೂೕಜಕ
ಗೂೕಣಕೂಪಪ
braz
ಸಾಮಾಜಕವಾಗ
ಅಲಹಾಬಾದ
rain
ಆತು
ಇಸತರ
ಊದ
ಎಗ
ಏಮಸ
ಒಂಥರಾ
ದೕನ
ಬಂಚ
ಬವಣ
ಭವಾನ
ರೕಲ
ರಜಯ
ಹಲಪ
##ರೂೕದು
##ವಸತು
##ಸಯಾ
##ಭಾಸ
##ಘಟಟದ
##ಾಗರುತತದ
##ದದದೕ
ಸಂಯಮ
ಮುಂಭಾಗದ
##ೕಶನನ
ಕಾರಪ
ಹೂಲೂ
ನರವಾಗುವ
##ಯೂಡಡ
##ಂಕೃತ
ಗುಳ
ಬರಲಲ
ಪುಷಟ
##ತಾಂತರಕ
ಅದುವೕ
ಅಲಲವ
ತುಲಾ
ಕೖಬಟಟ
ತರವರಣ
ಮತತವರ
ಅಂತಲೕ
ಗರಬ
ಕಾಣುತತದದ
ಹೂಂದಾಣ
ಜೕವದ
##ark
ಆಸಕತಯನನು
##ೕಷನರ
ಸಟಾಪ
ನಟಯರ
##anna
ಆರಂಭಸರುವ
ವಷಯಗಳಗ
##ಷಠಯಂದ
ನಡದಾಡ
ಉತತರದ
ಎಂಎಸ
##ವಯಂತ
ಪಾತರಯಲಲ
ಮಾತುಗಳ
ಸದದಲಲದ
ಬಯಾಂಕಗಳಲಲ
ಅರಥೖಸ
ಅದೕನೕ
ಕಥಗ
ಅಭವೃದಧಯಲಲ
ಪಾರಶವ
ವವರಸಲಾಗದ
ಗಡಕರ
##ಹಾಸನ
ಮಾರುಕಟಟಯನನು
ರೂಪಾಯಗಳನನು
##amm
##ಯಂತೂ
ಹುಡುಗಗ
ವಹಸದದಾರ
ಕಾಮಗಾರಗಳ
ವಯಾಜಯ
ಯಾವುದನನೂ
ಸನನದಧ
ಹಲಲನ
ಕೂಂಡಾಡ
ಕಳಳಸಾಗ
ಮೂದಮೂದಲು
ತರುಚ
##apt
ವಾಪಸು
ವಾಪಸಸು
ಅನುಸರಸುವ
ಲಾರಗ
ಕಾಪಾಡಕೂಳಳಲು
ಮುಂದುವರಸಕೂಂಡು
show
ಓದುಗ
ಸಲುಕದದ
೨೦೧೮
sex
ಕುರುಡು
ಬಂಡವಾಳಶಾಹ
ಅಹಂ
ಕಲಾವದರನನು
ಚಾಮರಾಜ
ಜನಾಂಗೕಯ
ನಸವಾರಥ
ಪರಶಸತಯ
##deep
ಉಂಟುಮಾಡುತತದ
ಬರಳಚಚು
ಪಂಚಾಯತಯ
ಅಸೂೕಸಯೕಶನ
ಆಮಲಜನಕ
ಗಾಂಧಯವರ
ಹಸರುವಾಸಯಾಗದ
ಡಬಲಯೂ
ಡಲವರ
ರಾಮಮಂದರ
ಕಾಲಘಟಟದಲಲ
ನಘಂಟು
ಉತತುಂಗ
ಸಸಪನಸ
ಸಾಂಸಕø
bas
cre
net
sing
ಆಡಸ
ಓದರ
ಓಲಡ
ಕಾಸು
ಗಾಸಪ
ಚಮತ
ಛಾಪ
ಟಾಮ
ಪಗ
ಪಡುಗ
ಬದದಾಗ
ರಯೂ
ಲೂಪ
ಸಜನಯ
ಹಪ
##ುಳ
##ಗತವಾಗ
##ಾಡು
##90
##೪ರಲಲ
##೩ರಲಲ
##ದರಂತ
ರಾಚ
##ರೕಖ
ಕರವ
ಕರಳ
ಹೂಳಯುವ
##ನಯದ
20ರಂದು
ಕೂಡುತತದದ
ಬರದೕ
ಅರಯುವ
ಅದಕಕೂಂದು
##ಲದಾಣ
ತುರಕ
ತಮಮಯಯ
ಪೂನಂ
##ಾತಮ
##ೂೕಪನ
##ೂೕಪಯ
ಮುಖಯವಾಗದ
ಶರೕಯಸ
ಮಾರಟನ
ಹಾಕುವಂತ
##ಗಾರರನನು
##ಸಲಾರ
ಹಣದಂದ
##ೕಷಠ
ಮಾತನಾಡುವುದು
ನಟಯ
ಆರಂಭಸದದು
ಸಂಪಲ
ಗಣಯರ
ಪಡಯದ
ಉತತರಕನನಡ
ತಾಚ
##ಎಂಎಂ
ಬಗಹರಯ
ಸಂಖಯಗ
##esha
ಅನುಭವಗಳು
ಗಂಟಲು
ಅರಥವಾಗದ
ತಯಾರಕಯಲಲ
ಪಾರಲರ
ಸಾಗಸ
##ಬುಲ
ನಂಬಸ
##ರಂದಲೕ
182
ಮಾಡಕೂಳಳಲಾಗದ
ಸವಾಮಗಳ
ಆಡಳತವನನು
ನರವಹಸುತತದದ
ಹಂಚಕೂಂಡರು
ಮಂಜೕಶವರ
##ತಾರಹ
ಯಾಂತರ
ನಾಟಕಗಳನನು
##ವಾಗರುವಂತ
22ರಂದು
ಅಪರಚ
ಅನುಕೂಲವಾಗಲದ
ಬನನಲು
ಹೂರಟರುವ
ಅನುದಾನದ
ಹೕಗೂಂದು
ಪಡದುಕೂಂಡರು
ಪುಟದ
##ಹರವು
ಕಾಣಸಕೂಂಡರುವ
ಮೂಡಸದದಾರ
ಸವಚಛಗೂಳಸ
ಅರಸೕಕರ
ಕುಸತದಂದ
ಓದುಗರು
ಮಧುಸೂ
ಕುರುಹು
ಸಸಯಗಳು
2011ರ
ಸಾರವಜನಕರಂದ
ಪುತತೂರನ
ಪರಯಾಯವಾಗ
ಚಳುವ
ಚಳವಳಯ
ಪಕಷೕತರರು
ಲಯಾಟನ
ನಯೂೕಜಸಲಾಗದ
ರೂಮನಲಲ
ಇಂಚಸ
ಹೂೕಲುವ
##ಬಹುದಾಗತತು
ವಕರಂ
ಕಾಂಪಲಕಸ
ಎಂಟನೕ
ರಾಜಾಜನಗರ
ಕಾರಯಾಗಾರದಲಲ
ಭಜನಾ
ದೕರಘಕಾಲದ
ವದವಾಂಸರು
ಕುಮಟಾ
ಗುರೂಜ
ಅರಜಂಟೕನಾ
ಯುನವರಸಟ
ಮಾತನಾಡಸ
ಯಾರೂಬಬರೂ
ರೂನಾಲಡ
ಅಮಾವಾಸಯ
ಅಜಞಾತ
ಟಂಬಕಟ
2ರ
go
om
over
ಉಮರ
ಉಷಾ
ಡಹ
ದರಸ
ಬಎಂ
ಬೂೕಳ
ಭೂೕಜ
ಶಖ
ಶಾಂ
ಶಂಕು
ಸೖಲ
ಹಯಾಪ
೫೫
##ಬಹ
##ne
##ಚರಯ
##ium
##ಆಕಸ
##ಗಳರಡ
ಪರಚತರ
##ೕರಯನ
ಮುಕು
ಮೂಲಗ
##ೕವಸ
##ನುಗಗ
ಬಳಯನನು
ಸರದು
ಸರನಾ
ಹೂಂ
ಕಾಕ
##ಹುತ
##ಪರಯಾ
##ಕೂಳಳುತತಾ
ಗುಟಟಾಗ
ಮಹನೕಯ
ವರಷಾಂತ
ಕಾರಣವಾಗದದು
ಪಡಒ
##ಲಪಟಟು
ಉಪಾಧಯಾಯ
ಗೂಗ
ಅಧಯಕಷೕಯ
ಸಟಯಾ
ಶಾಲು
ಬೕರಯಾಗ
ಗಳನನ
##ಬರಡ
##ಪಡಸುವಂತ
ವಾರತ
ಯುವಕರನನು
ಆರೂೕಪಸದ
ಸಲಲಸದದು
ಫಲಟರ
ಪರಮುಖವಾದ
ಮನಸೂೕ
ಬಾಲಾಜ
ಇವರಂದ
ನಾಲಕಾರು
ವೃದದ
##ese
##ಸಕೂಂಡದದು
ಕಥಗಳ
ಸಂದರಭದಲಲೕ
ವನಃ
ಇಂದೂೕರ
ಅಂದೕ
##ವನನಾದರೂ
ಹಂತದಲಲದ
ಇವತತಗೂ
ಸವಾಮಗಳು
ಪರಗತಗ
ಬಳಯತು
ಗಾಯಗಳಾಗವ
ಆಧಾರವಾಗ
ಕನಸುಗಳನನು
##ನಾಗರುವ
ಪಡದವ
ವಹಸಕೂಂಡ
ಉಳದವ
ಪರಚಾರಕಕಾಗ
ಜಾತಗ
ಗರವಕಕ
ಇತಯಾದಗಳು
ದಲತರಗ
ಸಂಚುರ
##ots
ಉಪಯೂೕಗಸುವ
ನಷೕಧತ
ಒಡನಾಡ
ದೂರಯುತತವ
ಎನಸತು
ನಾಮಪದ
ಗುಂಡಕಕ
31ರಂದು
ಶರಣಪಪ
ಹಂಗಸರ
ಮೂಡಸದದ
ಸಮರಥನ
ಮೖದಾನದ
ಸಂಪರದಾಯದಂತ
##anga
ಕಂಬಗಳು
ಲಕಷಣಗಳನನು
ವಾರಡನಂದ
ಬಎಸಎನಎಲ
ನಹವಾಲ
ರಣತಂತರ
ಮಾಡತದದ
ಅಣವಸತರ
ದಾಖಲಾಗದದ
ಕಬೕರ
ಒಂಟಯಾಗ
ಲಾಗನ
image
ಫಾಲಸ
ಸಂಬಳದ
ಯತನಾಳ
ಶವಾಚಾರಯ
##ೂೕತಪತತ
ಪಪಪಾಯ
ಒಂದೂಂದಾಗ
ಹೂೕಗಲಾಡಸ
ಕರೂೕಢ
ದುರುದದೕಶ
ಮೃತಯು
ನಚಕೕತ
ಆದಲ
ಎಲಪ
ಏಶಯನ
ತತತರ
ಮಖ
ರಬಲ
ಶವು
##ೕವು
##ಯಡಾ
##ಲನಂದ
##ಣನ
##pol
##ಾಗುತತಾರ
##ನನಲಾಗದ
##ಾನಕಲ
ಮಾಡಬೕಕಾಗ
##ಕರಷ
##ಕರಯಯ
ಮೂಹಮದ
ಕಾರತ
ಸಮೃ
ಹಾಗದರ
ಕಾಮೂ
ಕಾತುರ
ರಾಜರ
ಹೕಳರುವುದು
ಇಲಲವಾದಲಲ
ಗುಡಯ
ದನವಾಗದ
##ಲದೂಂದಗ
ತುಡತ
ಜಲಲಗಳು
ಈಗೕಗ
ಬಲಕಕ
ಬಲಯಾಗದದಾರ
ಹಂದಯಲಲ
ಎಂದಳು
ಶರೕಣಯಲಲ
ವೖದಕ
ಹಾಕಲಲ
ಅಧಕಾರಯ
ಕೕಳಬಂದದ
##ೕಜು
ಪರೕತಯಲಲ
##ವೃದಧ
##ಬರಕ
ನನಗಂತೂ
##ೂಬಬರಗ
ಯಾರನನಾದರೂ
ಯುಟ
ಸಕಕಹಾ
ಬಟಟಲಲ
ಸಲಲಸಲಾಯತು
##ುವುದನನೕ
ಬಗದು
ಉದವಗನ
ಯೂೕಜನಗಳಲಲ
ತೂೕಚ
ಕರೕಂ
ಆಸಪತರಯಂದ
ತಾಯಂದರ
ತಲಮಾರು
ಆಹಾರಗಳನನು
##ಪರೕಕಷ
ಕನಕಟ
ವಕೕಟ
16ರಂದು
ಕೖಗೂಳಳಲಾಗುತತದ
##ರಲಂಡನ
ಒಳಳಯದಾಗ
ಕಮಲಾ
ಶಾಖಯ
##ಬಡುತತವ
ಸೂರಜ
ದಾಖಲಸದದರು
ನೂಕ
ಪರತಕರಯಸದರು
ನಾಟಕವನನು
೧೯೨
ಸವೕಟ
ಬೖಕಗಳು
ಬೕಗನೕ
ಬಂಗಾಲ
ಎತತಕೂಂಡು
ಆಗರಬೕಕು
ಕುಟುಂಬದವರ
ಸಂದೕಶಗಳು
ಅನುದಾನದಲಲ
ಅನಸಾರ
##ಶಾಸತರಜಞ
ಸವಾಗತಾರಹ
str
ಇಟಟರ
ಅನುಮಾನವಲಲ
ಪದಧತಯಲಲ
ಸಕರಯಗಳನನು
ತನನುವುದು
ಬಸವನಗುಡ
ದಕಕಗ
450
ಕುಡದರ
ಕಂಡುಬಂತು
ತುಳುಕ
ಕಜಪ
ಸಲಲಸಬಹುದಾಗದ
ದುರಂತದಲಲ
ಗುರುತಸದ
ವಲಸನ
ದೃಢೕಕರಣ
ಸಳದದ
ಆಪರೕಟರ
ನಾಪತತಯಾಗದದ
ರಷಬ
ನಷಠಾವಂತ
ಅಲಂಕಾರಕ
ಬಡಾವಣಯಲಲ
ಸರಹಡಯ
media
##ಕಾರಯದರಶ
##endra
notification
ಹುಟಟುಹಾಕದ
ಸೖನಯದ
ಜಾಗತೕಕರಣ
ಶೕಷಾದರ
ರೂೕಮಾಂಚ
again
ಗಣರಾಜಯೂೕತಸವ
ಫರಾಂಕ
ಪುನರುಜಜ
ಚಾಣಾಕಷ
ಕೂಳಗೕರ
facebook
ಕಲಲದದಲು
ವಾರಣಾಸ
brazos
sun
ಆವಾಸ
ಎಳಳ
ಎಕರಗ
ಒಲಸ
ಓವಲ
ಕಶಯಪ
ಗಪ
ಚದುರ
ಛಾಪು
ಪಎಂ
ಪಯಲ
ಯಡ
ಯವರ
ಯಾಮ
ಲಟರ
##ಗಾಲ
##ಪಟನ
##ಶಾದ
##ಲವಾ
##te
##ಡೕಕರ
##ಹಸತ
##war
##೬ರಲಲ
##ಾಗರಾಂ
##ಗಳನನಲಲಾ
##ದದೂರ
##ತರಲಲ
ಸಂಗಾರ
ಮೂಟಕ
ಕಲೂೕಸ
ಸಮಯಾ
##ಾಸಟರ
ಸುಮಲ
ಕರಷ
##ಯಾಗಲೕ
##ಬಬು
ಆಗುತತತತು
##ಕೂಳಳುತತ
##ಕೂಳಳುತತದದ
ಎಂಬಾಕ
ಎಂಬತಯಾದ
##ಮಾನವ
ಇದನನಲಲಾ
##ಳುಗಳನನು
ತುರುವ
ಸೕರಯ
ಸೕರಸಕೂಳಳ
ಎಸಎಂಎಸ
ಗರವಾ
ನಡಯುವುದಲಲ
ಒಂದಕಕ
ಸಂಗರಾಮ
ಸಪಷಟೕಕರಣ
ದರಬಾರ
##ರಾಗುವ
ವದಯಾರಥಯ
ಸಾಧಸತು
##ons
ಕಳದಂತ
ಅತಯದ
##ality
ಸುದದಗಾರರಗ
ಗೂೕಯಲ
ಮಗಾಪ
ಮಕಕಳಾದ
ಕೂೕಲಾ
ಜನರೂಂದಗ
ಸಂಖಯಗಳನನು
ಸದಧಪಡಸದ
ಅಲಬ
ಜಯಚಂದರ
ವವರಸುವ
ಮಲಯಗಳ
##ಸುವಂತದ
##ಸುವಂತಾಗದ
ತಾಲಲೂಕ
ಎಲಗಳು
ಕರುನಾಡ
ಹೖಟಕ
ಸಕಾಲದಲಲ
ಹುಟಟಸದ
ಇದರಲಲದ
ಸೖಡ
ದಾಖಲಸಕೂಂಡರುವ
100ಕಕೂ
##aya
ಸಂಭರಮಸದರು
ಬರಹದ
ಅಳವಡಸಕೂಳಳ
ಇಂಟರಸ
ಜೕವರ
ಗಂಗೂಳಳ
ಕಯಾಮರಾವನನು
stud
ಮೂಡಸುತತದ
ಪರಯತನಸುತತದ
ಭಾವನಗಳಗ
ಪರವಾಹಕಕ
ಪೂಲೕಸರಂದ
ಪರಯೂೕಜನವಲಲ
ಪರದರಶಸದರು
ಸಂದರಯಕಕ
ಶೖಲಯನನು
ವಷಣುವನ
ಸವರೂಪವನನು
ಕಣಕಕಳಸ
ಜಾಕಟ
ನೕಡಲಾಗುತತರುವ
ಹೂರತುಪಡಸದರ
ಅಭವೃದಧಯನನು
ಪರತಪಕಷಗಳು
ಡರಾಮಾ
ಚತರಮಂದರದಲಲ
##ುತತರುವಾಗಲೕ
ಅಪರಾಹನ
ನಕಸಲರು
ಶಾಮೕ
ಹೂರಹೂಮಮದ
ಮಹಾವೕರ
actor
ಬಲದಾನ
ಶವೕತಾ
ಫಡರೕಷನ
ಅಥಲಟಕಸ
ಹುಣಣಮ
ಋತುವನಲಲ
##ಕಾಭಷೕಕ
ಹುರದುಂಬ
ವೖಯುಕತಕ
ಶಯೂೕಮ
ಜಾಹರಾತು
bank
farm
ಜಾಜ
ಜಡಯು
ತಟಟದ
ನ೦ಗ
ಫಸಲ
ಬೂಟ
ವಾನ
ವರಾ
ಶೕಲಾ
##ತದಲಲ
##ಲಗಳು
##ಸೂೕಣ
##1ರ
##13
##ೂೕಧಯಮ
ಮಾಫಯಾ
##ತರಾದರು
##ವಾಗರಬಹುದು
ನಡದೕ
ಕಲವ
ಕಲೖಮ
##ಾದಳ
ಬಳಸದದಾರ
ಕರೂೕಮ
##ನಲಲಯೂ
##ಪಪರ
##ಗರಭ
##ಸಥಯಲಲ
ಆದರೕ
ಸಹಯಾದರ
ಮುಂದಾಳ
ಕಾಲುಗಳು
ರೂಚಚ
##ಟನಂಟ
ನೂೕಡುವುದೕ
ಸೂನನ
ರೖಟ
ಮೖದಾ
##ಮರದ
ಕಂಡತತು
ರೂಪಸದದಾರ
ಬಡುವನ
##ಯದೂಂದಗ
ವಚಾರಗಳಲಲ
##ಕಕಾಗಯೕ
ಸೕದ
ನನಗದ
ಯಾರಂದಲೂ
ಹರಯೂರು
ಪಾತರವಹಸ
##ency
ಹಾಂ
15ರಂದ
##ಎಂಎಫ
ಸದಧಲಂಗ
ಚಕಕಣಣ
ಗಂಟಯಲಲ
ಇದಕಕಲಲ
ನರಮಾಣವಾಗ
ಬಂಧಸುವಲಲ
ಎಚಡಕ
ಆಸಪತರಗಳ
ಇಂದಗ
ಪಾಳು
ನಾಯಗಳ
ವರೂೕಧಗಳು
ಸೂಚಸದದರು
ಖರೕದದಾರ
ನವಲು
ನಯೂನ
ಗಣೕಶನಗ
ಕೖಗೂಳಳುವುದಾಗ
ಪರಾರಂಭದ
ಸಕಂಡು
##ಳಕಾಯ
ಬರಯುತತಾರ
##ents
ಹಮಮೕಳ
ಬೕಡವೕ
ಭದರತಯ
ಬಾಯಯ
ಒಮಮಲ
ಗಳಸದದರು
ತರುಗಾಟ
ತಾರಕಕಕ
ಮಂತರಗಳು
ವಯಕತಪಡಸುತತಾರ
ಡೕನಯಲ
ವಯವಹಾರಕಕ
ಬಾಕಸಂಗ
ಹಾಸನದಲಲ
ಎಣಣಯಲಲ
ಕಾಪಾಡಕೂಳಳ
ಯಂತರಗಳು
ಸಾಹತಗಳ
ನವೕಕರ
##ಎನಎಸ
ಜೖಲನ
ಪರತದನವೂ
ದೂರದೃಷಟ
ಎಂಬುವವರ
ವರಷಠರ
ಲಭಸುತತದ
ದಾಖಲಾಗರುವ
ಕಮಮರಡ
ಅನಯೂೕನಯ
ಸವಾಲನನು
ಪಾಯಂಟಸ
ರಘುರಾಮ
##ಲೂೕಕದ
ಆಕಾಂಕಷಗಳು
ಕೂತದದ
ಮನರಂಜನಯ
ಅರತುಕೂಳಳ
ಪನಾಲಟ
health
ವೖರಲಸ
lead
ಮಹಾಲಂಗ
ಪೂೕಷಕಾಂಶಗಳು
ಅನುಪಮ
ರಯಾಂಕಂಗ
ಪಾರವತಮಮ
ಹಾರೖಸದರು
school
##ಭವೃದದ
ನಾಗರಹಾವು
ಸಾಂಕರಾಮಕ
ಸಾಂಸಕøತಕ
ಸುಮಲತಾ
sou
ಅಘ
ಆಕಾರದ
ಇಂಕ
ಐಕಯ
ಖಡಗ
ಗೃ
ಟಬ
ಟೂೕಕ
ಥೕಮ
ಬ೦ದು
ಯವ
ರಟ
ಸಯಯದ
##ಮದದು
##ಮನಯು
##ೕಸು
##ಲಗಳ
##ಬಹಾಳ
##t20
##ಸುವುದನನು
##ಭಾನು
##ಖಾನಯ
##bn
##ಾರಣ
##ಂದಾ
##ಾಗುತತ
##ತತನೕ
##ದದಂದ
ಪರಾಸ
##ವುಗಳನನು
##ಾಲತ
##ವಾಗರಲ
ಮಾಡದಲಲ
ಮಾಡಬೕಕತತು
ಸಂಚನ
ಮುದದೕ
ನೕತಸ
##ಯಲಲವ
ರಾಂಚ
##ಂದರಂತ
##ಗೂತತ
##ಗೂಡದ
##ಲಾಗಲಲ
ಆಗುತತಾರ
ಅವನಲಲ
ಎಲಲಲಲದ
##ರುತತಲಲ
ಅರವನ
ಸಹಕರಸ
ದನಯಲಲ
##ಾಳದ
ಪೂವ
ಕನನಡದಲಲೕ
ಬಲೂಟ
ಪಡದಲಲ
##ವನದ
ಗರಧಾಮ
ಮೖಲು
##ಮುಟಟ
ಸಾಧಯವಾದರ
ಬೕರಲದ
##ಪಡಸುತತದ
ಬೕಕಾಗರುವ
##ನನೕರು
ತಪಪೂಪಪ
ಯುಧ
##ಾಬಟಟ
ಪರಾಚಾರಯ
ಡಾಂಬ
##ನಕಟಟ
ಜೂತಯಾಟ
ಸಂಖಯಗಳು
ಕುಟುಂಬವನನು
ವರಗದವರು
ಸಾಗಾಣಕ
ರಾತರಯಲಲ
ರಾಮಚಂದರಾಪುರ
ಪರಕಟಸಲಾಗದ
ಪರವಾಸದಲಲ
ಇವನಗ
ಕಷಟಗಳು
ಮನಯಲಲೂ
ರಚಸದದಾರ
ಮಾರಾಟದಲಲ
ದಾಖಲಸುವ
ನಂದಾಗ
ನರವಹಸದರು
ಚಂದರಬಾಬು
ನರೕಕಷಕ
ಸಪಷಟವಾಗುತತದ
ಬೕಳುವುದು
ಸಥಾಪಸಲಾಯತು
21ನೕ
ಪತತಯಾಗವ
ಹಳಳಗಳಗ
ವಲಯಕಕ
ನಾಟಕೕಯ
ಅಕಕಯ
ಪುತರನ
ಶುರುಮಾಡದ
ಹಾನಕಾರಕ
ಕುಳತರ
ವೕದಕಗ
ಸುಧಾರಣಗ
ಜೕವರಗ
ವಶವಾಸವನನು
ಕಲಲಂಗಡ
ಹೖದರಾಬಾದನ
##ವರಲಲರೂ
ಆಚರಣಗಳು
ಸಂಘಟನಗ
ಪಡದುಕೂಳಳುವ
ಇವಲಲದರ
ಯಂತರಗಳನನು
ಹೂರಬರುವ
ನರದಷಟವಾಗ
ಗೂೕಡಗ
ಪಾವತಸದ
ವೕದಾಂತ
ತಾತವಕ
ದಹಲಯಂದ
ಸಕಸಸ
ಸಂಪನಮೂಲಗಳನನು
##ಲಟಾ
990
ರತನಪರಭಾ
ಹೂಸತನ
ನೕಡಲಾಗುವ
ಸಂಪರಕಸಬಹುದು
ಪಣಜ
ಮಯೂಸಯಂ
ಪರತಪಕಷಗಳ
ಪದಾಧಕಾರಗಳ
ಸಾಧಾರಣವಾಗ
ಮಧಯಪರದೕಶದಲಲ
ಆತಂಕಕಾರ
ಲೕಡರ
ಅಮತಾಭ
ಹೂೕರಾಡದ
ಹೂೕರಾಡುವ
ತನನುವುದರಂದ
ಅಂವೂ
ಸಂಗತಯಂದರ
ಖಂಡನೕಯ
ಆಯಂಬುಲನಸ
ಅಂಪೖರ
ತಶಂಚ
ಹಯುಂಡ
ಸಾಮಥರಯ
di
kannad
mand
sal
ಅಕರ
ಆಪರ
ಏರುವ
ಏಂಜ
ಏಸು
ಐದೂ
ಓರ
ಗಜಜ
ಗನನಸ
ಡಾರಕ
ಡಲೕಟ
ಧರಸುವ
ಪಷಠ
ಭೕಷಮ
ರಕ
ಲಟಲ
ಹಸದ
ಹಮೕದ
##ರನನೂ
##ಮತಾ
##ನಯಾದ
##2ರ
##೨ರಲಲ
##ೖನಸ
##ಭಕತ
##11
##6ರ
##ೂೕಯ
##ಕಕದದು
ನೕಚ
##ಷಟವಾದ
ನಡುಕ
ಕಲಸಲು
ಕಲಕಗ
ಬಳಯೕ
ಸರಜರ
##ಂತರಬೕಕು
ಕರಾರ
ಕರೂೕಧ
ಕರಗದ
ರಾಜಕಾಲುವ
##ಾಕಾ
ಚತರಕಲಾ
##ಸುತತದದರೂ
##ಂಪೕಟ
##ಳಗಾಗ
ಹುರದ
ಹೂೕಗುತತದದಾರ
ಮತತೂಬಬರು
ಮುಖಯೂೕಪ
ಪಡಪ
ಗರಷಟ
ಹಾಕುತತದದ
ಕಾಣಸದ
ಕಾಣುತತಾರ
ಜೕವನಾ
ಸಂಬಂಧವದ
ಮಾತನಾಡುತತ
ಆತಮಾ
##ಧಾರಗಳು
ದೂಷ
ಹರಡದ
##ಭಾಷಯ
ಲಕಷಕಕ
ವಾರದೂಳಗ
ಬೕಕರುವ
##ಸುಂಗ
ಯುನಕೂೕಡ
ಸುದದಯೂಂದು
ಮಾತುಕತಯ
ಬಯಾಂಕಾಕ
128
ಅನುಭವಸುತತರುವ
##ಸಕೂಂಡತು
ಸಂಪರಕದ
##ೖಟಸ
##itle
ಕರಯಲಾಗದ
ಅಂದಾಜನ
ನಂತವ
ನಂತರು
ಗಡಗಳ
##ಜಾತಯ
ರಾಮದೕವ
ಎಂದರೕನು
ಪರಶನಗಳ
ಕಣವಯ
149
ಪರಗಟ
ಕಣಣಾರ
ಕರುಂಕ
ಮಾಡಕೂಂಡದದಾನ
ಸೂೕಮನಾಥ
ಹಂಚಕೂಂಡ
ಫೂೕನಗಳು
ಪರಾಣಾ
ಉಂಟಾಯತು
ಸಂಪರಕಸಲು
ಉದಯೂೕಗಗಳಗ
ಮರುಗು
ಸಾಧಯತಗಳನನು
ಓಡುವ
ಚತರದಲಲನ
ಸಲಹಯನನು
ಸೂರಬ
ತೂಂದರಯಾಗುತತದ
ಸಹಕಾರಯಾಗದ
ಒಮಮಲೕ
ದಶಾ
ಗುರುವಾರದ
ಬೖಕಗಳನನು
ಶತಾಯ
##ote
ಬರಹಗಳು
ಶುರುವಾಗುತತದ
ದವಪಕಷೕಯ
ಎನಸಸ
ಹೂರಗನಂದ
ನಂಬಕಯನನು
ಹೂರಟರು
ಸವಯಂಪರ
ವಷಕಾರ
ಹೂತತುಕೂಂಡು
ಸಸಗಳನನು
ಗಂಡಸರ
ಕಳದುಕೂಂಡದ
ವಾಸತವಕ
ಸಮಾನಾಂತರ
ವವಾಹದ
ಕೂೕಲಕತಾ
ಪರಯೂೕಜನಕಾರ
ಲವಲವ
ಕಾಣಸಕೂಳಳಲದದಾರ
ತರಸಕರಸ
ಬಸವಕಲಯಾಣ
ಪರಜಗಳು
ಸಪಂದಸ
sep
ಮಾಡಕೂಡುತತದ
ಕರತವಯಕಕ
ದಾಸರ
ಅಮಾನಯೕಕರಣ
##ತರಾಗದದರು
ಕೂಲಲಲು
360
ಭಕತರನನು
ಡಾಕಯು
ಕುಣದು
ಯುನಟ
ಒಗಗಟಟು
ಮುದದಾದ
ತರಸಕರಸದ
ಮೂದಲನಯದಾಗ
ಸದಾನಂದಗಡ
ಟಯಾಗಗಳು
ತಾಲೕಮು
ಮನವೂಲಸ
ಜಾಗತಕವಾಗ
ಮಲಲೕಶವರಂ
ದಾವೂದ
ಸೂಗಸಾಗ
ಗಟಾರ
ಅಥಲಟಕ
ಬಪಎಲ
water
ಕನಡಾದ
ಉಬುಂಟು
ಬಯಾಲನಸ
2ರಲಲ
3d
fest
uk
ತತಸ
ಫಯಾನಸ
ಬಝ
ಬರುವುದೕ
ಲೂೕನ
ಲಷಕರ
ಶಫಟ
ಸಣ
ಹಪಪು
##ಯಯರ
##ಬೕಜ
##ಐಎಲ
##ಒಸ
##ಲಲವೕ
##ಾಗದದಾನ
ಪರಬ
ಮಾಸತರ
##ತಯಾಗುತತದ
##ಕಾರವಾಗ
ಸಾದರ
ಕೂಕಕ
ಕೂಳತ
##ರಸತು
ಕಲೂ
ಹೂಂಬ
ಕಾಂಯ
ನೕಡದದರೂ
##ಮಾಂ
##ಮಾಮ
##ಪರದರಶನ
ಜನಗಣ
ಗುಟಟ
ಗುಳಳ
ಅವಲಕಕ
##ಳಯದ
ಭಾರತದಲಲೕ
ಕಾಲಟಟದದಾರ
##anag
ಅನುಕರಮ
ಅನುರಾಗ
ಸೕರದರ
##ಗೂಂಡಲಲ
ಮುಖಯವಾಹ
ಹಾಕಬಹುದು
ನಡಯಲ
ಚುನಾವಣಗಳು
ಮೂದಲನಂತ
##ಾರಥಗಳು
ಆಸಟರ
ರೂಪದರಶ
ರೕಡರ
ವರುದಧವೕ
ಆರಂಭಗೂಂಡದ
ಪತರಗಳು
ಮುಖಯಾಧಕಾರ
ಲಕಷಯ
ಅಸುನ
ವಾರನರ
ಪದಗಳಗ
ವಧಾನದ
ಸಕಕದರ
inv
ಸುದದಯ
ಸುದದಯಾಗತತು
ಬದಲಸಲು
ಮಧಯಯೕ
ಪರಾತನಧಯ
ಪರಸಂಟ
ಹಾಫ
ಮಟಟನ
ನಾಳಯ
ಇಲಾಖಗಳು
ಬಡುಗಡಯಾಗರುವ
ಎನಡ
##ರಾದೃಷಟ
ಸಾಗುವಳ
ಕರಯಯಲಲ
ನಂಬುತತಾರ
ಆಸಪತರಗಳು
ಇಷಟಪಟಟ
ಅಂತರವನನು
ಲೂೕಬೂ
ನೂೕಟನ
ನೂೕಟವನನು
ಕಣಮುಂದ
ಕಚೕರಗಳಲಲ
ಮನಗಂಡ
ಕರುನ
ಬಳಯರುವ
ಆಶವಾಸನ
ನಯೂಟರ
ಆಲರ
ವಹಸುವುದು
ಅಭನಯಸರುವ
ಇಂಥದದೕ
ಮನವಗ
ವಹಸಲು
##elu
##ಂಟರೂೕ
ಹೂತತರುವ
ಮಲಲನ
ಚಟುವಟಕಯಲಲ
ಆಗಸಟನಲಲ
ಅಪಾಯವನನು
ಯೂೕಜನಯು
ಯಕಷರಂಗ
ಪುರಸಕೃ
ಪರತಷಠಯ
ಕಳುಹಸದದಾರ
ಮರಯಲು
##ures
ವೕಕಷಕರು
ಆಕರೂೕಶಕಕ
ಅಕಷರಗಳು
ಧರಸದದ
ಮಡಲಲಲ
ಮುಳುಗಡ
ಕಡತಗೂಳಸ
ರಾಘವ
ಸಂಸಕೃತಯಲಲ
ಕಳಸಾ
ನೕಲಗರ
##ುತತದದರಂತ
##ಸಂಗರಹ
##t12
ಸಜಜಾಗದದಾರ
ಹಂಪಡ
##ಲಪಡುತತವ
ಸಮಮೕಳನಕಕ
ಹೂೕಲಕಯ
ತಾಕಾ
##ಗಾಡು
##ಕೂೕರರ
##ಬೕಕಾದದು
ಪರತಮಯನನು
##ವಾಗರಲು
ಕೂಳವಬಾವ
ವಲಲಭ
posted
##ಮೖಥ
ಸೂಗಡು
ಕತರನಾ
ಡಾಕಟರೕಟ
ನವೕದತಾ
ರಾಷಟರಮಟಟದ
ಅಧೕಕಷಕ
foundation
ಸಕವೕರಾ
ಡಮಾಕರ
ಅಸುನೕಗ
cup
kate
national
ಉಕಕು
ಎಕಕ
ಓಲಾ
ಗಲಾ
ಜನಯ
ಡವಡ
ತಕ
ತದವರು
ದಯಾ
ನೂಂದು
ಬಬಲ
ಯಂತ
ಲಾಲೂ
ವಂ
##ಕಲಲು
##ಮಹಲ
##ಪತಗ
##ದತ
##nt
##ಸಮಮ
##wor
##ದಲಲವ
##ವರನನೂ
##ಟಟನಂದ
ಮಾಡರೂೕ
ಮಾಡಲಾದ
ಕಲಗ
##ುವುದದದರ
##ುವುದರೂಳಗ
ಸಮಬಲ
ಸುರುಳ
ಹೂನ
##ಗಗಾ
ಹೕಳುವಾಗ
ಹೕಳದದಾಳ
ಆಗುವಂತ
ಹಚಚಕೂಂಡು
##adh
ಪುಕಕ
ಬಂದದದರಂದ
##ಸರಕಾರ
##ಳದಂತ
##ಸಟೂೕರ
ಎರಚ
ಸೂಜ
ಆಯವಯಯ
ನಲಲನ
ಚುಟುಕು
ಉಪಟ
ರೖನಾ
ಪಕಷಗಳಲಲ
ಕೕಂದರೕಕರ
ತಳಸುತತಾರ
ತಳದುಕೂಂಡು
ಕಾಣಬೕಕು
ಅಪೂರಣ
##ards
ಗೂಡಸ
ಮರಯಾಗ
ಸಟಡ
ಕಟಟಾ
ಕಟಟಕೂಂಡ
ದುರಾದೃಷಟ
##ಚನೕಯ
ಬೕರೕನೂ
ಹರಪರಯಾ
ತುಂಬರುವ
ಪರದೕಶದಂದ
ಸೕನಗ
ಬಳಸದದ
ಸೕವಸಬೕಕು
ಸಲಲಸುವಂತ
ಸಲಲಕಗ
ಪಾತರರಾಗದದಾರ
ತಂದದದು
124
ಪಂದಯಾವ
ಸಂತರು
ಚಕಕಪಪ
ಮಳವಳಳ
ಎನನುವವರು
ಹಬಬರ
ಹಬಬದಲಲ
ಪಾರಲ
ಗಡುವು
ಬರುತತಲೕ
##ಜಾನನ
ಪರಕಟವಾಗದ
ಪರವಾಸವನನು
ಅಂತರಂಗ
ಇವಳು
ಅಮಲನಲಲ
ಮಾರಗಗಳನನು
ರೖತರಂದ
ಕೃಷಣನು
ರಚನಾತಮಕ
ಕೕರತನ
ಕರುಳನ
ಪೂರಣಚಂದರ
ಬಳಯುವುದು
##ille
ತೂೕರಸಲಾಗದ
ಹತತೂ
ದೕಪದ
ಅಶರಫ
ಬಂಡವಾಳದ
ಹಂದೂಗಳು
ಪತತಯಾಗ
ಪತತಯಾದ
ಭದರಕೂೕಟ
ಅದರಲಲನ
ಕತತಲು
##ise
ಹೂಂದರುವವರು
ದೕವಸಥಾನವನನು
ಸಂಶೂೕಧನಗಳು
ಉತಪಾದಕರ
##ough
ಜಞಾಪ
ವಸತರಸುವ
ಗುಂಪುಗಳ
ನವಂಬರನಲಲ
ಎದುರಸುತತದದಾರ
ಬಚಚಬೕಳ
ಸಮಾರಂಭವನನು
##ವಂದರೂ
prod
##ಹೂೕಗತತು
ಮೂತತಕಕ
ann
ಆಯೂೕಜಸಲಾಗತತು
ಸಾಧಯವಾಗದೕ
ಮುಸಲಮಾನ
ಗರಭಪಾತ
ಪುಟಗಳು
ಸಾಮರಾಟ
ಶರಣಾಗರುವ
ಅಕಷರಗಳನನು
ನುಡದದದಾರ
##ಸಲಾಗುವ
ಡೖಮಂಡ
##೦೦೦
ಸತರೕಯರು
##ಮಂಡಲದ
ಆವೃತತಯಲಲ
ಅಸತತವವನನು
ಮತರರು
ಹೂಳಪು
ಪುರಂದರ
ನಾಟಕಕಾರ
ಹಗರಣದಲಲ
ಸಂಧೂರ
ಮಾಂಸವನನು
ಮೕಕಂಗ
ಸವಭಾವದ
ಸಥತಗತ
ಜೕರಣಕರಯ
##ount
ಮದವ
ಜಾಣಮ
ಅಟಲಾ
ಯುಎಸಬ
ಆಶರಮದ
ಆಯುರವೕ
ಶಮಲಾ
ವಾಯುವ
ಗಾಯಾಳುಗಳನನು
ಪಲಾಂಟ
know
party
ದೕಶವಾಸಗಳೕ
ಅವಹೕಳನಕಾರ
ವಕಟೂೕರಯಾ
ಶೃಂಗಸಭ
ಮುದದೕಬಹಾಳ
ಹಯುಂಡೖ
4ರ
khan
ma
wiki
ಕಸಸ
ಕವರಾಜ
ಜೕಷಠ
ಧೂೕ
ಪತಗ
ಮಂಥ
ಯರ
ರಯರ
ಲಾಜ
ಸಯ
ಸಲೕಟ
ಸಶಕತ
ಹದದು
ಹಬರ
ಹೃತಕ
##ಮಂದ
##ಪದರ
##ka
##ಸಲಯ
##ಸುವುದರ
##ಘನ
##ಂದಗೂ
##ಾಗುತತವ
##ದದದದು
##ದರಲಲಲ
##ಯಾದಂತ
##ೕಶಯಾ
ಕಲಶ
ಕಾರಖಾನಯ
##ರೕಟಸ
ಹಾಗಯ
ಸರಜ
ಕರಳಸದ
ನೕಡಬೕಕಾದ
ನೕಡುತತದದರು
##ದೕವರು
##ದಯು
ನಮಮೂಳಗ
ಮೕಲಭಾಗದಲಲ
20ಕಕೂ
ಚತರವನನ
##ಸುತತರುವುದರಂದ
ಕೂಡುವುದಾಗ
ಬರಕ
ಬರಲರುವ
ಬರಪೕಡತ
ಅರಯಲು
ಮನತನದ
##ಕಷಣಯ
ಸವದತತ
ಈಗಷಟೕ
ಅನೂಪ
ಹೂೕಗದದಾಗ
ಅಂತಲೂ
ಜೂಜು
ಎರಕ
ಎಂದೂೕ
##ಂಜತ
ಮಾರಪಾಡು
ಉಪಲೂೕಕ
ಬಜಪಯು
ಬಳಕಯಾಗ
ಬಳಕಯಾಗುತತದ
##ಸಸನನು
##ತಸಾಹ
ಕೕಳಬೕಕು
ತೂಡಸ
ಆಸಕತಯಂದ
ಪರೕಮಾ
ನೕರಸ
ಕಷೕತರಗಳನನು
##inal
ರೕತಯಂದ
ಪದವು
##ಮುಖವಾಗ
ನರದೕಶಕರಗ
inc
##ುವುದಾಗದ
ಶೕಂಗಾ
ಒಬಬರಗೂ
ಇಡುವುದು
ಆರೂೕಗಯವಂತ
ಅನನಪೂರಣ
ನೂೕವಗ
##aking
ಏರಲು
ಏರಲೖ
ಹಾರೖಕ
ತಲುಗನಲಲ
ಪರಕಟಸರುವ
ವೖದಯರಗ
ಬಣಣಗಳ
ರುಕ
ಕಣಗಳು
ತನಮೂಲಕ
ಇತತೕಚಗನ
ಪೂರಣಗೂಂಡದ
ಕಾರಯಕರತಯರು
ಸಬಬಂದಗಳ
ಅಪಪನಗ
ಪರಾರಂಭಕ
ಮಾಲಕರ
ತಳಯುವುದು
ನನಪಾಯತು
ಪರಶೕಲನಗ
ಮುಖಂಡರನನು
ಲೖಬರರ
ಸೖಂಟ
ಪತೂರ
ಸಂಸಕರು
ನರಮಸುತತರುವ
ರಕತದಲಲ
ರಕತವನನು
ಗಮನಸಬಹುದು
ಬರಹಗಳನನು
ದವಗುಣ
ಸಡಸದ
ದೂರಯುವುದು
ನಾಮಫಲಕ
ತಾನಾಗಯೕ
ಮೖತರಕೂಟದ
ಹಂಡತಗ
ಹೕಮಾ
ಪರಯೂೕಗಗಳನನು
ಶರಣಾದ
ಗೂಂದಲದ
ವಮರಶಕ
ತಂತರಾಂಶವನನು
ಪೕಟಎಂ
ಮುಂದುವರಯಲು
ಮಡಕೕರಯ
ವೕತನವನನು
ಶಬದಗಳನನು
ಇರುತತರಲಲಲ
ಧವನಯ
##ಎನಎ
ಧಾರವಾಡದಲಲ
##ople
ಮದುಳ
ದಾಖಲಾಗವ
ಲಂಗಾಯತರು
ನಮೂದಸ
ಇಳಸಲು
ಇವರಲಲರೂ
ವೖಶಷಟಯಗಳನನು
ಭುರಗ
ತಣಣೕರ
ತಣಣಗಾಗ
##ಬಾಗಲು
ತಾಳಮಯಂದ
ಹನುಮಂತಪಪ
work
ತಗುಲದ
ಅನಗತಯವಾಗ
ಡರೖವಂಗ
ಎಂಬುದನನೂ
##ಸತೂಡಗದ
raghav
ಸಕಯಾನರ
ಕುಂಬಾರ
ಕೂಲಂಬಯಾ
ಛಾಯಾಗರಾಹಕ
ಶರೕಶೖಲ
ಮುರುಘ
2020ರ
ಪರೕಯಸ
feb
ಪನನೕರ
ಹುದುಗ
ಕುಂಠತ
ಸಂಸಕøತ
ಇಂಡಸಟರೕಸ
ಉದಾಸೕನ
ಕುಮಮಕಕು
ಥೖಲಯಾಂಡ
ಸದದಾರಥ
ಡಪಲೂಮಾ
band
ಕಚಚು
ಖಯಾತರ
ಜಜಞ
ತಪಟ
ಥರಡ
ಬದರು
ಯದುವ
ರೂೕಗಯ
ಶೂರ
೩೬
##ೕಚಗ
##ನೂರ
##ಲಂಟ
##ಬೕಸ
##ಬೕದ
##ಟನನು
##rol
##ಧುರ
ಮಾಳ
ಮಾತಯ
##ಯಾಡಸ
##ತರದ
ಸಂವತ
##ಕರತ
ಕೂಟರ
ಕಾರಂಜ
ಸಮಾರ
ಬಳಗಾರರು
ಕರನಲ
ಹೂಳಳ
##ಕೂಂಡದದಾನ
ವರನ
##ಲೕಟು
ಆಗದೕ
ಹಚಚಂದರ
ಹಚಚಸುವುದು
##ಕಾಂಬ
##ಕಾಳು
ಬರೂೕದು
ಕಾರಯಾರಂಭ
ಹುರಯ
ಮನವಾಗ
##ಕುಂಟ
ನೂೕಡದದು
##ಾಡನ
##ಷಣು
ಬೕಡದ
##ಾಹೕನ
ಶರೕಗಂಧ
##ಕಕೂಂಡು
ಪಡಸದರು
##ದಾರಯ
ಕಲಸಮಾಡ
ಉಪಚಾರ
ಹಾಕುತತ
ಮೖಗ
ನಗರಗಳಗ
ಕಾಣದಂತ
ಬಾರಕೂೕಡ
ಸಂಬಂಧಕಕ
ಭಾಗಗಳಗ
ದುಂಬ
ದುರಸ
ಬಡುವುದು
ಬಸುಗ
ಸಾಲಯಾನ
ಸಾಲಗರಾಮ
ಅವರಗೕ
ಸೕಫ
ಸೕದಾ
ಪಡಯಲಾಯತು
ತಪಪನನು
ಎದುರಾದ
##ene
ಮಕಕಳೕ
ಪರಮುಖರಾದ
ಒಬಬರನನು
ಸಂತೃಪತ
ಸಪರಧಯನನು
ಅವುಗಳಂದ
ಅಲಗಳು
##ಗಾಗಯೕ
ತಯಾರಕರು
ವಾಸವಾಗದದ
ಏರಪಡಸದ
##ಲವಾಯತು
ಪರವಾಸದಲಲರುವ
ವರದಗಳ
ಬಣಣಗಳನನು
ಮಾಡುತತೕರ
ಪರಯಾಣಕಕ
ಒದಗಸುವಂತ
ಒಳಗಾಗದದ
ನರವಹಣಯಲಲ
##akash
ಪರಾರಂಭವಾಗುವ
ಆಲಯಾ
ಅಶಾಂತ
ಮಾದರಯು
##ಚರತರ
ಹತತರದಂದ
ಕಷೕತರದಲಲೂ
ಘಟಕವನನು
ಏರಕಗ
ಹುದದಯ
ಬೂಮಮನ
ಇತಹಾಸದಲಲೕ
ಸಂಗರಹಾಲಯ
ನೂರಕಕ
ಉದಯಮದ
ಎಷಟೂ
ವಾದವನನು
ಬೕಜದ
ಚಾರಜರ
ಜವಾಬದಾರಯುತ
ಫಾರಸಟ
##ಲಾರವು
ಮೕನುಗಾರರ
ತಗದುಕೂಂಡರ
ಪದಕವನನು
ಗಾಯಗೂಂಡದದ
ಸಳಯತು
ಕಲಬುರಗಯಲಲ
ಉಪಾಧಯ
ಔಷಧಗಳು
ಪಾರಕನಲಲ
80ರಷಟು
ಹಚಚಳಕಕ
ಪರದರಶಸದ
ಚೕನೕ
##ಕರಾಗದದರು
ಫೂೕರಸ
sudeep
ಕುಂದಾಪುರದ
ಗೂೕಲುಗಳಂದ
ಯೂನಟ
ಸಟರೖಕ
ಪರಾಮುಖಯತಯನನು
ಪೂೕರಟಲ
##ಗಣನ
ಪಂಚಾಯತಗ
ಮೂೕಟಾರಸ
ಸವಸಹಾಯ
ಲಗತತ
ಮೕಲುಕೂೕಟ
ಲಂಡನನ
ಟರೕಡ
ಬಗಬಗಯ
ಟಾಕೕಸ
ಸಾಂಕೕತಕ
ಇಂಜಕಷನ
ಹತದೃಷಟಯಂದ
ಮಹಾಂತೕಶ
ಒಕಕಲಗರ
ಲಕಷಮೕನಾರಾಯಣ
ಮಹಾಭಾರತದ
ಸತಕಾಯ
ಎನರಜ
ಗರವಾಧಯಕಷ
ಅತಯದಭುತ
ಮಗಾಪಕಸಲ
bud
soc
says
ಅ೦ದ
ಈಚನ
ಎ೦ಬ
ಏಡ
ಜೕತ
ಟಡಪ
ತವ
ದಾಪ
ನಬಂಧ
ಪತಾ
ಪತಯನನು
ಫೖರ
ಬಂ
ಭಗನ
ರೕಷ
ಶಶನ
ಸಟಟಗ
ಹಯ
ಹಸುವನ
##ವಸಟ
##ಕೖ
##ಮಲಲ
##ಮಯಾನ
##ಲದದೕರ
##ದಾಣ
##ಬಲದ
##cial
##ಸಭ
##ಸಂಚ
##ಸಾಗರ
##ಸುವುದೕ
##ಹಕಕು
##ಚಪ
##ಟಯ
##26
##ೂೕಕತ
ಪರಯಾಮ
##ದಲಲಾ
##ಾಲಯನ
##ತುಕ
ಕಲಯರ
ಸುಪತ
ಕುಂಚ
ಕಾಡದ
ನರಗಮ
##ಯೂಶನ
ಇಲಲದರುವುದು
ಮೕಲನಂದ
ಚತರನಟ
ಬಂದದದಾನ
##ಜನರ
ಮುಂದಯೕ
##ಕುಂಡ
ಸೕರಸಕೂಂಡು
ಹೂೕಗತಾರ
ಹೂರಸೂ
ಅಂತಾನೕ
##ಗೂಂಡಾಗ
##ಗೂಂಡವು
##ವಲಲವೕ
##ವನಗರ
ಕಾಂಗರೕಸ
ತಳದೕ
ವರುಶ
ಭಾಗವು
ಭಾಗದಂದ
ಮರಗಳಗ
ಮಾತನಾಡುತತದದಾರ
##ಗುಪಪ
ದೂಳು
ವಯಕತಗಳಲಲ
ಸೕಮಾ
ಸೕಬು
109
ವೕಣ
ಪರಯರು
##ಸುಲ
ಪರಧಾನವಾಗ
ವವಯ
ಎಂಇ
ಸಂದರಭಕಕ
ಪಾಲಕರ
ಒಬಬಂಟ
ಸಾಮಾನಯವಾಗದ
ವೃಶಚ
ಅನುಭವಸುತತದದಾರ
ಅರಥವಾಗುತತದ
ಧರಮೕಂದರ
ಬರುತತರಲಲಲ
30ಕಕೂ
ಇಷಟದ
ರಾಮಪಪ
##ಗೂಳಸುತತವ
ಹಾಲಗ
ಉದದೕಶಸಲಾಗದ
ದಾಖಲಾದ
ಸಥಳೕಯರಗ
ಮೂಬೖಲಗ
ಸೂೕಮೕಶವರ
ಪರಾರಂಭವಾಗದ
ಮಾಡದದಕಕ
ಪಡದತತು
ಸಮಯದಲಲೕ
ದಾಖಲಸಕೂಂಡದದಾರ
ಸಮುದಾಯದವರು
ತೂಡಗಸಕೂಳಳ
ಸಂಭವಸುವ
ಮಲಲೕಶ
ವಯಾವಹಾರ
ಬರಾದಾರ
ಎದುರಸುತತದ
ವಯಕತಪಡಸದದು
ಸವೕಕರಸದದಾರ
ರೖಲುಗಳು
ಅಡಡಗ
ಹೖಕೂೕರಟನ
ಚಾರಟರ
ಬಳಕದಾರರನನು
ಮಹಾನರದೕಶ
ಕಳುಹಸಕೂಡ
ಶಂಕರಾಚಾರ
ಜೂೕನಸ
ವದಯಾವಂತ
ಮಹತವಪೂರಣ
ಮೖದಾನಕಕ
##ಸಲಾಗುತತತತು
ಜಮೕನಗ
ತರಕಾರಗಳನನು
ಅವಲೂೕಕಸ
ಪರಾಯಶಃ
ಅಭಯಾನಕಕ
ಶಕತಯಾಗ
sec
ಯೂತ
ಪಂಜಾಬನ
ನಲಸಮ
##ika
ರಾಮನಗರದಲಲ
isbn
ಕಮಮಟ
ಇಂದರಾಗಾಂಧ
##ishna
ರೂಪುಗೂಳಳ
ಬರಡಜ
bollywood
ಹದಗಟಟ
ವಠಠ
offic
ಹರಮನ
ಫೕಲಡಂಗ
ಅರಣಯದ
ತವಚಯ
ಎಚಚರಸದದಾರ
after
ಹೂರವಲಯದಲಲ
ಜನಜಾಗೃತ
ಮಹಾಬಲೕಶವರ
ಅಶುಭ
ರಾಷಟರಗೕತ
ಲಫಟನಂಟ
reddy
ಪರಾಮರಶ
ಅವೖಜಞಾನಕ
ಹುತಾತಮರ
ಅಜಾಗರೂಕತಯಂದ
##political
gir
lok
ಅತಸ
ಆವೕಶ
ಉದದು
ಉದುರ
ಜೂೕಧ
ಟೕಪ
ಡೖನ
ತಸಲ
ಥಳ
ನವಯ
ನಬಾರ
ಪಡು
ಬರುವುದ
ರಲ
ರಬ
ಶಡಲ
ಸಚಚ
ಸೂೕಡಾ
ಹಸುವ
೪ಕ
೮೦
##ುಲನ
##ವಕಾಶ
##ಮೕಡ
##ಶಕಷಣ
##ಳದರು
##ಹಾಲ
##ಚೕಲ
##io
##bo
##55
##ಾಗದದರೂ
##ೂೕಸಟ
##ಕಷನಸ
ಮೂಯ
ಸಮಜಾಯ
ಬಳಯಲಲ
ಸುಲಲ
ಕರದರು
ಕುಲಪ
##ದಯಂದರ
##ಹುದು
ಹೕಳತು
ಹೕಳಲಾಗತತು
ಆಗಯೕ
ಎಂಬರಥ
ಇಲಲವಂದು
ಇಲಲದಂತಾಗದ
ಅವನಾ
##ಸುತತರುವಾಗ
ಕೂಡಲಗ
ಸಥರತ
ಪುದು
ಪುಟನ
ಅರಯದ
ಕಾರಯಕಷಮ
ಕಾರಯಸೂಚ
##ಂಚರ
ಹುಡಗ
ಮುಂದೕನು
ರೂಮಗ
ನನನನನ
ರಾಜಯೂೕತಸವದ
ನೂೕಡುವಂತ
ನೂೕಡೂೕಕ
ಅನಶಚ
ಹೂೕಗೂೕದು
ತರದುಕೂಂಡ
ಹಂದಯ
##ಕಸನ
ಪಡಸುವ
ದೕಶಪರೕಮ
ಕಲಸವೂ
ಚುಚಚು
ಮೕಲಾಗ
##ಯುದದಕಕೂ
##ಯಂದಲೂ
ಆಸಗ
ಭಾಗಗಳ
ರೕಂಜ
ತುಂಬಸುವ
ಬಹುಶ
ಬಹುಕಾಲ
ಪತರಕಕ
ಅಸಡ
ಪದಗಳಲಲ
ಪಡಯುವಂತ
ಸಗಬಹುದು
ಕಳದವ
ಮೂಲವನನು
ಹಾಕರ
ಭರತಯಾಗ
ನಾಳಯಂದ
ಉದದೕಪ
##ನರೂೕಧಕ
##ಾಯತೂೕ
ಒಳಗೂಳಗ
##ick
##itics
ಹಡದರು
ಚರಚಯಾಗ
ರಾಮಯಯ
##stem
ಇನನಾದರೂ
ನಲಸದ
ನವೂೕದಯ
ದೕಹವು
ಮಸಾ
ಪರಹಾರದ
ಹಚಚಾಗಲದ
ಹುಡುಕಾಡ
ಕಾರುಗಳಗ
170
ಸುಲಭದಲಲ
ಅಂಕಣಗಳು
ಸಂಪರಕದಲಲ
ಹತತರವಾಗ
ತನಖಾಧಕಾರ
ವಲಯಗಳಲಲ
ಪೂರವಜ
ಜಾತಾ
ಗಳಸತು
ಫೕಸಬು
ತಾಣಗಳ
ಜಾನಸನ
##ಾತಮಕವಾಗ
ಮಂತರಗಳ
ಪೖಸಯ
##ಹೂೕಗದದ
ನರಧರಸದದು
ಮಾನಸೂನ
ಸರಳವಾದ
ಟಯಾಬ
ಎಫಕಟ
ಮರಯಬಾರದು
ಕುಳತದದರು
##ull
ಚಕರದ
ಏನೕನೂ
ಮುಟಟುವ
ಜಾಹನವ
ಅಂಡಮಾನ
ಆಕಸಡ
ಅಹಂಸ
ಜಾಮೕನನ
ವಯಕತಯೂಬಬನ
##t18
ಪರಜಞಾವಂತ
ಫಯಾಶನ
ರಷಯಾದಲಲ
ಯೂೕಧರಗ
ಆಶೕರವದ
ಎಂಥಾ
##ruit
ನಮಸಕರ
ವಸತಾರವಾದ
ಶರೕಕೃಷಣನ
ಪಲಲಕಕ
ಮಹಾಮಸತ
ಅಧಸೂಚ
ಶಾಮನೂರು
ಮೂದಲನಯದು
ನಾಸಾ
ನೕಪಾಳದ
ಅಸಪಶಯ
ಫಲೂರೖಡೕಕರಣ
ಸಮಶಾನದಲಲ
russ
ಚುನಾಯ
people
ಪರಢಶಾಲಯ
ನಾಮನರದೕಶನ
ವೕಳಯದಲ
ಟೂಮಯಾಟ
5ರಷಟು
av
ಆಸಥಾನ
ಈಸಟರ
ಉಲೂ
ಚಟರ
ಜಮಮ
ತ೦
ಪವ
ಪಪ
ಫೕರ
ಭಯದ
ರಂಡ
ರನನರ
ವಕಕ
₹3
##ಗೂೕಷಠ
##ವೕಳ
##ಾಲಲಲ
##ಲಭಯ
##ಸೕನಾ
##ಚನನ
##ಟರು
##ror
##ಧೂೕಳ
##ತತಾಪ
##ೂೕದಧಾರ
ಮಾನನ
ಮಾಂತರಕ
##ಾನಂತರ
##ಯಾಟಕ
##ವುಗಳು
##ಂಬಡಕ
ಕಲವನನು
##ಲಾಗದೕ
ಸರತಾ
ಹೕಳದದೕನ
ಆಗದದಾಗ
##ತಾವಾದ
ತುಂತು
ಸೕರಯಲ
ಅನರೕಕಷ
ಬಲವ
ಬಲದಂದ
##ರಾಮನ
ಜೂತಯ
##ವರಗಾಗ
ನಲಲಲು
ಪಡಎಫ
ಮಾರಮಕ
ಸನಾನದ
ಕಷೕರ
##ೂಂದಗನ
ಹೂಂದರುವುದು
ಮರವನನು
ಸಥಳಕಕಾಗ
ಕಟಟದದ
ಕಟಟಹಾಕ
ಬಡಸುವ
ಸಂಪಾಜ
ಅವರಗಾಗ
ನನಗಾಗ
ಅಗಸ
ಗಣನಗ
ನಗಧ
ಚರಚನ
ಸಾಧಸದರು
ಆಟಗಳನನು
ಸಥಾನಗಳು
##ಕಯರು
ಉದಯಭಾನು
ಮೂಲಗು
ಮಗನಾಗ
ಹನನರಡ
ಜೂತಜೂ
ಅಗತಯಗಳನನು
##ಪುಣಯ
ಅಲಟ
##ಮಯಂದು
ಕಥಯಲಲ
ಕಥಾನಕ
ಪಾರಸಲ
ಎಚಎಎಲ
ಏನದದರೂ
ಏರಪಟಟ
ಬಯಸದದ
ಸಪರಧಗಳ
ಸಮುಚಚ
##ದದದಕಕ
ವರಷಗಳಷಟು
ಪಾಕಸಥಾನ
ರಂಗಕಕ
ಹುಡುಗನಗ
ಹುಡುಗಯರಗ
ಪರೕತಸದ
ಅರಜಗಳು
ತಲುಪುತತದ
ರೂೕಗದಂದ
ವಹಸಲಾಗದ
ಉದಯೂೕಗದಲಲ
ವಯಾಪಾರದಲಲ
ಸಂಭವವದ
ಉಳದದದು
ಪಕಕದಲಲರುವ
##ಭಾಗಕಕ
ಉತಪಾದನಯ
ಗಲಲಸ
ಕರೕಡಾಕೂಟದ
ಖುಷಯಲಲ
ಸಮಾರಂಭಗಳಲಲ
##ಂಬುದೕ
##iga
ಅರಧಕಕ
ಕೖಗೂಂಡದದು
##ಶಾಸತರದಲಲ
ಶಾಸತರದಲಲ
##2018
ಕಾಪಾಡಕೂಂಡು
ಸಂಪಾದಸ
ದಟಟವಾದ
ಪೕಠಾಧಪತ
ಬೕಸರದ
ಸೂರಯಕಾಂತ
ತರಸಕಾರ
ಹಾದಯನನು
ಪಡಯುವಲಲ
form
ಅಭಯಾನವನನು
ಆಕಸೖಡ
ತುಳುನಾಡನ
ಹೂಣಯನನು
ಬರಾಹಮಣರ
bureaupolitical
ಆವೃತತಯನನು
ಸೂೕಲಸಲು
ನಧನರಾದರು
ಕೂಳಕು
ಕಡಲತೕರ
ಸಳದದದಾರ
ಕಾಯಲಗಳು
ದುಷಕರಮಗಳ
ಮಹಾಸಭಾ
ಚುರುಕಾಗ
ಆರಾಧನಾ
ಪದದತ
ಹನನಡಯಾಗದ
##ಂಬಳಗಗ
##ಕಡಮ
ಶೕಖರಸ
ಅಂದುಕೂಂಡಂತ
2001ರಲಲ
ಅ೦ದರ
ಪಂಗಡಗಳ
ಭೖರಪಪ
ಹಣಗಾಡ
##ಸವಾಮಗ
ಪರನಸಪಾಲ
janu
ನನನೂಳಗ
colle
ಉಪನರದೕಶಕ
ಯಶಸವೕ
ಭರತನಾಟಯ
ಪರಾಶಸತಯ
ಗರಬದನ
ಡಹರಾಡ
ಗಪಯತ
ಡಾಕಯುಮಂಟ
bar
bir
if
name
old
ಈದ
ಉಮೕ
ಕೂೕಗ
ಖಜಾ
ಚಾನಸ
ಥಯಾಂಕ
ನವೕಶ
ನವಾಬ
ಪೕಶ
ಪಎಸ
ಪಸು
ಪವಲಯ
ಬಸತ
ಹಂದರ
ಹಟಲರ
##ಮಣಸ
##ಸುವುದಕಕ
##ಡನಸ
##ಹಂದ
##ದರೂೕ
ಮಾಡರುವುದರಂದ
##ೕರವ
##ವಾಂಡ
##ವಾದದಲಲ
ಮುಸತ
ಮು೦ದ
ಮುಗುಳ
ಮುಲಾಜ
ಬಳದಂತ
ಸರವತ
ಸುನಂದ
ಕರಪತರ
##ದಯುತ
##ಮಾಜ
ಹಚಚದದು
ಅವರುಗಳು
ವಯರ
ಕೂಡಸುವ
ಅಭಲಾ
ಪುಂಡ
ಅರಳದ
##ವದಯಾ
ಈಗಂತೂ
ನೂೕಡಕೂಳಳುವುದು
ಹೂರಾಂಗಣ
##ಸಟರಾ
ವೖಖರ
ಮಾರಷ
ಉಪಾಧ
ಹಾಕಲಾಗತತು
ದೂರಕಕ
##ಜಯವರ
ಹಣವಲಲ
ಆಸಯನನು
ಭಾಗವಾಗದ
ಕಂಡದದಾರ
ವಚಾರವೕ
ವಯಕತಗಳಾಗ
ಬಸನಲಲ
ಬಸಬಸ
ರಾಷಟರಕ
1950
ನಯಾಮಗಡ
ಕಾಯಲಯಂದ
ಮಾತುಗಳಲಲ
ಪರೕಕಷಗಳನನು
ಅಲಗಳ
ಗಂಟಯೂಳಗ
ಆಯಕಯಲಲ
ಭಾಷಗಳಗ
ಸಾರವಭಮ
ಹಡದುಕೂಂಡ
ಪರಣಾಮಗಳ
ಜಯಪರಕಾಶ
ವಾಸವಾಗರುವ
ತರಗಯ
ಏರಪೂೕರಟ
ಬಳಗಗಯಂದಲೕ
ಸೂಚನಯನನು
ಕಷಟಸಾಧಯ
##ಂಡರಡ
ವಧವ
ವಧುವನ
ರಚನಾ
ಮಾರಾಟವನನು
##ಚಛೕದ
ಕಲಪನಯನನು
ಕಮಲದ
ಹಾಡದದಾರ
ಪರಾರಂಭಸಲು
ದೕಪಗಳು
ಮಾಡದದೕ
ಅಶೂೕಕನ
ಮಾದರಗಳನನು
ಹಮಮಕೂಂಡರುವ
ವದೕಶೕ
ನಲದಾಣವನನು
ಭದರವಾಗ
ವಯಾಪಾರಗಳಗ
ಕಾಮಗಾರಗಳಗ
ಗುಂಪುಗಳು
ಬಚಚಗ
ಒತತಡದಂದ
ಕಂಗಣಣಗ
ಕಂಗೂಳಸ
ಭರವಸಗಳನನು
ಸುರಕಷತಗ
ಹಕಕುಪತರ
ಅಜಜನ
ಆಸಕತದಾಯಕ
ಫಾರವರಡ
ಎಕಸಪ
1999ರಲಲ
ಮರಯಲಾಗದ
ವರತಕರು
ನವೃತತಯ
ಪರತನಧಗಳ
ಮಾತಾಡುವ
ಗಂಡಸರು
ಲಾರಗಳು
ಆಯುಷಯ
ಪಡದುಕೂಳಳುತತದ
ಕುಸತಪಟು
ಪಠಾಣ
ರಹೕಮ
ಅವರಲಲರೂ
ಸರಸವ
ಮಾತುಕತಗ
ಹಗಗಾಮು
ಸನನವೕಶಗಳು
ಇದಲಲದರ
ನನಪುಗಳನನು
ಆಗಮಸದದು
ಭಾಸವಾಗುತತದ
##t16
ಸಯಾಂಟರೂೕ
ಅಫರದ
ಟೂರನಮಂಟ
ಅಪಲಕೕಶನಗಳು
ಪಯಾರಾ
ಅಬಬಾಸ
ಮೕಟರಸ
ಎಟಎ
ಅಕಬರ
ನಟನಾಗ
ಶಾರಜಾ
ರಂಜತ
ನಯೂೕಜತ
##ಬೕಕಾದದದು
ದತತಾತರ
ಫಲಾನುಭವಗಳ
ಆಶಾವಾದ
ಉದಾತತ
ಮೂಮಮಕಕ
ಬಾಂಗಲಾದೕಶದ
ಕುದುರಯ
ಸೂಂಟದ
ಬೕರಯದೕ
ವಯಸಕರ
ಪುರುಷನ
open
ಲಾಂಛನದಲಲ
ಪೂನನಂಪೕಟ
ತಾರೕಖು
ಜೕವಾವಧ
women
ತೃಪತಪ
ಕೕಂಬರಜ
ಒಬಾಮ
ದಾಂಡೕಲ
ಪರಜಾಸತತ
ಪರತಭಾನವತ
ಇಸರೕಲನ
ಪರಾಣಾಯಾಮ
ವೃಶಚಕ
case
doc
gen
her
mur
sa
yaks
ಐಶ
ಚೕಪ
ಜಲವ
ಠಾಕರ
ತಗೂಂಡು
ಧಾತು
ನಯಾನ
ಪದೕಪ
ಸಟಕ
ಸತಾರ
೭೦
##ತದದಂತ
##ವದದಲಲ
##ಾಧನ
##ೕರುವ
##ಶೕಖ
##ಜಜನ
##les
##ಹಹ
##ಚೂರ
##24
##ಭರಮ
##ix
##ಟಟದಲಲ
ಮಾಡಸಕೂಳಳ
##ವಾಚ
##ಂಬೂರು
##ೂರದ
ಮುಂಚನ
##ನುಭವ
##ಾವಲ
ಕರದರ
ಕರಬೕ
ಅವರೂಡನ
ಕಾಜ
##ಕೂಂಡರುವುದು
ನರವಾಗಲದ
ನರಗುಂದ
ಆಗತಾ
ಮೕಲದರ
ಕೂಡುತತ
ಕೂಡರುವ
ಅರವಾಗ
ಅರಬರ
ಮನೕಲ
ಮುಂದಟಟ
##ಸಯಮ
ನೂೕಡದರು
reg
ಹೕಗಲಲ
ಹೂೕಗದದಾನ
ಸೂಪಪನ
ಎಂದಾದರೂ
##ಾಹೕಬ
##ಮಾರಕ
ಮಾರಪಟಟದ
ರೖಲಗ
ಕಷಾಯ
ದೂರವಡ
##ಡಗು
##ಸಲಾರಂಭ
ಆಸಾತ
##ಯಯನವರ
ತಂಡವೂಂದು
ಸಥಳಾವಕಾಶ
ಮಾಡದವರ
ಕಟಟಕೂಡ
ವಚಾರಸದಾಗ
##ination
ಹರಸದ
ನನಗಂತ
ನಡಸಲಾಗತತು
##ಸುಂದರ
ಆರೂೕಪಗಳಾದ
ಬಟಟತು
ವಶೕಷವಾಗತತು
ತಾವರ
ಸಾಕಷಯಾ
ಬಗಹರಸುವ
ಹಸರುಗಳ
ಭಾವವನನು
ಎನಟ
ಗಂಟಗೂ
ಅರಥವಲಲ
ಸಂದರಭದಲಲೂ
ಬಂಧಸದದು
ಹಬಬಾರ
ಮದುವಯಾಗುವ
ವಾಸಸುತತರುವ
##ತವಾಗತತು
ವಾವರ
ಇಷಟೂ
##ಗೂಳಪಡಸ
ಬಣಣಕಕ
ನುಡದ
ನಮಃ
ನಮಗೂಂದು
ರಚನಯನನು
ಕೂರಳ
ತೕವರವಾದ
ದೃಶಯದ
ತಲುಪದದು
ದಾಳಯನನು
ಖರೕದಗಳಗ
ಫರಯಾದ
ಸಮರಪಣ
ಲಭಯತ
##ಆರಎಸ
ವೕರಣಣ
ನಯಾಯವಾದ
ಅದರಲಲರುವ
ಏರಕಯಂದ
ಜಾಂಗ
೧೯೦
ನರಮಸಲಾದ
##ಭಾಗವನನು
ಬೂಕ
ಗುರುತಸಬಹುದು
ಸತಲ
ರೂೕಚ
ಕಷಣಗಣನ
ದಲಾಲ
ಮಂತರಾಲಯ
ಶುರುವಾದ
ಖರಜೂರ
ಅರಣಯದಲಲ
ಕುತೂಹ
ಒಡಂಬಡಕ
ನಾಗರಹೂಳ
ವನಯಾಸದಲಲ
ಕಳುಹಸಲಾಗದ
ಮರಯಬೕಡ
ಮತದಾನಕಕ
ಯಾದೃ
ಸವಚಛವಾಗ
ಸಮುದರಕಕ
ಕಾರಯಾಚರಣಯನನು
ಮೕನುಗಾರಕಾ
ಪರವಾಹದಲಲ
ಹರಸಬೕಕು
ಅತತತತ
ಕಲಬುರಗಯ
ರಹಾನ
ಮಡಚ
ರಾಶಯಲಲ
ದಕಕನ
ರುಚಕರ
ಹೂಡಕದಾರರು
##ಎನಎಕಸ
ಸಮೕಕಷಯ
ಬಾವಗ
ಕಾರಯನರವಹಸುವ
ನರವೕರಸದರು
ಅಹಮಮದ
ಉಂಟಾಗುವುದು
ಸಂತರಸಥ
##haranga
elect
ಶುರುವಾಗದದು
comments
ದವೕಪದಲಲ
ರಘುನಾಥ
ದೂರತಲಲ
ಸಥಾನದಲಲದದಾರ
ಯಾವುದಾದರೂಂದು
##ಾನಾಥ
ಮಾಯವಾಗ
ವಮೂೕಚ
ವರುಷದ
ಹಮಮಕೂಳಳಲಾಗತತು
ಕಾರಪೂರೕಷನ
ತಮಾಷಯ
crime
ಸಲಂಗಕಾಮ
ಇಪಪತತೖದು
ಸಲಬರಟಗಳು
ಕರುಣಾನಧಯ
ಅಲದಾಡ
##ೂೕಗರಾಫ
ತಾಂಡವ
ಜರನಲ
ಅದೕನಂದರ
ಸಂಕುಚತ
ಅಲಕಸಾಂಡರ
ಅಭಯಾರಣಯ
ತುಂತುರು
yaksharanga
kod
pak
sar
talk
ಆಂಧರದ
ಏಷ
ಓಡದ
ಕಸವ
ಚೂೕ
ಟಾಯ
ಧನಸ
ಬಸದ
ಸಷನಸ
ಹಂಡು
ಹಂಭಾಗದ
##ಾಟಕ
##ಕಯು
##ಮೕನ
##ಬಳಗ
##tv
##uv
##ಷಃ
##ೖಪ
##por
##೦ದನ
##ತತಾದ
##ೂೕಚರ
ಪರಕೕಯ
##ದರೂೕಗ
##ತರಲಲಲ
ಮಾಡಯೕ
##ಕೂರತ
ನೕಹಾ
ಸಾಂಸ
ನಡಾಲ
ನಡಯನನು
ಕಲಗಳ
ಬಳಗಾಗ
ಸುಂಟ
##ಯಾಗಳ
ಅವರೂಬಬ
ಕಾದದ
ನೕಡತದ
##ನಸು
ಹೕಳಲಾಗುವುದು
ಆಗೂೕ
ಹಚಚಾಯತು
ಎಂಬಂತಹ
ಕೂಡಬಹುದು
ದನಗಳಗ
##ಟಟುಕೂಳಳಬೕಕು
ಮನಶ
ಪರತವ
##ಕಷಣೕಯ
ಕಡದಾದ
ಹೕಗರುತತದ
ಕೖಬರ
ಹೂೕಗಲಲಲ
ಹೂೕಗುತತಾನ
ಪಡಗಳ
ಮಾರಕವಾಗ
##ಹತವಾಗ
##ವನದಲಲ
ನಡಯುತತರುವುದು
ಅಧಕಾರಗ
ಪಕಷಗಳೂ
##ಮುಲ
##ಮುದಾಯ
ಅಪವತರ
ಸಚವರನನು
##ುವಂತಾಯತು
ವಚಾರಸ
ವಚಾರಣಾ
ವಯಕತವಾಗದದು
ಬಸಾಡ
ಕೂೕಟಾ
##ತವಕಕ
ನಡಸಬಹುದು
ಪರಯವಾದ
ಉತತರಕಕ
ತಪಪಸಕೂಂಡ
##ಮೂಹ
ಸಥಾನವದ
ಉತತಮವಾಗರುತತದ
##ಸದದೕರ
ತಳಸದದು
ಮಗುವು
ತಂದತತು
ತಂದದದರು
ಕೂೕಣಗ
ಗಾಂ
ಕಾಯಲಯ
ಪರಮಾಣವು
ಮನಸಟರ
ಉದವೕಗ
ಎನಜ
ಮುಗಸುವ
##ದೂಳ
##ತಕಾಲ
##ತವಾಗವ
ಇಷಟಾದರೂ
ರಾಮಾಯಣದ
ಅಡವಾನ
ತಂಗಳೂಳಗ
ಚಾಲನಾ
ಚಾಲತಯಲಲ
ನವವಳ
ಮೂಡಬ
ವಸತುಗಳಗ
##ಡಾಫೂೕನ
ಕಣಕ
ವಮಾನಗಳನನು
ಹಾಸನಾ
ಶಟಟಗಾರ
ಓದುತತಾ
ಸೃಷಟಯಾಗ
ಸೃಷಟಸಲು
ಪರಮೕಯ
ನಾವಬಬರೂ
ಬೕಡಕಗಳ
ನವಾಸಗಳಾದ
ಕಷಣಗಳಲಲ
ಪರದೕಶದಲಲನ
ತರುಗದ
ಎತತುವ
ಕಸವನನು
ತಪಪುಗಳು
ಹೃದಯಕಕ
ಹೃದಯವನನು
ಯೂೕಜನಯಂದ
ನರಧರಸಲು
ಹಂದುತವದ
ಅತಯಾಚಾರದ
ತರುವಲಲ
ಟೖಂ
ಸನಮಾಗಳಗ
##ಬೕಕಾಗುವುದು
ಲಾರಡ
ಮರಳನನು
ಯಂತರಗಳ
##ಪರಸಥ
ಹಯಾಕರ
ಹಸತಮೖಥ
ಇರುತತೕನ
ವಂಚಸ
ಪಾಂಡವರ
ಫೂೕನಗ
೨೦೧೫
ಸನನವೕಶಗಳನನು
ಕುರುಡ
ಪಂಡತರು
2009ರ
##ush
##ಾಚಯಾ
ಸಾಂಪರದಾಯಕವಾಗ
2010ರ
ಏರಪಡಸಲಾಗದ
ಏರಪಡಸಲಾಗತತು
##t19
##pee
ಹನೂರು
ತಲಂಗಾಣದಲಲ
ಇಳಯುವ
ಮಾಸದಲಲ
ಇಂದರಯ
ಆಪತರು
##ಗೂೕಲು
ಇಬಬರನನೂ
##ಾಕಷರ
ಗಜೕಂದರ
ಉಂಟುಮಾಡುವ
ಸುಪರಸದಧ
ಸೂೕನಂ
ಚಳಗಾಲ
ಅಲಯು
ಪರಣಾಳಕಯಲಲ
##ief
ಭೖರಪಪನವರ
ಬಯಾಂಕುಗಳಗ
ಸೂಗಸಾದ
ತರೕಕರ
rupee
ಮುತುವರ
##ission
ಆವಶಯಕತ
sitla
ಹಾಜರುಪಡಸ
serv
ವೖಷಣವ
ಹದಹರಯದ
system
ಬಯಾಪಟೖಜ
ಫಡರರ
ಶರದಧಯಂದ
ಐರೂೕಪಯ
ಉಳುಮ
ಸಲಸಯಸ
ಎಲಪಜ
ಬಲೂಟೂತ
kateelu
russia
best
cur
tip
ಅಸಟ
ಅಲಸ
ಏನರ
ಕೕಯ
ಗಮಯ
ಘಾಸ
ಜೕರ
ಡತ
ಡರಮ
ದವಾಳ
ಧಾಮ
ಪಲಯಾನ
ಫಾತ
ಬಂಟರ
ಬೕವನ
ಶೕನ
ಹೕಲ
##ತಯಾ
##ರದು
##ವಗೂ
##ೕಕರಗ
##ನಷಟು
##ಜಕಟ
##ಯಂತರ
##ಲಕರ
##land
##ಹಣಣ
##ಎಣಣ
##86
##pm
##ii
##gr
##vel
##ೂೕಲು
ಮಾಲನ
ಮುಲಕ
ಮುಕತರ
##ಷಟಗ
ರಾಥ
ರಾಬನ
ಸಾಹು
ಕೂನೕ
ಬಳದದದು
ಕುಡಸ
ಅವರಬಬರೂ
ಕಾಕತ
ನರವೕ
##ಪಪಾಡ
ಹಚಚುತತದದು
ಅವಯಾ
20ನೕ
##ಕಾಣಕ
ಅಭವಯ
ಅರಬಬ
##ಂಚೖಸ
ಅದಾಗ
ನೂೕಡರ
ಬಲಪಂಥೕಯ
ಕೖಲಾದ
##ರಲಲಾ
##ೕಂದರಯ
ಕಾರಣವಾಗುವ
ಬೕಹು
ಮುಖಯವಾಗುತತದ
ವೖಚಾರ
ಮಾರಟ
ಮಾರಪಟಟ
ಗರಡ
ನಡಯದಂತ
ಯಾವುದರ
ಪಕಷಪಾತ
##ಎಸಆರ
##ಯುದಧ
ಕಾಣಸುತತವ
ಜೕವಮಾನ
ಸೂೕಫ
ಆಸಪದ
ಆತಮಸ
ಕಟಟಸ
ವಚಾರಣಯ
##ins
ರೕಪ
ಆರಂಭಸಲಾಗದ
ಸಂಪಗ
ವಶವಕಕ
ವಷಯವೕ
##ೂೕಲಗ
ಪದಕಕಕ
ಬೕಕತತು
ಶವನಗ
ಶವನನನು
##ond
ಮುಖಯಮಂತರಗಳಗ
ಸದಸಯರೂ
ಸಕಕರಲಲಲ
ಉದಯವಾಣ
ಫಲಯಾ
ನರೕಕಷಣಾ
200ಕಕೂ
ಮಂಗಳೂರನಂದ
ಒಬಬನ
ಇದದವರು
ಏಕಾದ
12ರ
ಇವರಡ
ಉದಯಾ
ನನಗೂಂದು
ಒಪಪಲಲಲ
ಕಥಾಸ
ಹಬಬಗಳು
ಮಹಳಯರೕ
ಬಾಳು
ಪರಕಾರದ
ಪಕಷದವರು
ತಲತ
ದಕಷಣದಲಲ
ಪರಶನೂೕತತರ
ಸವಾಸಥಯ
ಬಳಳಂಬಳಗಗ
ಪರವೕಶವನನು
ಪೂರಣಮಾ
ಧಾರವಾಹ
ಚುನಾವಣಯಲಲೂ
ಸಪಷಟವಾದ
ತಳಯುತತದದಂತ
ನನಪದ
ಇಂಥಹ
ಇಂಥದೂಂದು
ಸೂಕತವಾಗ
ಪತರಕಯನನು
216
ಲಕಕಪತರ
ತೂಂದರಯಾಗದಂತ
ಭದರತಗ
ಭದರಾವತ
ಹಳಳಗಳು
ಜಾತಯಾತ
ಸಂಭವಸುತತದ
ಏರಕಯ
ನಾಟಕದಲಲ
ಗದದದದರು
##ಶರತ
ಕಳಗರುವ
ಪೂೕಲೕಸರ
##ಗಳನನಷಟೕ
ಪರಭಾವಶಾಲ
ಹೂೕದವರು
ನೖಋ
##ಕಾಲದಲಲ
ಮಂತರವನನು
ಮುಂದುವರಸದರು
ಅಡಡಲಾಗ
ಜಲಲಾಧಕಾರಗಳಗ
ವವಾದವನನು
ಅತಯಾಚಾರಕಕ
ಕಾದತತು
ಚಲನವಲನ
ಮಣಪುರ
ಗೃಹಣ
ಕಾಮದ
ದವೕಪದ
ತೂರಯ
ಅತತಗ
ಸವಾರರ
ಯಂತರವನನು
ತಂತರಾಂಶದ
ಪೕಟಯಲಲ
ಪರಶನಸುವ
##ಲಪಟಟತು
ಮಡಕೕರಯಲಲ
ಧಯಾನದಲಲ
ಚಕಕಮಗಳೂರನಲಲ
ಖಾತಯಂದ
ಪರಸತಾಪಸದ
##ನಯುಕತ
ದಾವಣಗರಯ
ಆಕಾಶವಾಣ
ವರಣರ
ವಜಯಪುರದ
ಜನಾಂಗಕಕ
ಏಳಂಟು
ನಯಾಯಮೂರತಗಳು
ಕೖಗಾರಕಗಳ
ಸಯಾಟಲ
ಉಪಕರಣವನನು
ಬಂಗಳೂರನನು
ಕತತುಕೂಂಡು
ಗೂತತಾಗಲಲ
ತಯಾಜಯವನನು
ರಾಣಬ
ರುದರೕಶ
ಆವೃತ
೨೦೦೬
೨೦೦೮
ಹೂವುಗಳು
2007ರ
ಇಷಟಪಡುವ
ಚಡಪಡ
ನವಾರಣಯಾಗುತತದ
ಏಕಕಾಲಕ
ನರಾಶರತರಗ
ಸರಹೂಂದ
ಆರಾಮದಾಯಕ
ಕೖಗತತಕೂಳಳ
ಪೂೕಲಯೂ
ಮೂಲಸಲಭಯ
ಟರಂಡಂಗ
ಪೖಲವಾನ
ಫಡರಲ
ಸಯಾಂಡಲವುಡನಲಲ
##ನಾಯಕನಹಳಳ
ಮನೂೕರಂಜನ
ಪಾತಕ
ಚುನಾಯತ
ತರಾತುರ
ತಟಸಥ
ಕಯಾಮರಾದ
ಮುಂದೂಡದ
december
##iversity
ವಶಾಖಪಟಟಣ
ಪರಾತಯಕಷಕ
ಖುಲಾಸ
ಪಶಚಾತತಾಪ
ಸಾರಸವತ
ಉಪಟಳ
back
ks
koh
time
was
wine
ಆವಾಗ
ಆಸಸ
ಆಹಲಾದ
ಇದರೂ
ಉಲಲಾ
ಉಗುಳ
ಓದದರ
ಕತಯಲಲ
ಗಲೕ
ಚಾರು
ಜರು
ಜಂಪ
ತಬ
ಪಎಲ
ಫಾದರ
ಬಾಜಪ
ಮಂಜನ
ರಂತ
ರಷಟ
ರೂೕಜ
ಲಪಟ
ಸಲಪ
ಸಬಂದ
ಸಯತ
##ಕಶ
##ಕಯೂ
##ೕಧರ
##ಶಕತಯನನು
##ಟಕಾ
##ಭಯಾಸದ
##ತತದದ
##ಗಳವರಗ
##ಯಾಚನ
##ಯಾದದದು
##ವುದನನು
##ಕರಟ
##ಕರಾಗದದ
ಮುಧೂೕಳ
ಮೂಣ
ಕೂಸು
ಕಲಾಡ
##ಾವಲೂೕ
##ಾಸನಲಲ
ಸರವಂತ
ಕರಕು
##ಯಾಗಳು
##ಯಾಗರುವುದರಂದ
ಕಾಂಚ
ನರಜನ
ರಾಜೕಶವರ
ರಾಜಮಳ
##ನಸತು
ನಮಮೂಡನ
ಆರೕಳು
ಆಗರುತತಾರ
ಹಚಚದದಾರ
ಹಚಚುವುದು
ಚತರದಂದ
ಅಭಮನಯು
ಕಾಲಂಗ
ಕಾಲೂನ
##ಸರೂೕ
ಜಲಲಯನನು
ರಾಜಯದಂದ
ಬಲಯೂ
ಕೖಕಾಲು
ಎಂದಷಟೕ
ದೕಶವು
ಗರಂಡ
ಬಜಪಯವರ
ನಡಯುತತಲಲ
##ಯುಂಟು
ತಳದದದ
ಹೂಂದಕೂಂಡು
ಅಪಸವರ
ಬಾರದು
ಬಾರದೕ
ಸೂೕವಯತ
ಭಾಗಯಾಗದದಾರ
ಪರೕಡ
ರೕಚಾರಜ
ಬಸಕಾಂ
ಹರವ
ಗಳಾದ
ಗಳಷಟು
##ುವುದಲಲದ
ಬಳಸುವುದರಂದ
##ಗೂಳಳುತತರುವ
ವದಯಾರಥಗಳಂದ
ನಗುವ
ಶವಮೂರತ
ಸಂದರಭವನನು
ಯಾವಯಾವ
ಆದಮೕಲ
ಉದಯೂೕನಮುಖ
ಗೂೕಳು
ಕೂೕಮಲ
2003ರಲಲ
ಕಾಯದುಕೂಂಡ
##ಬಲಯೂ
ನನದು
##ica
18ರ
ಹಾರಸದ
##ದದದಾಳ
ಕಷಟಪಡ
ರೖತರಲಲ
ಮಾರುಕಟಟಗಳಲಲ
ಒಳಗಾಗುವ
ಕಣಮನ
ಪರೕತಪಾತರ
ವಮಾನವನನು
ಇವರುಗಳ
ಪರಚಯದ
ದಾರಗ
ದಾರಶನ
ಕಲಪಸಬೕಕು
ಚಂದರಪಪ
ಯೂೕಗಾಸನ
ಯೂೕಗಾಭಯಾಸ
ಬಂಬಲವಾಗ
50ಕಕೂ
ಅಂಕಲ
##ದದಾಗತತು
##ೂೕಹೖಡ
ಚಕತಸಯನನು
ಹತತರದಲಲ
ಹೕಳಕಗಳು
ಸಮುದಾಯದಲಲ
ಸಹಕಾರದೂಂದಗ
ನೂಕು
ಪರಷತನ
ಹುದದಯಲಲ
ನಾರನ
ಹೂಡದದಾರ
ಅಕಷತಾ
##ott
ಶೂೕಚನೕಯ
ಬರಹಗಳಲಲ
ವತರಸ
ವತರಸಲು
ರಾಜಕಾರಣಗಳಗ
ತರಬೕತಗ
ಶರಣರು
ಕೂಹಲಗ
conf
ವಾಪಸಸ
ರಚನಯಲಲ
ಕಳದುಕೂಂಡರುವ
ಅನವಾರಯವಾಗದ
ಅಪರಾಧಗಳ
ಪರಪಂಚಕಕ
ಪಾಪದ
ಸಂಪರದಾಯವನನು
##abha
##ose
ನೕಮಸುವ
ಸವಾಮೕಜಗಳು
##ೂಡಲ
ಚೕಂಬರ
ಹೖಕೂೕರಟನಲಲ
##ದವರಗನ
ಕಂಡುಬಂದರ
ಭವನಕಕ
ವಯತಯಾಸವನನು
ದನಾಚರಣಯನನು
ಕೂಗಾಡ
ಯುವತಯರ
ಫಬರವರಯಲಲ
ಶತಕದ
ಶಾಖಾ
##ode
ಮೂಲಭೂತವಾದ
ಫರೕಡ
ಆಕಾಂಕಷಗಳ
ರಷಭ
ಓಟದಲಲ
ಮಹಾರಾಜರು
ಪರದಕಷಣ
ವಯಸಸನಲಲಯೕ
##ಮನಯಂ
ಪೕಳಗಯ
ಕಂಡುಬಂದಲಲ
ವರಾಮದ
##ube
ಹಂಜರಕ
ಸಾವಗೕಡಾಗದದಾರ
ಅಮೕರಕಾದಲಲ
ತಂಪಾದ
ಜಯಗಳಸದ
ಈಜುಕೂಳ
ಪರಾಯೂೕಜತ
ಲಾಡಜ
ಸಾಂಬಾರ
ಸವಾಭಾವಕವಾಗ
ಮನರಂಜನಾ
ಕೕದಾರನಾಥ
ಕರಮಬದಧವಾಗವ
ಶಂಭು
ಹುಮಮಸಸ
ಗಲುವಗಾಗ
ಕೂೕಷಟಕದಲಲ
ಥಾಯಲಂಡ
ಒಗಗರಣ
ಸಲೖಡರಗಳಲಲ
ತಾಳಮದದಳ
ತಾಮರದ
ಚಮತಕಾರ
festival
ಏರಲೖನಸ
6ರಂದ
life
po
pet
ಏಕತಾ
ಔಪಚಾರಕ
ಚದಾನಂದ
ಜತಯಾಗ
ತಂಕ
ದಾಮ
ನವಣ
ನಶಾ
ಫಲಸ
ಬಗರ
ಬಂಡು
ಮನನೂಂದು
ವಗ
ಸನಗ
##ತಟಟ
##ಾಚಗ
##ಶರಣ
##ನಮ
##ನಂದರ
##ನವಯ
##ಜುವ
##ness
##load
##ಫೕರ
##33
ಮಾಂಗ
##ದರವಯ
##ಯಾಯದ
##ಯಾದದರಂದ
##ಾಲಯಲಲ
ಮಾಡಸದದಾರ
##ವಾದೕತು
ಸಾತ
ಕೂಸ
ಸಮೖಲ
ಹೂದದು
ನರವಾಗಲು
##ಬಬಸ
ರಾಜಮನ
ಆಗದು
ಹಚಚರುತತದ
ಹಚಚಾದಂತ
ಕೂಡಗಗ
ಕೂಡತಾರ
ಬರಲೕ
##ರುತತದದವು
ಅರಬನ
ದನಗೂಲ
##ಟಟುಗಳನನು
##ರುವುದರಲಲ
ಅದಬುತ
ಪರತಶತ
ರಾಜಯದಲಲರುವ
review
ಅನರದ
ಬಲಪ
ಬಲಂಡರ
ಬಲಡಂಗ
ಹೂೕಗಬೕಡ
ಜೂನನಲಲ
##ಸಟಾ
ಎಂದಾಕಷಣ
ಕಾರಣವೂ
ಬೕಸದ
ಬೕಸದದಾರ
##ುತತದದೕರ
ಅಧಕಾರಯನನು
##ಮಕಲ
ಹಲರ
ಅಪೕಲು
##ುತತಾರೂೕ
ನೕರಾ
ಕರನಾಟಕದಲಲೂ
ಸಥಳಾಂತ
ಸಂಸಥಗಳಂದ
ದುಂಡ
ಬಡವ
##ಹಲೂೕಕ
ರೕತಯನನು
ವಯಕತವಾಗತತು
ಬಸಗಳನನು
ತಗೂೕ
ಸಂಪನನ
ಸಂಘವು
ನಾಯಕಯ
ಪಟಟದ
##ಗೂಳಸಬಹುದು
ಸಮಸಯಯಾಗ
ಇರಬೕಕಾದ
ಸಲಲಸುತತದದಾರ
ಮಂಡೕಲಾ
ಸದದಪಪ
ಪರೕಕಷಾರಥ
ಭೕಟಯಾದ
ಗೂತತದದರೂ
ನನಪಡ
ಅನುಭವಸದರು
ಒಪಪುವುದಲಲ
ತರಗತಯಂದ
ಚರಚಸದರು
ಕರಯಯನನು
##ಸವಲಪ
ಏರಪಡ
ಬರುತತಾನ
ವಾಚು
ಪರಕಾರಮ
ಅಮವಾಸಯ
ಮಾನವರ
ಉದದೕಶದ
ವರಷಗಳವರಗ
ಖರೕದಯ
ಹುಡುಗಯರನನು
ಒಳಗಾಗದ
ಸಹಾಯವನನು
online
ಟವಟ
ತಳಯೂೕಣ
ಮಾದರಯಲಲೕ
ರಾಯರು
ನನಪಾಗುತತದ
ಹಮಮಟಟ
ಚಲುವರ
ತೂಂದರಯಾಗ
ಭದರತಯನನು
ವಯಾಪಾರಸಥರು
ರಕಷತಾ
ಹೕರಲು
##agu
ಹೃದರೂೕಗ
ಸತಬಧ
ನವಾಸಗಳ
ಕಷಣಗಳನನು
ಕಾಮಗಾರಯ
ಸಂಭರಮವನನು
ಬೖಂದ
ಬೖದು
ತಾರಯರು
ವಸತರಸದ
ಪುರುಷರಲಲ
ಬಂಕಗ
ಫಲತಾಂಶಗಳು
ಉದಯಮಗಳಗ
ಆಗರೂೕ
ತಕಷಣಕಕ
ಖರಚಗ
ಆಯೂೕಜಸರುವ
ಆಯೂೕಜಸಲಾಗದದ
ಇಳಜ
ಗಟಟಯಾದ
##ಗತಾಯ
ವಶವಾಸಮತ
ಬಲಯು
ಅನಂತನಾಗ
31ರ
ಪುಟಗಳನನು
ಇಸಮ
ಬದರಸ
ಜನಮದ
ಹೂೕಟಲನ
ಮೂಡಸಬೕಕು
ತುಮಕೂರನಲಲ
##ತಾನೕ
ಲಾಕರ
ಸಂಪಾದಕೕಯ
##ಸದಂತಾಗುತತದ
ಪರಜಾತ
ರಾಘವೕಶವರ
ಆಕಸಡಂಟ
ಸಮಗರತಾ
ದುರಂತದ
ಸನನವೕಶವನನು
70ರಷಟು
ವಯತಯಾಸವದ
ಮುತತನ
ನಸಾರ
ಕೂಠಡಗ
ಓವರನಲಲ
2019ರಲಲ
ಜಾತರಾ
ನಚಚಳ
ಉಪಪನನು
ಅನಾರೂೕಗಯಕಕ
ನಾಯಕತವದಲಲ
ಕಾರನಲಲದದ
ಹರದಾಡುತತವ
ಕಬಳಸ
ನಶಾನ
ಹೕಳದದೕನು
ಸಮರಣಾರಥ
ಇಟಲಯಲಲ
ನಖರವಾದ
ವರುಷಗಳ
ಅದಲಲದೕ
ರಶಯಾದ
ಮೕಸಲಡ
ಮಾಸಕೂೕ
market
ಹಂಸಯ
ಹೖಸಕೂ
ಬರದರಸ
ಜಹಾದ
ಶವಶಂಕರಪಪ
ಬಸವಣಣನವರ
ನರಹೂರ
ಸಾಂದರಭ
ಬೂಕಕಸಕಕ
ಕುತತಗಗ
ಗಾಂಧೕಜಯವರ
ತಪಪತಸಥ
ತಾಂತರಕವಾಗ
ಟರಮನಲ
ಸಕಾಟಲ
techn
village
digital
ಒಬಬರಗೂಬಬರು
ಖಜಾಂಚ
##ಾವಲೂೕಕನ
8ರಂದ
mangal
test
wa
ಅದರೂ
ಇರುವುದ
ಕದಲ
ಕಬನ
ಘಳಗ
ನಬ
ಬಷಪ
ಲೂೕಗ
ಶಫ
ಸಬಲ
##ಂುು
##ರಸದ
##ರಲದ
##ೕಡು
##ಬತತ
##ಹಣಣನ
##ಚಕಕ
##ron
##25
##ಣಗಳ
##ಧೕಯ
##he
##ರುಳು
ಪರರ
##ಯಾಂಗ
ಸಂತತ
##ಂಬನ
##ಲುಗಳನನು
##ೕಕಾಂತ
ಮೂಲಯ
ಕಾರೂಂದು
##ಾವೕರ
ಸಮಾಸ
ಸರಗಳಳ
ನೕಡಬೕಕಾಗುತತದ
##ಬೕಕಾಗರುವ
##ನಯಂ
##ಲೕನಸ
##ಪರಮೕಶವರ
ಆರೂ
ಆಗುತತರಲಲಲ
ಹಚಚುತತಲೕ
##ಯೂಟರ
ಮೕಲೂಂದು
ಚತರಕಕೂ
ಬರಗೂರು
ಸರಕಾರೕತರ
##res
##ಕುಲದ
##ಕುಂಠ
ಅದಮಯ
##ಸರಬೕಕು
##ಾಮೃತ
ಕೖನಲಲ
##ಾನುಘಟ
##ರಮತ
ಸೂಬಗ
ನಲಲಸದದ
ಮಾರಪಡಸ
ಹೂಸೂರು
ಹೂಂದಸ
ಗೂಳಳ
ಸಪೂರ
ಮರರ
ಶುಕಲ
ನಟಸುತತರುವ
##ವೃಕಷ
ವಯಕತವಾಗ
ಇನನೂಬಬರು
ಇನನೂಂದೕ
ಸಾಲಕಕ
ಚನನವನನು
ಸಂಘಕಕ
ವಷಯದಲಲೂ
ನಡಸದದಾನ
ವಾರಗಳಂದ
ವಾರಕಕೂಮಮ
ಗಣತದ
ಪಟಟರು
ಪಟಟಗಳನನು
ಎಂಎಲ
ಸಮಸಯಯಾಗದ
##ೕಡಾದ
ಪಾಲಸದ
ಹಾಕತ
ಕಾಯುತತರುವ
##ಎಂಎ
ಮನಸನ
##ಪಟಟಣದಲಲ
ಬಾಲಕರು
ಪರೕಕಷಗಳಲಲ
ಬಗಯಾಗ
ಕಂಡುಕೂಳಳುವ
ಅಗತಯವರುತತದ
ಅನುಭವಸಲು
ಇಂಡಯನಸ
ರಸತಯಂದ
ಜಯಸ
ಕರಯಲು
ಇಷಟವಾದ
ಮೂರತಗ
ತಲಹೂ
ಅಮೕಜ
ಸೂಚಕ
ಮಾಡಕೂಳಳುತತದದಾರ
ಕರುಕು
ಪೂರಣಗೂಳಸದ
##ಾಗದದವು
ಎನನುತತೕವ
ಕಮಾಲ
ಹಾಡಲು
ಅಶಂ
ಸಥಾಪಸದರು
ಬಂಡೂರ
ಬರಯಬೕಕು
ಇನಪುಟ
ನಾವೕಗ
ನಯಾಯಸಮಮ
ಕತತರಸುವ
ಸಹಕಾರದಂದ
ಪರತಕರಯಸ
ಸವೕಡನ
##ಾಯುಕತರ
ಸತೂೕತರ
ಎಡಮಾಡ
ಸಂಸಕೃತದ
ಸಂಚಯ
ಗುಂಪಗ
ನೖಪುಣಯ
ಹಕಕುಗಳು
ಮೃತಪಟಟದದಾನ
ಅಂಗಡಗಳನನು
ಘಟಕಕಕ
ಘಟಾನುಘಟ
ಸರವಜಞ
ಒತತಾಯಸದ
ಹಂಗಾರು
ಇಟಟದದರು
ಧವನಯಲಲ
ಜಾಲತಾಣಗಳು
ಜೂೕಳದ
##ವಶಂ
ಕಂಪಯೂಟರನಲಲ
ಆಕರೂೕಶಗೂಂಡ
ಕಪಪುಹಣ
ವದಯಾವರಧಕ
##ತಯುಳಳ
##ಸಾಮಾನಯ
ಪಡದುಕೂಳಳಬೕಕು
ಭರಜರಯಾಗ
ಪರಕಟನ
ನಕೂೕ
ಪರಯೂೕಜನವಾಗಲಲ
ಗಂಟಗಟಟಲ
ಚತರೕಕರಣದಲಲ
ಹಯಾಂಗ
ಮಹಾಜನ
ಪರದರಶಸುವ
ದೕರಘಾವಧಯ
ವೃದಧಗ
ಆಶಚರಯವಲಲ
೨೦೧೧
ಮಾಡಕೂಡಲು
ಈತನಗ
ವಜಯಪುರದಲಲ
ಸಾಲುಗಟಟ
ಸೕಮತವಾಗದ
ತಳದುಕೂಳಳಬೕಕು
ತಳದುಕೂಳಳೂೕಣ
ಸುರಯುವ
ಬಕಕನ
ಬಕಕಟಟನ
ಸಾರವಜನಕರಲಲ
ಸಂರಕಷಣಾಧಕಾರ
ತುಪಪದ
ಬಸಲನಲಲ
ಜಲಾಶಯಕಕ
ಜಲಾಶಯದಂದ
ಲಾಲಬಾಗ
ಒಗಗೂಡಸ
ರೂಪುಗೂಂಡ
ತಣಣನಯ
ಕೂೕಶಾಧಕಾರ
ಬಾಣಂತ
ಜಾನುವಾರುಗಳ
ಕಯಾಂಟನ
ಕಯೂಸಕಸ
ಸಹಕರಸದ
ಕಾಯಕಣ
ಪರಕರಗಳನನು
meet
ಮನಮದದು
ಯಥೕ
ನನಪಾಗುವುದು
ಸಕಾರಾತಮಕವಾಗ
ಯತೕಂದರ
ನಗದಪಡಸಲಾಗದ
ಸುಮಧುರ
ವರಚುವಲ
ಮುಸುಕನ
ಕಾನಸಟೕಬಲ
ಚಂಚಲ
ಸಾನಯಾ
ನರಹೂರಯ
ಅಸಮಾನತ
ಮೃದುವಾಗ
ಪಸಐಇ
ವಾತಸಲಯ
ಆಲಬಂ
ಪೂೕರಚುಗಲ
ಸವಾರಸಯಕರ
ಹಾರಮೂೕನು
ಮೂದಲಲಲ
ಗೃಹಸ
ಪರಯಾಮಣ
ನಬಾರಡ
january
ಕರಬೕವು
ಅನರದಷಟ
bm
fif
hom
ಅಝ
ಆಡಯೂ
ಇದಯೂೕ
ಉತರ
ಎಂಗ
ಏನಾದರು
ಓದಗ
ಕಗ
ಕಬಳ
ಖಾಸ
ಖಾರದ
ಗಂತಲೂ
ತವರಗ
ಲಗನ
ಹನನೂಂದ
##ಪಥ
##ಪಎ
##ಯೂರ
##ಸಕರ
##ಹಟಟು
##bot
##jun
##ನನುವುದು
##ವರಮ
ಮಾಡರನ
ಸಂಸುಂಗ
##ೕರವಾದ
ನೕಗರೂ
##ಯಲಲದೕ
ಕಾರಡು
##ಾದಯ
##ಾದಾನ
ಬಳಯೂ
ಸರಣಗ
ಕರಂಟ
ಕರೂೕಡ
ಕರದದದಾರ
ಕುಡಕ
ಅವರದದೕ
ಕಾಮಾ
ನಮಮದಯಂದ
ಹೕಳಕೂಂಡದ
ಹೕಳಕೂಂಡದದರು
ಆಗಷಟೕ
##ಕೂಳಳುತತದದರು
ಹಚಚಾದ
ಎಲಲಕಕೂ
##adesh
ಪುತಥ
##ಂಚನಲಲ
ಮುಂದಾದರ
ಕಾಲಕ
##ೂೕರನ
ಅನೂ
ಶರೕವತಸ
ಕಲಸಗಾರರು
ಎಸಇಒ
ಮೖದ
##ೕತರಾಗ
ಹೂಂದಕ
ಹೂಂದದದರೂ
ಒಂದಾಗರುವ
ನೕರಜ
##ಲೂಬಹುದು
ಕಂಡರುವ
ಸಂದರಶ
##erala
ಕೂೕಟಯಲಲ
ಇದರರಥ
ನಾಯಕನಗ
##ಗೂಳಳದ
##ತಪದ
ಯುದದ
ಇರಲೕ
ಇರತಾರ
ಇರಲೕಬೕಕು
##ಕಯಂತ
ಭೂಸವಾ
ಗೂೕವನ
ಗಾಂಭೕರ
ಬಾಲಸು
ಕುಟುಂಬದಂದ
ಜಾಗೃ
##ಪುಲ
ವಾಹನಕಕ
ಅನುಭವಸದದ
ಶಕಷಯನನು
ತಯಾರಸಬಹುದು
ಅದಕಕಂತಲೂ
ನಂಬುವ
ಹಾರಟ
ಬಯಸುತತೕನ
ಬಯಸುವುದಲಲ
ನೂೕಟಾ
##ವಸಗದ
ರಾಷಟರಕೂಟ
ಪರಯತನದ
ಕಚೕರಯನನು
ಡಸಟರ
ದೕಹದಂದ
16ರ
ಕರಾಚ
ಪರಾಣೕಶ
ಪರಾರಂಭವಾಗುತತದ
ರೂೕಗವನನು
ಲಭಯವಲಲ
ನನಪಲಲ
##ೕಗಡರು
ಚತರದಲಲೂ
ಪರಶೕಲಸದ
ವೕರಪಪನ
ಬಾಯಂದ
ನೂಡ
ಕಾರಯದರಶಗಳು
ನಾಟಕಗಳ
ಕೂೕರಟು
ಉಳದದದ
ಸಂಸಾರದ
ಹುದದಯನನು
ಯಶಸವಯಾದ
##ould
ಜತಗೂಡ
ಗಳಸದದು
ಕಷಣಕಕ
ಅಧಯಯನದಲಲ
ಸಂಸಕೃತಗ
ಇತಹಾಸವದ
ಪರಪಾತ
೨೦೦೦
ಹಾಡುಗಳಗ
ಅಪರಮತ
ನಾಡಗಡ
pro
ಪರಕರಯಗಳು
ಅನುಕೂಲಕಕ
ಶಬದದ
chit
ಪಡದುಕೂಂಡರುವ
##ಪಕಷಪಾತ
##ದದಲಲದೕ
ಅಪಘಾತದ
ಅಪಘಾತಕಕ
ಅಪಘಾತಗಳು
ನಾಯಕರಲಲ
ಜಮಾಯ
ವರತಮಾನದ
ಶಂಕರನಾಗ
ಹುಡುಕುತತಾ
ಬದಧವಾಗದ
ಲಾಭಾ
ಕರೕಡಯಲಲ
ವಮರಶಕರು
ಔಷಧಗಳ
ನಾಶವಾಗ
ಮಹಾಪರ
ಉಳಯುವುದು
ಕಾಣಸಕೂಳಳುವುದು
ಕಾಣಸಕೂಳಳುತತವ
ಪಾಲಗೂಂಡರು
ಅಸತತವದಲಲ
ಉತಸವಕಕ
ಪರಸಂಗಗಳು
ಔಟಾಗದ
ದೂರಕುವ
ಅಭನಂದನಾ
ಕರಾಂತಯ
ಸಂರಕಷಣಯ
ಎಂಬುದರಲಲ
ಶರಾವತ
ಹುಟಟುಹಬಬವನನು
politics
ಎರಡನಯದು
ಸಟಟೕರ
ಪಕಟರ
ವರಸಸ
ಕಯೂಸಕ
ಹತಯಗೖ
ಚೕತರಸಕೂಳಳ
##ಯಾವುದೕ
ಆಕಾರದಲಲ
##ನಾಭಪರಾಯ
ತೂೕಡಕೂಂಡರು
play
ರೕಟಂಗಗಳು
##ವಶಯಕವಾಗ
ಬಯಾಂಕುಗಳಲಲ
ಪರೖವೕಟ
ಫರಾನಸನ
ವಾರಾಂತಯದಲಲ
ಗರಾಸವಾಗದ
nagar
ಹಾರಡವೕರ
ಫೂಟಬಾಲ
ಸಾಂಕೕತಕವಾಗ
ಘಟನಾವಳ
ಸಮಮೕಳನಾಧಯಕಷರು
ಭಗವದಗೕ
ನೖತಕತ
download
ದಾಪುಗ
ಸರವತೂೕ
ರಾಷಟರಕವ
ಹಗಗಾಮುಗಗಾ
ನೖಋತಯ
4ರಂದ
7ರಂದ
det
mal
son
ಏತನ
ಒಲವ
ಖೂ
ತಕಕು
ನಾತ
ಪಲಗ
ಫೂೕರಟ
ಫದಾ
ಬಾತರ
ಲಾವ
##ವದಯೕ
##ವದದಂತ
##ೕವಾಡ
##ಶೖ
##ಬಡು
##ಸಾಲ
##ಹಡದ
##ಷದ
##ೃಗ
##ಐಪ
##ber
##ಾರಜ
ಮಾಟ
ಮಾಂಡ
##ಕಕೕರದ
##ವರಂದು
ಮಾಡಬಡ
ನೕಳ
ನೕಣಗ
ಕೂಂಕ
ಕಲನಕ
ಬಳಯದ
ಬಳಸುತತೕವ
##ಂತರಲಲಲ
##ಯಾಗದೕ
ಕುಲಸ
ಹೂಚಚ
ನರತರಾಗದದಾರ
##ಮಾಧಯಮ
##ಕತವದ
##ಂಟಾ
ಹೕಳಕೂಂಡರು
##ಸತಾದ
ಮಹಾಪೂರ
ಎಲಲೕ
ಅಭದರ
ದನಚರ
ಕಾಲವುಡ
ಈಗನಂದಲೕ
rev
##ಾಣು
ಹೕಗವ
ಹೂೕಗೂೕ
ಹೂರಹೂೕಗ
##ಕಕೂಳ
##ಕರಮದಲಲ
ಮೕಕರ
ರೖತಾಪ
ಮೖದು
ಕಷಮಾ
ಯೂೕಧನ
ಕೕಳದದೕವ
ಮರಯಾ
ಮಾತನಾಡದದು
ಅತಶ
ಬೕರಡಗ
##ಶಯಸ
ಗಳನನೂ
##ೖನಮಂಟ
ಸೕರುತತ
ಚನನಗರ
ಪಡಯುತತವ
ಬೕಕದ
ಬುನಾದ
##ುವುದನನೂ
ಪಾತರಗಳಗ
ಮಧಯಸಥಕ
ವಯವಸಥಗಳು
ಮಂಡಲದ
ಕಾಯನ
ಬಗದ
ಜಾರಯಲಲದ
ಸಂಖಯಗಳ
ಬಂಧಸದದರು
ಕವಗಳ
ಅಂದರೂ
ಮದುವಯಾಗದದ
ಗಡಮೂಲಕ
ಸವಲಪವೂ
ಹಾರದ
ಮಾನಟರ
ಮಾಧಯಮದವರ
ವಧಸಲು
ಇಲಲದರುವ
ಎಲಕಷನ
ಜಾಲವನನು
ಸಂಗೕತದಲಲ
ಬಟಟುಬಡ
ಬಟಟುಕೂಟಟ
ಮುನನಲಗ
ಹಾಸಯಾಸಪದ
ದೕಪಗಳ
ಕಾವಯದಲಲ
##ಧರತ
ಮರುಪರ
ಲಭಯವಾಗುತತದ
ಸೃಷಟಯ
ಹಮಮಕೂಂಡದ
ಮುಖಂಡರಗ
ನಾವಂದು
ತೂಡಗಸಕೂಂಡದದಾರ
ನಯಾಯಮಂಡಳ
ವಯಸಸನಲಲೕ
ವಲಯಮ
ಗರವದಂದ
ಕೂೕರಮಂಗಲ
##ಹಾಕದ
ಖಾನಾಪುರ
ಸಮೕಪದಲಲ
ಆಪಲಯಾ
ಪರಚಯಸ
ಉದಾಹರಣಯಾಗ
ಎಡಕಕ
ಜನಪರಯವಾಗದ
ಅಂಬಾರ
ಜಯೂೕತರ
ಹಾನಯ
ಕಣಣುಗಳ
ಕುಟುಂಬದವರಗ
ಕಚಚನ
chik
ಪರಯೂೕಗಗಳು
ಮನಸಸಲಲ
ಶರೕನಧ
ಆಳಕಕ
ಸವಚಛತಯ
ಚಕಾಗ
ತಗದುಕೂಂಡರುವ
ಡರಂಕ
ಹತಯಾ
ಉಳಯತು
ಕೂಪಪಳದ
ಕೃತಯಕಕ
ಮುಂದುವರಯುವ
ಸನೕಹತರನನು
ವಂಚತ
ಪರೂೕತಸಾಹಸುವ
ವಹವಾಟಗ
ಫೕವರಟ
೨೦೧೪
ಪಾವತಸುವ
ನರಾಕರಸದದಾರ
bureauಪರಮುಖ
ನಲಸದದಾರ
ಪದಮಶರೕ
ರಾಜಯಪಾಲರಗ
ನಯಾಯಮೂರತಗಳ
##ಮಕಕಳ
ಮದುವಯಾಗಲು
ಗುತತಗದಾರರಗ
ಹಾಳಾಗುತತದ
ಭೕಕರವಾಗ
ಸಥಗತಗೂಂಡದ
ಪಸರಸ
ಹೕರೂೕಯನ
ಖಾತರಪಡಸ
ಕಛೕರಯಲಲ
ರೂಪುರೕಷ
ಪಣರಾಯ
ಬಂಗಾರಪೕಟ
ಇಂಟರಫೕಸ
72ನೕ
ಅದಲಲಾ
ಕಾಸರಗೂೕಡ
ಸಹಕರಸಬೕಕು
ರಕಾರಡಂಗ
ಅರಥಮಾಡಕೂಳಳ
ಮೂಗದಲಲ
##ಬಾರದತತು
ಡಸೖನರ
ಇರುವಾಗಲೕ
ಅರಥಪೂರಣವಾಗ
ಇಂಡೂೕನೕಷಯಾದ
ಜನಮದನದ
ಅಶವತಥಾಮ
ಪಂದಯಾವಳಯಲಲ
ವವೕಚನ
ರಾಧಾಕೃಷಣನ
ಬನಸಾಲ
ಆಸುಪಾಸನ
ಬಯಾಕಲಂಕಗಳನನು
ಮುಜಾಹ
ಮೂಢನಂಬಕ
ಅಲುಗಾಡ
virat
ಬಳುಪು
ರಾಹುಲಗಾಂಧ
ರಟರನಸ
ಅಸಂಬದಧ
ಮೂಟಕು
##ಮಣಸನಕಾಯ
ಮುಗುಳನಗ
ಲಾಭಾಂಶ
420
free
good
giz
his
sam
yog
yout
ಅ೦ದು
ಇಟಟದ
ಇಹಲೂೕಕ
ಐಕಾನ
ಕಂದರ
ಕಯೂಬ
ಜನಾಭಪರಾಯ
ಟೂಲ
ತವಳ
ದೂೕಹ
ಫಂ
ಮೕವ
ಮಡಯ
ಯಾಣ
ರುವ
ರಶಯನ
ಲಾಲು
ವಂಟ
ಶಲೕ
ಶೂೕಷ
ಹೕಯ
ಹನೕ
ಹವನ
ಹನರ
ಹಮಾಲ
೪೯
##ೕಬರ
##ದಾದರೂ
##kh
##ಳದಲಲ
##ೃಶ
##form
##ಾಗುವಂತ
##ೂೕಡಯ
ಮಾಳವ
##ವರಾಗದದಾರ
ಮಾಡಲಕಕ
##ಕಷಯ
##ಂಬೂೕ
ನೕಯ
ರಾಮರ
##ವರುತತ
##ತುರಯ
##ುವುದಂತೂ
##ಲಾಗರುತತದ
##ಂತರದ
ಸುಭಾ
ಕರದದದ
ನೕಡುವಾಗ
ನೕಡಬೕಕಂಬ
##ಕೂಂಡದದೕನ
ವರಶ
##ಬಬಾ
ರಾಜವಂಶ
##ನಸವಾಮ
ವಯಂಜನ
ಎಲಲರು
ಸರಕಾರಗಳಗ
ವಶಯ
ವಶವಾಸದ
ಹುಲಲನ
ಮನಕಕ
ಮನಗೂ
ಕಾಲುಗಳನನು
ಪರತಭಯ
ಸವಪನ
ನೂೕಡುತತದ
ನೂೕಡಬಹುದಾಗದ
ಕೖಯನನು
ಹೂೕಗದದರ
ತರಬಹುದು
ಕಾರಣಗಳವ
ಬೕಸುವ
ಆಯತ
ಶರೕಷಟ
ದೕಶದಲಲರುವ
ವೖಭವದ
ವೖಕುಂಠ
ಎಸಡಪಐ
##ವನೂ
ಗರವಾನ
ಕೕಂದರವು
##ಮುರು
ಹಲಗ
ಕೕಳಸಕೂಳಳ
ಗೂಲಲ
ಸದನದ
ಮರಜಾ
ಸಟೕಜ
ಸಟಾಲನ
ಕಂಡಂತ
##ೂೕಧರಮ
ದೂಂಬ
##ines
ದರದರ
ಬೕರಲಲ
ಸೕರುತತಾರ
ಬಳಸರುವ
ಬೕಕಾಬಟಟ
ಸಗದಂತ
ಪಾತರಗ
ಪರಾಕರಮ
ಹಾವನನು
ಗರಾಂಡ
ಪರತಯುತತರ
ಪರತಯಾರೂೕಪ
##ಪಟಟಗ
ಪರೕಕಷಗಳ
ಸಭಗಳನನು
ಅಭವೃದಧಪಡಸಲು
ಮಳಯಾಗುತತದ
ಧರಮಸಂಗ
ಕರಯುವುದು
ಏರೂೕ
ಪರತಭಟಸ
ಸುರಪುರ
##ರಾಜಕೕಯ
ನೕತಗಳನನು
ಬಣಣಗಳು
ನುಣಣಗ
ಆಹಾರಗಳು
ಚಾಲು
##ಕೂಡದು
ಪರಚಂಡ
ಚಂತಾ
##ಯಾಕಪ
##ರಲಯಾಂಡ
ವೃತತದಂದ
ಓದಬಹುದು
ಮಾಲೂರು
##ೕಕರಣಕಕ
ಫೂೕಟೂೕಶ
ವಸತುವಾಗ
ಚನನಾಗರುತತದ
ಪಲಾಯನ
ದಾಖಲಸಲಾಗತತು
ಕತತಾಟ
ರೕತಯಲಲೕ
ಇಂಡಯಾದಲಲ
##ೕಮಂತ
ಲೕಖನಗಳ
ಉತಪಾದಕ
ರೂೕಹನ
ಎಡಪಂಥೕಯ
ಶನವಾರದಂದು
ಭೂಮಯಂದ
ಗಂಭೕರವಾಗದ
40ರಷಟು
ಅಪಾಯಕಕ
ಅಪಾಯದಂದ
ನಷೕಧಾಜಞ
ಬನನಟಟ
ಆವರಣದ
ಮೃತಪಟಟದದರು
ಬೕಜಾರು
ಯೂೕಚಸುವ
##istan
##ತೂಡಗತತು
ಪಾಲಕಗ
ಭಾವನಗಳ
ಮಯಾಜಸಟ
ಗಳಯನ
ಯಾತರಯಲಲ
ಡಜಪ
ಹಂಬದ
ಚಕಕಮಗಳೂರನ
ಸಪಂದಸುವ
ಅದೃಷಟದ
ಮಾಡಕೂಡಬೕಕು
ಗಾತರದಲಲ
ಬಳಲುತತದದಾರ
ತಗಯುವುದು
ಸಂಕೕತವಾಗ
ತಡಯಬಹುದು
ಹದನಂಟು
ನಂತತತು
ಸೕನಾಧಕಾರ
ತತವಜಞಾನ
ಜಾವಡೕಕರ
##pedia
ಪಯಾಕಟ
ನದಯಂದ
ಅಸಹಯ
ಪರವತದ
ಶರಾದಧ
ಸಮಮೕಳನವನನು
ಕಛೕರಗ
ಜಟಾಪಟ
ಪುರಸಭಯಲಲ
ಆಧಯಾತಮ
ವೕಷಭೂಷಣ
ವಂದನ
ತಡಗಟಟುವ
ಮನದಟಟು
ಅಂಗಳಕಕ
ಬಸಸುಗಳು
ಚತರಣವನನು
ವಕೂೕಪದಂದ
##ತಕಕದದು
ಯುರೂೕಪನ
ಕಾರಪೂರೕಟರ
##ಬಹುದಾಗದದ
ಕುಸಯುತತದ
ದರಾವಣ
ಅಲಲಯವರಗೂ
ಡಯಾಶ
##ubl
ಇನನುಳದಂತ
ಪಷಟಕ
ಗೂೕದಾವರ
ಕಯಾಸನೂ
ವಕಸನ
ಸಂಗಾತಯನನು
ಹುಮಮಸಸು
watch
ಮಸೕದಯ
ಪರಾಸತಾವಕವಾಗ
ಜನಮಾಷಟಮ
ಯಡವಟಟು
ಓಣಂ
ಕರುಣಾಕರ
ಮಾರಕಾಸತರಗಳಂದ
ಮುಟಟುಗೂೕಲು
ತೃಣಮೂಲ
ಅಸಹಾಯಕತ
ಕಲೖಮಯಾಕಸ
ತದವರುದಧ
wikipedia
ವಠಠಲ
ಶಡಲಘಟಟ
ಅನರೕಕಷತವಾಗ
ಮೕಲದರಜಗ
kohli
ಚಲುವರಾಯ
gizbot
bu
book
don
ss
song
ಆಚಗ
ಇನಯಾರ
ಖದೕ
ಗದರ
ಜರಸ
ಜಟಲ
ಡಫರ
ಡರೕಮ
ಥರೂೕ
ದಹ
ದನಸ
ಪಎನ
ಫೂೕರಡ
ಬಲಕ
ಬಾನು
ವಫ
ಸೂರತ
ಹುವ
ಹವಾನ
೯೦
##ಜಾಕ
##ಸನನು
##ಷಕವಾಗ
##ಚಯುತ
##ij
##dp
##49
##ಾಗಲಲಲ
##ರುಗಳನನು
ಮಾಸಟ
##ವರಾಗದದು
ಮಾಡಕೂೕ
ನೕಲಕ
##ನಾಪ
ಕೂಯಲು
##ುವುದದ
ಬಳಸದರು
ಸುಡು
ಕರಚ
ಕರಯಯ
ಅವರಂತಹ
ಕಾಟನ
ನೕಡರಲಲಲ
##ಬೕಕಂತ
ನರಮೂಲ
##ನಯನನೂ
ಹೕಳತಾ
ಆಗಬೕಕದ
ಭಾರಗವ
ಕೂಡದದು
ಬರದಾಗ
ಬರತಾರ
ಬಂದಮೕಲ
ತುಲಲು
ರಾಜಯವು
ret
mob
ನಲಲುತತಾರ
ದೕಶವೕ
ಕಲಸವನನೂ
ಹೂೕಂಡಾ
##ಮನಯಲಲ
ಹೂಂದಲಾಗದ
ಕೕಳಲಲ
ಕೕಳದದು
ಕೕಳದದರು
ಕೕಳದದೕನ
ಸದಭ
ಸದಬಳಕ
ದೕವಕ
ಭಾಗಗಳಂದ
ಸಟಯಲಲ
ದುಬ
##ಲನಂತ
##ುತತರುವಂತ
ಸಾಲುಗಳನನು
ತಗದರ
ವಶವವೕ
ಮುಖಗಳು
ನಡಸಕೂಟಟರು
##ೂಬಬನ
ಬುಕಕ
ಆರೂೕಪಸದದರು
ಸಗುತತತತು
ಆಡರುವ
##ಮೂಬೖಲ
ಆಟೂೕಮ
ಆದಷಟೂ
ಫಲಯಾಟ
ಅಧಯಾತಮ
##ಎಂಐ
ಸಂಖಯಯು
ಮುಗಸಲು
ಇಂಡಕಸ
##ಶಚರ
##ಬಹುದಾದರೂ
ಭಾಷಯಾಗ
ಜಯಣಣ
117
ಕರಯಗ
ಕರಯಲಾಗುವ
183
ಹಾರೖಸ
##ಾರಾಧನ
##ವನನಷಟೕ
ನೕತಗಳು
ಬರುವವರು
ವರೂೕಧಸುವ
ಆತಮಕಕ
ಒಳಗಾಗರುವ
ಪೂಜಸಲಾಗುತತದ
##ಸುತತದದಳು
ಕಚೕರಗಳ
ಹಾಸಯದ
ವೃತತಯ
ಹೕಳದನು
ಆಲಬಾ
ಫೂೕಟೂೕಗರಫ
ಉದಯೂೕಗಗಳನನು
ಮರುಭೂಮ
ಚನನಾಗತತು
ಹೕಳಕಯಲಲ
ದಾಖಲಸಕೂಂಡ
##ೂೕತಸವಕಕ
ಹುದದಗಳು
230
ಪರತಭಟನಗಳು
ಕೂನಯವರಗೂ
ಹಾನಗೕಡ
ಅನುಕೂಲವಾಗುವ
ಆಯೂೕಜಸ
ತೕರಮಾನಸ
ವಜಯಾ
ಹಲಲಗ
ಸೕರದವರು
ನರದೕಶನಾಲಯದ
constit
ಸಾವನನಪಪದದಾನ
ಜನಮದಲಲ
ಲಾಡು
ಅರುಬಾ
ಮಹತವವದ
ರಾಶಗ
ಕಾಣಸಕೂಳಳುತತದದಾರ
ಹಂಸಾತಮಕ
ಶಬದಗಳು
ಕೂೕಪಕಕ
ಗರಹಗಳ
ಆಕಸಜನ
ನಗರಸಭಾ
##ನಾತಮಕವಾಗ
ಭಾಗವಹಸದರು
ಬಾವಯ
ಪಲಾಸಟರ
ಆಕಾಶದ
ಅಪರೂಪಕಕ
ಸದಸಯರೂಂದಗ
##ಾಚೂ
ಸಾಗರದಲಲ
ನಂತತು
ನಗರಸಭಯಲಲ
ಸಾಮಗರಗಳ
ಕಯಾಲೂೕರ
ಸಂಧೂ
ಜಾಕಸನ
ಅಧಯಕಷರಾಗದದ
ಸರಕುಗಳ
ಮತತೂಬಬರ
ಭುಜದ
ಮಾಹತಯೂ
ಕಂಟಕ
ಪರತಪಾದಸದರು
##ಭವನದ
ಓದುವಾಗ
ಆಭರಣಗಳನನು
ಅಭವೃದದಗ
ಇಂತಹುದೕ
ಇನನೂಬಬರಗ
ಸುಮಮನರ
ಸೂೕನಾಲ
ದಗವಜಯ
ಪರದಾಡುವಂತಾಗದ
ವದಯಾರಥನಯರಗ
ವಯೂೕಮಾನ
ಭಾವನಾತಮಕವಾಗ
ವಜರದ
ಬರವಣಗಯ
##ಸೕನಯ
ರಾತರಯಡೕ
ಎಬವಪ
ಸಹಭಾಗತವ
ಯೂಟಯೂಬನಲಲ
ವಾರಾಂತಯದ
ಅನುಸಾರವಾಗ
##roid
ಪೕಪಲಸ
ಬಯೂೕಮ
ಆಸಟರೕಲಯ
ಸಲೕಂ
ಬೂೕಪಣಣ
ಅಚಚುಮಚಚು
ಅಶವಥ
ಪೂೕಟೂೕ
ಹಣಾಹಣ
ಮುಗುಳು
index
ಪೂಟಯಾ
ಮುಡಗೕರ
ಸವಯಂಪರೕರ
ಆಲರಂಡರ
budget
##ruitment
ಏಷಯಾಕಪ
hos
ಅನನೕ
ಇಶಾ
ಉರಗ
ಉಲಟಾ
ಎದಗ
ಏತ
ಓದದಾಗ
ಖೕಣ
ಜೕಕ
ಥಾಣ
ನಧಯ
ಪಬಲ
ಬಕಟ
ಬಾಪು
ಬೂೕಲಟ
ಮಸಕ
ರಷಯ
ರವೕಶ
ಲಜ
ಲಟ
ಲಘ
೩೭
೪೨
##ುಷ
##ಮರಯ
##ಪಾರು
##ಹಜ
##47
##ject
##ಾಗುವುದಲಲ
##ಗಳಂಬ
##ದದನು
ಪರಾಪತ
##ಕಕ2
##ದರಶಯ
##ಯಾಬಾದ
##ವಾಗಲದದು
ಮಾಡಸಕೂಂಡು
##ನಾಪುರ
##ಕಾರಡ
ನಡಸಲ
ಕಲಚ
ಬಳಸುವಂತ
ಕುದರ
ಹೂವನನು
ನೕಡುವಂತಹ
ವರದಗ
##ಗಳಲಲಯೕ
ರಾಜತಾಂತರಕ
ಹೕಳತೕನ
##ಸಥೖರಯ
ಅವಕಕ
##ದಂದೂ
ಚತರವೂ
ಚತರೂೕದಯಮ
##ಳುಗಳ
ಸಥಳಯ
ವರಷವಡೕ
ಮುಂದಾಗುವ
ಕಾಲನನು
ಕಾಲದಲಲೕ
##ಸರದ
ಅಲಲಾಡ
ರೂಮನ
ನನನಯಷಟೕ
ಜಲಲಯಂದ
##ರಯನ
ಕಡಯಲಲ
ಬಲಬ
ಅಂತಸತು
ಎರವಲು
ಸೂಪ
ಸೂಂಪ
ನಲಲಸುವ
ಗರಾನ
ಹಾಕದರೂ
ಅಥಣ
ಹೂಸದುರಗ
ದೂರವ
ದೂರನನು
ಭಾಗಲ
ನೕರಗೂ
ಮಾತನಾಡದರ
ಮಾತನಾಡಬೕಕು
ರೂಪಸರುವ
ನಟಸದದರು
ದೂಡದ
ಸಂಸಥಯಾದ
ಹಸವನಂದ
##ಂಥವರು
ಬಸನಗಡ
ಮೂೕದಯನನು
ದಾಖಲೕಕರಣ
ವಶವವಖಯಾತ
ಸೕರು
ಸಂಘಪರ
ಅಗದು
103
##ಷಠರ
ಪದಮಾ
##ಗೂಳಳಬೕಕು
inst
ವಶೕಷವಾಗದ
ಸಲಲಸತತು
ಭರಪೂರ
ತಂದತಾಯ
ಇನನುಮುಂದ
ಉದದಕಕ
ಕಯಾಟ
ಬಾಲಚಂದರ
ಗೂತತಾದ
1200
ಜಾಗರತ
ಭಾವಸುತತೕನ
ಜಯಸದ
ಜಯರಾಂ
114
##ಜಜಾ
ತರಗತಗಳನನು
ಏನಪಪಾ
##ಗಳಾಗದದರು
ನಾಯಯನನು
ಹಂತಗ
ಬಯಲಾಟ
ಟರಕಕಂಗ
ಮೂಡುವ
ದಾಖಲಸದರು
ಪರಗತಯಲಲದ
ಸಹಾಯವಾಣ
ಚಂತಕರು
ಕರಾಫಟ
ಗಾಯಗಳಾಗದದು
ಆದೕಶದಲಲ
ಹಚಚಾಗರುವ
ಅಷಟಕಕ
ಹತತವರ
ಹತತಲು
ಒಳಳಯದೕ
ವಭಾಗವನನು
ತಳಯದು
ತಳಯಬೕಕು
ತಳಯಬಹುದು
ಸಕಾಲಕಕ
ಉಂಟಾಗದದು
ರೂೕಗಗ
##ಜರತ
ರಮೂೕಟ
ಲೂೕಕಲ
ರಾಜಯದಲಲನ
ತೂಂದರಯಾಗದ
ಸೂೕಮವಾರದಂದ
ದೕವಸಥಾನವು
##ages
ಗದದದದು
ಉಳದುಕೂಳಳ
ಸಂಸತತು
ಕೕತು
ಸಂಶೂೕಧನಗ
tour
ಶತಾವಧಾನ
ತಾಣಂ
ಬೕಗಂ
ಬಚಚಟಟ
ಜೕಬಗ
ಆನಂದಸ
ಮಣದು
ವಷಾದದ
##thi
##ther
ಹುಡುಕುವುದು
ತಾಲಲೂಕುಗಳಲಲ
ನವಾರಸ
ಸುವಾಸ
ಕುಸತದ
ಒಳಗೂಂಡದದು
##ava
ಗರಂಥಗಳು
ಶಕತಯು
ಧವನಯನನು
ಆರೂೕಗಯಾಧಕಾರ
ಪಂಡತರ
ಸಸಯಗಳ
ತಟಟನ
ಶೖಕಷಣಕವಾಗ
ಕುಲಾಲ
ಕೂಲಲೂರು
ನದರಗ
ಗರಾಮಾಭವೃದಧ
ಮಾತನಂತ
##ute
ಮದುಳಗ
377
ಅನುವಾದಕ
##ನಾಶಕ
ಬಟಾನಕಲ
ಆಸಟರೕಲಯಾದಲಲ
##ದರುವುದೕ
ಈಡೕರಕಗ
ಕಛೕರಯ
4000
ರಾಜಸಥಾನದಲಲ
ಬಾದಾಮಯಲಲ
ಅಚಚುಕಟಟು
ರವರಸ
ನನಸು
ಮುದದನ
ಶತರುಗಳ
ಭೕಟಯಾಗಲು
ಎಸತದಲಲ
ಲಡಡು
ಅಮೂಲಯವಾದ
ವಯೂೕಮಾನದ
ಸುಚೕತಾಳಗ
ಇರಾಕ
ಸೂಸೖಟಯ
ಮುಂಚೂಣ
##ಬಾರದಂಬ
ಬಾಗಲನನು
##ಪಾಟು
ಅಂಜು
ಫಲೂೕರೖಡ
ಆಗುಹೂೕಗ
ನಕಸಲರ
ಕಯಾಥೂಲಕ
internat
ಮಸೂದಯನನು
ಸಮಾರಟಫೂೕನನಲಲ
ಆಂಬುಲನಸ
ಅಚಚುಮಚಚನ
##ಚಟುವಟಕ
ಹಾಡುಗಾರ
ತಳದುಬಂದಲಲ
ಸಾಕಷರತಾ
ಮರುಕಳಸ
ಸುರಮಳ
ಅವರೂೕಧವಾಗ
ಉರಯೂತ
ಅನಕಷರಸಥ
ಹೂಲೂಗರಾಮ
ಕಳಳಸಾಗಣ
ತುರುವೕಕರ
ಜಜಞಾಸ
ಅವನಾಭಾವ
ಜೂತಜೂತಗ
mangaluru
ge
gowda
kerala
sw
sim
ಅಮನ
ಇಗ
ಇರಾದ
ಉಮ
ಉಮಮ
ಎಪಸ
ಒದಯ
ಔರಂಗ
ಗಜಾನನ
ಥೂ
ನರುಪ
ಪಯೂ
ಪಯಾಸ
ಪಎಫ
ಬೂೕನ
ಮಸು
ಲಹ
ವಸಕ
ಶವದ
ಷಣ
ಸತತರ
ಹಟಟನ
೬೪
##ವೕಲ
##ಕೂೕಣ
##ಮೕಳ
##ಮಂಗಳೂರು
##ಬೂಲ
##ಹೂೕದರ
##ba
##ುವಚಚ
##ಯಾಜ
ಮಾಡಲದದು
##ವಾದೕ
##ೂರನಸ
##ರಾಸತ
##ನಾಳದ
ಕೂರುವ
ಬಳಸುತತವ
##ಲಾಗುತತ
ಸರಳತ
ಸುಚ
ಕರಪೂರ
ಕಾದರ
ನೕಡಲದದು
ಆಗೂೕದು
ಹಚಚೕ
ಹಚಚಸಲಾಗದ
ಎಂಬುವುದು
ಕೂಡುತತದದರು
ಅಭಯಾಸದ
ಪುಸಸ
ಅರವಲಲ
##ಳಯಲು
ಸಹಾರ
ಹುಲಲ
ಮನೂೕಧರಮ
##ನನೂಳಗೂಂಡ
##ರುವುದಂತೂ
ಅಲಲಮ
ಪರತಫ
ಬಲಗಳ
ಕೖಗಳ
ಹೂೕಗುತತರುವ
##ಷಣುತ
ಸೂಡ
ಕಾರಣವಂದರ
ತನನಂದ
ವೖಲಡ
##ವಲಲದದದರೂ
ಸನಯಾಪ
##ತಸದದ
ಒಂದಾನ
##ಯರೂ
ದುಸರ
ಕುಮಾರಸವಾಮಗ
ಲಕಷದಂದ
ಯುವತಗ
ನಗಟವ
ನರದೕಶಸದ
ನರದೕಶಕನ
ಸಾಧಸರುವ
ಆಡುತತರುವ
ಎಂಎ
##ೂೕಕಲ
ಸಕಕವ
ಹರಯರಗ
ಎರಡರ
ಭೂತಾನ
ಗೂೕಹತಯ
ಫಲವನನು
ಜನರಗೂ
ನಾಗಪುರ
ಆಫಘಾನ
ಉದದಗಲ
ಒಬಬರಾದ
ಬಯಾಂಕನಂದ
ಬಗಹರ
ಸಾವರಕಕ
ಇವರಲಲಾ
ಇವರಬಬರೂ
ಮೖಸೂರನಂದ
ಒಳತಗಾಗ
ಒಳಹರವು
ಸಂತು
ಸಭಗಳಲಲ
ಸದಧಗಂಗಾ
ಸುತತೂರು
ನನಪರ
ಆಯಕಗಳನನು
ವನವಾಸ
ತಯಾರಕಗ
ಕೂಟಟಾಗ
ಸಾಗುತತದದ
ವವರಗಳಗ
ಗುಣಗಳ
ಸನೕಹತಯ
ಇನನೂೕರವ
ರಾಷಟರದಲಲ
ಒದಗಸುತತವ
##unt
ಗಾಂಧಗ
ಬದಗೂತತ
ಅಂಶವು
ಕಪಎಸಸ
ತಲುಪಸಲು
ಮುನನಾ
ಹಾಸಟ
ಪಂಚಾಯತಗಳ
ಹಚಚಾಗರುತತದ
ಎನನುತತಾನ
ನರೕಕಷಸ
ನರೕಕಷಸಲಾಗದ
ಫರೂೕಜ
ಅಪಪಣಣ
ಸಪಷಟತ
##ನಾಗದದೕನ
ಅಂಕಣದಲಲ
ಪರಸರಣ
ನನಪಗಾಗ
ಅಭನಯಸದ
ಪರಶೕಲಸಲು
##ಹೂತತು
ಶಾಂತನಗರ
224
ಹೂಡತಕಕ
ಲಾಭಗಳು
ಊಟವನನು
ವಡಯೂೕವೂಂದು
ದೕವಾಲಯಗಳನನು
ತಂಗಳುಗಳಂದ
ಬಾಲಕನನನು
ಸಂಗರಹದ
ಗುಂಪನನು
ವಂಕಯಯ
ಬರಹದಲಲ
ವಯಕತಪಡಸುವ
ಅಂದುಕೂಂಡದದ
ಗಂಭೕರವಾದ
prog
ಎನನುವುದರಲಲ
ವಶವವದಯಾಲಯಗಳು
ವಯವಹಾರಗಳು
ಖಾತಗಳಗ
ತೂೕರಣ
ಮಾನವಹಕಕು
ವಜಾಪುರ
ಬದಲಾಗುತತರುವ
ಹೂರಟವು
chann
child
##ives
ಘಟನಯೂ
ಕೖಗೂಂಡರುತತಾರ
ಮಾರಚನಲಲ
ಭನನವಾಗದ
ಪತರಕರತರಗ
ಜಮೕನ
ಬೃಂದ
ಬದರನ
ರಸತಯಲಲೕ
ಆಳದಲಲ
ಚರಮವು
ವೕಕಷಸದದಾರ
ದಲಲಾಳ
ಎಣಣಯ
ಪುರಾಣದ
ಕಲಲುಗಳನನು
ಶಬದಗಳಂದ
ದೕರಘಾವಧ
ಅಭಯಾನದಲಲ
ಇರುತತೕವ
ಶಕತಯಂದ
ಸಮಗರವಾಗ
ಹಡದರುವ
ಕಾದಂಬರಯಲಲ
ಕಾದಂಬರಕಾರ
ಶೖಲಜಾ
ಶರೕಮಂತರು
ನರವೕರದ
ಸಮಾವೕಶದ
ಹದನಾಲಕು
ಸವಾಲುಗಳು
ಜರುಗಲದ
ವಶವಕಪನಲಲ
ಗರೕಸ
ಬಳಸಕೂಳಳಬಹುದು
ಗೂತತಾಗಲಲಲ
##ಯನನರು
ಸದಧಾಂತದ
ಪಸಫಕ
ಒಂದಡಯಾದರ
ದೂರತದದು
ಗೕಮಂಗ
ಫರೕಮ
ಚತರತಂಡದ
ದಂತಕಥ
ದವಾರಕಾ
ಪರತಪಕಷದ
##ಬೕಕಾದುದು
ಆಲೂೕಚನಗಳು
ಗುಹಯ
ಮುಂದೂಡಲಾಗದ
teach
ರಸಟೂರ
science
ಅರಥಮಾಡಕೂಳಳಲು
ಗಾಂಧಯವರು
ಅಸಸಾಂನ
ವಧಾನಪರಷ
ಕಸಟಮೖಸ
ಸಂತಾನೂೕತಪತತ
ಜಾಗತೕಕರಣದ
ಶಂಕರಮ
##ucation
ಷರತತುಗಳನನು
ಉದರಕತ
ಆಗುಂಬ
ಸಂವೕದನಾ
ದುರಗಾಪರಮೕಶವರ
ಬರಟೕಷರ
ಸವಟಜರಲಂಡನ
ಅರಜುನನ
ಸವಯಂಚಾಲತವಾಗ
ಕಾರಪೂೕರೕಟ
ಸಂಯೂೕಜನಯ
ಕರಯೕಟ
ದುರದೃಷಟಕರ
ವಜಾಗೂಳಸ
ಇಂಡೂೕನೕಷಯಾದಲಲ
ಸೂಚನಯಂತ
ರಂಗಮಂದರದಲಲ
ಜಡೕಜಾ
ಉಳವಗಾಗ
ಪರಯಾಪಟಟಣ
ಮಧುಸೂದನ
against
ಯದುವೕರ
ಕುತೂಹಲದ
ಜಾತಯಾತೕತ
750
gre
jay
port
ud
ಉಂಡು
ಐವತತ
ಒ೦
ಖನನಾ
ಗಯಾಪ
ಗೂೕಷಠಯಲಲ
ಝೂೕನ
ಟಡ
ಡೕನ
ಡೂಡಲ
ತಗಳ
ಧೕಮಂತ
ಪತತನ
ಫಡನ
ಮಷ
ವವದ
ವಜು
೩೮
೭೫
##ತಮಮ
##ಯವರಗೂ
##ಲಂಬ
##ಬಾರು
##uency
##ಸಟನ
##9ರ
##ಧವನ
##ನನಧಯ
##ತತಲ
##ತತನಂದ
##ೂೕದದೕಶ
ಪರಥ
##ಾನಗಳು
ಮಾಡಲೂ
ಸಂಹತಯ
ಸಂವಾದದಲಲ
##ರಾಕ
ಕಲರವ
##ಾವಕ
ಹಾಗದ
ಕುಜ
ಕುಚ
ಹೂಳನ
ಹಚಚಳದ
##ವೕಜ
##ಂಕಯ
ಗುನು
ಗುಜರ
ಮಹತಾ
ಕೂಡುತತವ
ಬರಲದದು
ಪುಲಕ
ಸಹಬಾಳ
##rest
ಬಂದದದರ
ಮನವನನು
##ಕುಂ
ಅದನನಲಲ
ಪರತಬಂಧ
ಅನುಕರ
ಸೕರಕೂಳಳ
ಸೕರಸಬಹುದು
ಕಡದ
ಕೖಗೂ
ತರಲಾಯತು
ಅಂತರಾ
ಹಂದಯಷಟೕ
ಬೕನಾಮ
ಆಯಸಡ
ನಡಯುವಂತ
ಮೖಮರ
ಕಷತರ
ದೂರವರುವ
ರೂಪಸಬೕಕು
ನಟರಾದ
ದೂಣಣ
ವಯಕತವಾಯತು
ಬೕರಬಹುದು
ಹರದನ
ಆರಂಭವಾಗತತು
ಬಹುರಾಷಟರೕಯ
##ೖನರ
ಪತರಕಗ
ಸೕತು
ನಡಸದರೂ
ಪಟಟಯ
ತೕರಗಡ
ನಾಗಪಪ
ಕಾಯಂ
ಮಂದಹಾಸ
ಕಯಾಸಟ
ಇತರರನನು
ಬಡುಗಡಯಾಗುವ
ನಾಲವರನನು
ಸುತತಗ
ಅಲಂಕೃತ
ನರಮಾಣವಾಗತತು
ಬಂಧುಗಳು
ಬಂಧನದಲಲ
ಹಡದರ
ಬಾಧಕ
ಗಡಬಡ
ಬಯಸುತತದ
ಅಮೃತಾ
ಚಾಲಕರಗ
ಪರಶನಸದಾಗ
##ಸುತತದದಾಗ
ಮಾರಾಟಗಾರರು
ಸಹಾಯವಾಗುತತದ
ತಮನನಾ
ಹಂಚಕಯ
ನಾನಂತೂ
ಹಚಚಾಗುವ
ತೂೕರಸಕೂಟಟ
ಎನನುತತದದರು
ಫರೖ
ಹಾಡದರು
ಪರಾರಂಭಸಲಾಯತು
ಮಾಡದದೕರ
ಉಂಟಾಗತತು
ಅಂಕಪಟಟ
ಸೃಷಟಸದದಾರ
218
ಬೕಡುವ
ಪರಶೕಲಸದಾಗ
ಚಲನಯ
ಕಾನೂನುಗಳು
ಇಲಾಖಯವರು
##raph
ವಯಾಪಾರಗಳ
ಒಮಮಗ
240
ಜಾತಗಳ
ಗರವಸುವ
ಪುಟಟಸವಾಮ
##ಯೂಬಬಳ
ಭಾರತದಲಲೂ
ಅಕಕನ
ಶರೕರಡಡ
ನಮಷಕಕ
ಸಂಭರಮಕಕ
ದೃಶಯದಲಲ
ಹೂೕದಳು
ಫಲತಾಂಶಗಳನನು
ಶರಮದ
ಅಂದುಕೂಳಳ
ಖರಚನ
ಹಾನಯನನು
ant
ವೕದಕಯನನು
ಇಳಸುವ
ಬದಲಾಗುವ
ನಮಮಲಲರಗೂ
ಅಜಾತ
ಸೂಚನಗಳು
ಬಂಗಳೂರನಲಲರುವ
ಪರಯೂೕಗಕಕ
ಟೖರ
ಭನನವಾದ
ದಂಡೕ
ಹಗಲಗ
ಶರಣಾಗದದಾರ
ಕುಳತದದಾರ
ಸಹೂೕದರನ
ಬರಟನನ
ಏಪರಲನಲಲ
ಕೂಡುಗಯಾಗ
ಜಗತತೕ
ಭಾಷಣವನನು
ಜೂೕತು
ಉಲಲೕಖಸದದಾರ
ವವಾಹವಾಗ
ಮಂಚದದಾರ
ಹಕಕನ
ತಕಕಾಟ
ಕೕಳದಳು
ಹತೖ
ಮಂದರಕಕ
ಅನವಯವಾಗುತತದ
ದಕಕನನು
ಶೕರಗಾರ
ಜಗಳೂರು
ಮುಂದಾಗದದರು
ಬೕದಗಳ
ನರವಹಣಗಾಗ
ಮಾಲೕಕನ
##t10
ಅವಲಂಬಸದ
ಸಳದು
ಇಸಲಾಮ
ಒಕಕೂಟವು
ಮಣಣನಂದ
೨೦೦೯
ಹೂರಡಸರುವ
ಹುಟಟುಹಬಬಕಕ
ಕನನಡಗರನನು
ಚಲಾಯಸಲು
ಇಷಟಪಡುತತಾರ
ಬಯುಸಯಾಗದದಾರ
ರೂಮಯಾಂಟಕ
ಜಯೂನಯರ
ಪರಕಲಪನಯನನು
##ashm
ತರಹೕವಾರ
ಯಜಮಾನರು
ಒಬಬರನನೂ
ಹುಲಲುಗ
ಕೖಜೂೕಡಸ
add
ಜಂಬೂ
ಸುಸತಾಗ
ಕಮಯುನಕ
ರಾಜಯಸಭಯಲಲ
ಜಂಕಷ
ಖಚತಪಡಸಕೂಳಳ
ಆಧುನೕ
ಗಾಜು
ಮಹತವಾಕಾಂಕಷಯ
ಪುನರಾವರ
ಅವಶೕಷಗಳು
ಉತತರಾಖಂಡದ
ನತತರು
ವರೂಪಾಕಷ
ತನಖಯಂದ
ಆಸಟರೕಲಯನ
ಇಲಕಟರಾನಕ
special
ಅನುಸರಸದ
ಗರಬದನೂರು
ದತತಾತರೕಯ
ಕರಕುಶಲ
ಸರವತೂೕಮುಖ
ಮಯಾಜಸಟರೕಟ
international
ಒಂದಾನೂಂದು
3ರ
7ರ
dom
er
patt
ಅಂಜನ
ಅಂಜಲ
ಆಕೃತ
ಐಬ
ಓಪ
ಕೕತ
ಜಂದ
ಜಂಗ
ಥಾಯ
ಥರಾ
ದನಯ
ನಶಯ
ಬಇ
ಮಮತ
ರೂೕಣ
ವಚಲ
೩೯
##ಕಯರ
##ಮತಯ
##ಶಯಾ
##ಹರಾ
##ಹಾಲು
##ಹೂೕಮ
##ೖದರು
##ಧಾ
##೧೦
##va
##ಾರಮ
##ುವಾನ
##ುತತರುತತವ
ಮಾಡಕೂಟಟದ
##ಕಷಾ
ಸಂಖ
##ಕರಾಗದದಾರ
ಸಾಂಗಲ
ಕಾರನಂದ
##ರೕಜ
##ಾವೂೕ
ಸಮೕಕರಣ
##ಾಸಫ
ಸುಸತು
ಸುಸೂತರ
##ಯಾಗಲವ
##ಯಾಗದದೕನ
ಕುಣದ
ಹೂಗಳನನು
ಜನೖ
ಜನಮಾನ
ಮಹೕಶವರ
ಇದಯಾವು
ಕೂಡಲಾಗುತತದ
ಕೂಡುತತಲಲ
ಬರದದದರ
ಪುನಸ
ಪುಳಕ
ಅರದು
ಸಹವರತ
##ಟರೂ
ಮುಂದಟಟು
ನನನನನೕ
##ಯೕಷನ
ತುಳದು
ಪೂಟಟಣ
ಕಡಬ
ಬಲವನನು
ವೖಡ
ವೖಮನಸ
ಕಲಸಕಕಾಗ
ಎಸಐ
ಗರಕ
ಹಾಕುತತಾ
##ಯುದಯ
##ಗಾರರಾಗ
ಕಾಣಲದ
ದೂರಯದ
ಗೂಡನ
ಸದಾಕಾಲ
ಸಂಬಂಧಸದದು
ಆಸಲಲ
ಸಪಷ
ಸಟನಲಲ
ಕರನಾಟಕದಂದ
ಕಂಡದದೕನ
ನಾವುಗಳು
ಬಡಲಾಗದ
ರೕಡಯೂ
ಬಸಪಪ
ಅತವಾ
ದೂಡಡವರ
10ಕಕ
ವೕಸ
ವಾರನ
##ಗೂಳಸಲಾಯತು
ಯಾರದೂೕ
ಸಮಸಯಗಳಂದ
ಗುರುದೕವ
ಸಂದರಭದ
ಇರಬೕಕಂದು
ವಯವಸಥಗಳನನು
ವಯವಸಥಯಂದ
ಇದದೂ
ಸದದತ
ಸಾಮಾನಯವಾದ
ಜಾಗಗಳಲಲ
ಒಳಕಕ
ಒಳಗೂಳಳುವ
ಸದಧತಗಳು
ಅನನೂೕದನನ
ಕವತಯ
ವಾಂಟ
ಪಾಷ
ಬಯಲಗ
ಅಂತರಂಗದ
ತಲಾಕ
ನಮೂೕ
ಕನಫ
144
ಪರಗತಯನನು
ಜಾಲಯಾರ
ಪರವೕಶಸದದಾರ
ಕಾನೂನನಲಲ
ಕಪಾಳ
165
ಅರಜಯಲಲ
ನಾನೕಗ
ಯೂೕಗೕಶವರ
ಮಾದರಗಳು
ಶಾಂಪ
ಮರುಬಳಕ
ಸಾಧಯತಗಳ
##ೂೕಹಾಲ
ಅಭನಯಸ
ನರಧಾರದ
ಜತಗೕ
ಬೕಡವಂದು
ಕಾನೂನುಗಳನನು
ಹೕರೂ
ನಾಟಕಗಳಲಲ
##ಪದವು
ಬೖಕಗ
ಪಕಕದಲಲದದ
ಹುದದಯಂದ
ಗುರುತಸಕೂಂಡದದ
ಶರೕರದಲಲ
ಎಡಪಕಷ
today
ಬೖಗುಳ
prot
ಸಬಎಸಇ
ತೕರಮಾನವನನು
##oods
ಜುಕರ
ಪಶಚಮಘಟಟ
500ಕಕೂ
ಪುಟವನನು
ಇನಸುಲನ
ದಂಡಯ
##ಜೕವನದ
ಕಾಣಸಕೂಂಡದದ
ಕುಳತುಕೂಳಳುವ
ಪರತನಧಸುತತದ
ಅನಾಮ
ವಾಪಾಸು
ರಡಡಗ
##ಬಾಮಾ
ಬಹರಂಗಪಡಸದದಾರ
ಅಂಥವರು
ಆಹವಾನಸ
ಅಕಷರಗಳ
ಹರಸಲು
ಶುಭರ
ಪಠಸ
ತಂತರಾಂಶದಲಲ
ತಂತರಾಂಶಗಳನನು
ಪೕಟಂಟ
ಪರಕೃತಯಲಲ
ಕಲಲುಗಳು
she
ಪರತಭಟನಯನನು
ಬಲಲಾಳ
ಪರಜಗಳ
ಸಂಕಷಟದಲಲ
##imes
ಕುಡತ
ಗೂಂದಲಗಳು
ವಂಚತರಾಗ
ಪಾಂಡತಯ
ಮುದರಸ
ಅಡಗರು
ದಾವಣಗರಯಲಲ
ಕಲಾವದರಾದ
##ಗಳಂತಯೕ
ಮಚಚುಗಯ
ವಲಸಗರ
##t13
ಸಂದರಶನವೂಂದರಲಲ
ದುಃಖದ
ಭೕಮಸ
ಉತಪಾದನಯಲಲ
ಮುನಸಪಲ
ಅಖಲೕಶ
ಜಾಹೕರಾತುಗಳನನು
ಇವರಲಲರ
ಪರಾಕೃತ
ಸುಳಯಲಲ
ಇನನೂಂದಷಟು
ಸಾಂಗತಯ
ಬರತೕನ
ಪರಢಶಾಲಯಲಲ
ಬಯಾಪಟಸಮನ
ಹೂೕಗುತತದದಾಗ
ವಂಶದ
ಫಲಕಗಳನನು
ವುದು
ಉರುಳದ
##anka
ವೂಡಾಫೂೕನ
##ಬಾಬಾ
ನರಣಯದ
ವಶವವದಯಾನಲಯದಲಲ
ಸರವಾಂಗ
ವದಯುದ
ಪಾರದರಶಕತ
ನಯೂಜಲಯಾಂಡ
ಸಟೕಡಯ
ಸಲಕರಣಗಳನನು
ಮಹಳಳಂ
##ಗರೕಡ
ಕಯಾಮರಾಗಳನನು
ನರಗಮನ
ತರಬೕತಯ
ತರಬೕತಯನನು
ಎತತನಹೂಳ
ಕೂನಯುಸರಳದದದಾರ
engine
ಗಾಣಗ
ಕೂೕಸಟಲ
ಅಖಾಡಕಕ
ನವಲಗುಂದ
ಸವಾತಂತರಯೂೕತಸವ
shah
ಅಸಮತೂೕಲನ
ಚಾಂಪಯನಷಪನಲಲ
ಉಪಮೕಯರ
ಸಂಧರಭದಲಲ
ದುರಯೂೕಧ
ಗುವಾಹ
vishw
bbmp
ಹಾಂಕಾಂಗ
ಪುನರುಜಜೕವನ
ಡಮಾಕರಟಕ
ಸಮಜಾಯಷ
ಪವಲಯನ
ರಾಥೂೕಡ
ಸಯಾಟಲೖಟ
lang
ಅತತು
ಅಗರಗ
ಅಚಲ
ಇಡು
ಇದಯಂತ
ಏರುತತರುವ
ಖಳ
ಗೂೕಗ
ಜಂಗಲ
ಝಳ
ಟಮ
ಟೖಲರ
ಪಾಸತ
ಭೂೕರ
ಮಳಳ
ಮಶನ
ರದದಾಗ
ಲೕಸ
ಸಲಾಡ
ಹಕಕೂ
೬೫
##ಗಡದ
##ಕಲಲ
##ಮರು
##ಮಾಲಯ
##ಪಯಾಟ
##ಜಗಳ
##eg
##yt
##ಟಾರ
##ಝಾ
##ಾಗಾರ
##ಾಗಸುವ
##ತತಂದು
##ಗಳವು
##ುವಕಯ
##ುತತರುವುದಾಗ
ಮಾಡಯೂಲ
##ವಾಣಗ
##ಮಮಮ
##ೕಕಾಯ
ರಾಮಾನು
ಕಲಬನ
ಕಾರಲ
##ಾಸಾಹೕಬ
ಸುಪಾರ
ಕರದಾಗ
ಕರಕಟಟ
ಅವರಂತ
ನೕಡುತತರುವುದು
##ಕೂಂಡದದರ
ನರತನ
ರಾಜಗೂೕಪಾಲ
ಗುಸು
ಮೕಲದದು
20ರಷಟು
ಮಹದೕಶವರ
##ret
ಬಂದದದರೂ
ತಮಮನ
ಅನುಕೂ
ಸೕರಸದರು
ತರವೕಣ
ಮತತದೕ
ಉತತಪಪ
ಆಯದು
ನಲಲಯೕ
ಮೕಸಲಾದ
ಕೕಂದರತ
ಹೂಂದುತತದ
##ಜಯಂದ
##ಸಲೕಲ
##ಯರಾಗ
ದೕವಯನನು
ಭಾಗಯಾಗದದ
ಸಪೂನ
ಸಟೕರ
ಮೂೕಹಕ
ಹರದಾಸ
##ುತತರುವವರು
ಆರಂಭಸದದ
ಬಹುಷಃ
ಪತರೕಜ
ಚನನರಾಯ
ವೕಸಟ
ಕಳದರು
ಅಸಂಬಲ
ಸೕವನಯ
##ಗೂಳಳುವಂತ
ಜೕವನೂೕಪಾಯ
ನರದೕಶಸ
##ಗೂಳಸಲಾಗುವುದು
ಆಡುತತದದ
ತೕರಸಲು
ಮಂಡಸಲು
2002ರಲಲ
ಅಗತಯವನನು
ಹಸರಾಗದ
113
ರಾತರೂೕರಾತರ
##ತವಾಗದದು
##ಮೕಧ
ಗಲವು
ಮಲಾನ
ವಧಸಲಾಗುತತದ
ಪರಯಾಣಸುವ
ಪೂಜಸುವ
ಬಳಯುತತವ
ಹಂಚಕೂಂಡು
ಹುಡುಕಾ
##ಯಾಕೂೕ
##ೕಗಡರ
ಹುಟಟೂರು
ನರಧಾರದಂದ
##ಆರಎಫ
ಅಭಪರಾಯಗಳು
ರವಶಾಸತರ
ಪತತಯಾಗತತು
ಸಮುದಾಯಗಳು
ಸೂೕಮವಾರದ
ನಾಟಕವಾಡ
##ಭೂಮಗ
ತಗದುಕೂಳಳಲಾಗದ
ಯಶಸವಯಾಯತು
ಕೕಂದ
ದೖವದ
ಮುಂತಾದವರ
ಭಾರತದಲಲನ
ಕಷಣಾರಧದಲಲ
ದೕಶದಲಲಯೕ
ಬಾಲವುಡನಲಲ
ಬರಹಗಾರರು
ಶರಮಸದ
ಕಂಗೕರ
##ಶೕಲತ
che
ಬುದಧಮತತ
ಅತಯುತತಮವಾಗ
1998ರಲಲ
ಕುಳತುಕೂಳಳಲು
ಮಾತಾಡದ
ಗಂಡನಗ
ಮೂಡಸುವುದು
ವೕಕಷಸದ
ನವಾರಕ
ಬದಧರಾಗ
ಹಕಕಯ
ವದಯಾಭಯಾಸದ
ಕೂೕಲಕತ
ನರಸರ
##ವೖವಧಯ
ಕರಣಗಳು
ಪೕಠವು
ಫೖನಾನಸ
ಸಭಾಧಯಕಷ
ಮಗುಚ
ಅವಲೂೕಕನ
ಅಂಚು
ಇಂಗತ
ಆರಸಬ
ಹಡದಟಟು
ಮುದರತ
ಹಗಗು
ವಫಲರಾಗದದಾರ
ಕವನದ
ಶಚಾಲಯದ
ಊರನಂದ
ದರಜನಯದ
ಪವತರವಾದ
ಪರಾರಯಾಗದದ
ಎಳನೕರು
ಹುಲಗಳು
ಕರಕಟನ
ತತವಗಳನನು
ತತವವನನು
ಕೖಗಾರಕಗಳಗ
ನಮೂನಯ
ಅಪಲಕೕಶನಗಳನನು
ತರವುಗೂಳಸಲು
ಲಕಕಾಚಾರದಲಲ
ಚೖನೕಸ
ನರಸಂಹಮ
ಎದುರಾದಾಗ
ರಜನೕಶ
ಆರಂಭವಾಗಲದದು
ಧಕಕಾರ
ಆಂಟನ
ಸಟಟಂಗಸ
ಕನಕದಾಸ
ಕಟಕಯ
ಹೂೕರಾಡಲು
ಪವನಜ
ಹೂರತಾಗಲಲ
ವಳಾಸಕಕ
ಆತಮೕಯವಾಗ
##ುವಾದದ
ಅಲಂಕರಸ
ಖರೕದಗಾಗ
ಇನಸಟಾಗರಾಂ
ಕಂಠೕರವ
ಉರುಳಸ
movies
ತಂದರೂ
ಡಯಾಂ
ಜಾಯಮಾನ
ಅಸಲಗ
##oft
ಸವಲತತುಗಳನನು
ಕರೂವೕ
ತೂಳದುಕೂಳಳ
ಚಕಟಟನಲಲ
ರೕಣುಕಾಚಾರಯ
ಕತರೕನಾ
recruitment
ಹೕರಳವಾಗ
ಗಾಂಧನಗರದಲಲ
ರಾಷಟರಮಟಟದಲಲ
ಕಣಗಾಲ
ಕರತರಲು
ಏಕಾಗರತ
ನರಧಷಟ
ನಲಕಚಚ
ಶತಾಯಗತಾಯ
ವಯಾವಹಾರಕ
ಮಾನನಷಟ
ಡಹರಾಡೂನ
ಥಯಾಂಕಸ
ಏಕಾದಶ
youtube
bet
bab
city
dem
live
mla
pict
sah
title
vol
ಇಂ
ಎಲಸ
ಐಜಪ
ಕವು
ಖಚ
ಚೂೕಳ
ಚಹರ
ಥಳಸದ
ದಕ
ಪಗಗ
ಬಾಗದ
ಬತತರ
ಬಲಲು
ಬಪಾ
ಯಮನ
ರಫಲ
ವಂತ
ಶವರು
೩೪
##ತರುವ
##ತನಾ
##ಜೕತ
##ಸಾಹ
##ಟೂೕ
##rit
##ಧೕಶ
##85
##೦ರಲಲ
##ft
##ತತೕನೂೕ
##ುವೂ
##ಂತವಾಗ
##ದರಾ
##ಯಾಬ
##ವಾಕಯ
##ೂರೂ
ಮುಜಾ
##ರಾಕಸ
##ಷಟನನು
ರಾಸಲೕಲ
ಕಾರನರ
ಬಳದದದ
ಬಳಸುತತದದರು
ಕುಂದರ
ಹೂಲದ
##ಗರಲ
##ಗರಯಲಲ
##ಲೕಯ
ರಾಜರು
##ವೕಕರ
ಜನಮನ
ಜನತಯನನು
ಚತರಕ
ಇದನನೂ
##ಾವುದೕ
ಬರದುಕೂಂಡ
ಕಾರಯೂೕನಮುಖ
ವರಷದಂತ
ಅದವತೕಯ
ಕಾಲುಗಳ
ತುಕಾರ
ನೂೕಡುತತದದಾರ
ನೂೕಡುತತಲೕ
##ುರೂೕ
ಕನನಡಕ
ಹೂೕಗದದವು
ಹೂೕಗುವುದನನು
ಹೂರಗು
ಸೂಪರಸ
##ದರೂಪ
ಆಯದುಕೂಳಳ
ನಲಲಸಬೕಕು
ಶರೕವಾ
ತನನಬೕಕು
ಮಾತೂ
ನಡಯುವಾಗ
ಸನಮಾರ
##ಹಸವಾಮ
##ars
ಕೕಳಕೂಂಡು
ಕೕಳುತತದದ
ಪೂಲೕಸರೕ
ಆಸಕತರ
ಭಾಗಯಾಗದದರು
ಸಪತಪದ
ಸಟೖ
ಸಟಕಕರ
##ಯಯನವರು
ನಟರಾಜನ
ಕಟಟುವುದು
ಕಟಟಲಾಗದ
ಬಡುವಂತ
ವಚಾರದಲಲೂ
##iness
ರೕಡ
##ಣಯಂತ
##eri
##ಶಯಂ
ಸಾಲಗಳು
ಗಳೂ
##ಯಾರೂ
ವಶವಕರಮ
ಸಾರದ
ಸಂಘದಂದ
##ಗೂಳಳಲರುವ
##ಸುದದ
ವವಪಯಾಟ
ಶವಪರಸಾದ
##ತಪುರ
##ಾಬಾಯ
ಬಹದದೂರ
ಸಕಕರೂ
ಬಟಟದದರು
ತಳಸರುವ
ಕೂೕಲು
ಮಾತುಗಳಂದ
ಬಯಾಂಕಗಳಗ
126
ಯಶೂೕಧ
ಸಮಾಜಸೕವ
116
ತರಗತಗಳು
ಏನಂತ
ಇಂದೕ
ಬರುತತದದವು
ವಾಂಗ
ಪರಕಟಸಲು
ತಂಗಳವರಗ
ಮಲಂದ
ಕಣೂೕ
ಬಳಳಂದೂರು
ಕಣಣನಲಲ
ಎಚಚತತ
##ಪಾಲನ
ಓದಬೕಕು
ಅಪಪಾಜ
ಸಂದಗಧ
these
ಅಂಕಗಳು
ಗುರತಸ
ಉದಯೂೕಗಕಕ
ಬಂಡಗಳ
ಓಡಹೂೕಗ
ಬದದವ
ದೂರುಗಳನನು
ಹಳಳಯಂದ
ಸಂಭವಸಲಲ
ವಲಯಂ
ಏರಕಯಾಗದದು
ಶಾಂತಾ
ಉಳದರ
ಕಾಡುತತರುವ
ಹೂತತಲಲ
220
ಪರಚಯಸಲು
##ನಂತಯೕ
ಉದಾಹರಣಗಳವ
ದೕಶದಲಲನ
ಘೂೕಷತ
ಘೂೕಷಸದದರು
ಬೖಕು
ಸರಯಾಗಯೕ
ಕರೕಡಾಂಗಣದ
ನೂರಂಟು
ಮಳಗಗಳಲಲ
ಮಾಡುತತದದೕರ
ನರಮಸಲಾಗರುವ
##ವೂೕರಸ
ಅಪಾಯವದ
##ument
ಎಷಟರಮಟಟಗ
##ಪಪನಹಳಳ
ಭಯಭ
ಹೂರಟದ
ಇಂಟಲಜ
##iver
ಚಾರಲ
ಪುರಸಕರ
ಶತಮಾನೂೕತಸವ
ಕರಸಕೂಳಳುವ
ಗರಭಣಯರು
ಲಂಕಾ
ನರದೕಶನದಂತ
ಅಬೂಬ
ಸಹಾಯಕರು
ಸಂಕಷಟದ
ಪಾಠಗಳನನು
ಪಾಠವನನು
ಕತಂ
ನವಾರಸುವ
ಅಲಪಸವಲಪ
ಅಕಟೂೕಬರನಲಲ
ಸಳಯುತತವ
ಸಭಾಭವನದಲಲ
ಚಂತನಗಳು
shar
ಪರದರಶಸಲು
ರುಚಯಾದ
ಬೕದಗಳದು
death
ಪಾಂಡವರು
ವಾಜಪೕಯಯವರ
ಫೂೕಕಸ
ಹೂರಡಲು
ಸೂೕಲನನು
ಹದನಾರು
ಎಳದುಕೂಂಡು
ಕಳದುಹೂೕಗ
##ನಾಶೕರವಾದ
ಅಫಜ
ಜಾತರಗ
ಬಡಸಲು
ಚೖತರ
ಯೂೕಧರನನು
ಆರಂಭವಾಗಲರುವ
ಜಲಾಶಯದಲಲ
ಹಮಾಲಯದ
ಸೕಟುಗಳನನು
ಜನನಬಡ
ನವರಸ
ಸಟರಚ
ಫಲಪಸ
ಬಯಾಟಸಮನಗಳು
ಚಡಚಣ
ಖರಚನಲಲ
ಜೂತಯಲಲೕ
ಪರಾಧಯಾಪಕರು
ತವರತಗ
ಚರತರಯ
ಹಾಕಕೂಂಡದದಾರ
ಪರತಯಕಷವಾಗ
ಒರಲೕನಸ
ಗುಬಬಚಚ
ನೂಂದಾಯ
ಆಶಾಭಾವ
ಆರಾಮಾಗ
ಮೂರೂವರ
ಸಡಸದದಾರ
ಬುಡದಲಲ
ಮುಂತಾದವುಗಳನನು
ಸಡಗರದಂದ
ಸಹೂೕದಯೂೕಗಗಳು
ಕುಸದದದು
ಸಟೕಫನ
ವೕಲಸ
ಭತಶಾಸತರ
ಸವಾಮೕಜಯವರ
ಪಂಟೂ
ಕುತತು
ಅಲಲಗಳಯ
ಕನಯಾಕುಮಾರ
ಪರಢಶಕಷಣ
ರೂೕಹಂಗಯಾ
ಹಾತೂರಯ
##ವಯೂಹ
ಜೂೕಪಾನ
ಔತಣಕೂಟ
ನಪುಣ
##ಬೕಕಷಟ
ಗೂಗಲನ
ಶಾಮೕಲಾಗ
ಪೂವಮಮ
ಜೕಷಠತಾ
ವರಣರಂಜತ
ತರಾತುರಯಲಲ
ಅತಶಯೂೕ
ಹನೕಫ
ಗರವಾನವತ
constituency
4g
hind
la
pat
zo
ಅದಲಲದ
ಆಮಗ
ಇನಾ
ಇಶಾಂತ
ಉಜರ
ಊಬರ
ಎಎಫ
ಐಎಸಐ
ಒದ
ಗಸಟ
ಡೕವ
ಡಯೂಟ
ತೕಪ
ಥೖರ
ದದಾರ
ನಯಾಪ
ಪಾಸು
ಫಂಗ
ಬಪಪ
ಭಾಜ
ಭಾಲಕ
ರಂಪ
ಲಾಸಟ
ವಮುಖ
ವಂಬಲ
ವಾಮನ
ಸಎನ
ಹಾಪಕ
೦೦
##ಗಭ
##ಾಳಗ
##ಕಲಪ
##ues
##ಸಂಪರಕ
##23
ಪರೕಶ
ಮಾಚ
##ವರಲಲಾ
ಮಾಡರುವುದನನು
##ವಾಶ
ಮುಷಟ
ಮುಕಯ
ನೕತಯಲಲ
##ನಾದಲಲ
ಸಾನನಧಯ
ಕೂಕ
##ಾವಸತು
ಸುಮಾ
ಸುಡುವ
ಸುಗರೕ
ಕರಾರು
ಅವರಲಲಾ
ಹೂಲಸ
ಕಾಳದ
##ಪರಕಾರ
##ನಸುವ
ಹೕಳುವುದೕ
ಆರೂೕಹಣ
ಆಗನನೂ
ಆಗತದ
ಎಂಬಎ
ಮಹಾಗಣ
ಕೂಡುತತಾ
ಬರಲಾಗದ
##ಂಧಾನ
ಹುಲಗ
ಹುಕಕೕರ
##ಸರನ
##ane
ಅನುಗುಣ
ತರಪುರ
ಅಂತಸತನ
ಎರಟಗ
ಕಾರಣವಾಗರುವ
ವೖಪರೕ
ಹಾಕದಾಗ
ಹೂಸತು
ಕೕಳಕೂಳಳ
ಕೕಳದದಕಕ
ತೂಂಬ
##atur
ಸಥಳವು
ಗರಾಮಗಳು
ದುಸತರ
ವಚಾರಗಳಗ
ಕಂಪಲೕಟ
ಸಂದರಯವರ
ಹರಕಾರ
ಆರಂಭಸದದರು
ಬಹುಮ
ನಡಸವ
##ೂೕಲೂೕ
ಪರಕರಣಗಳಗ
ಪಟಟಯಂದ
##ದನೂೕ
ಸಾಧಸುವುದು
ಸಾಧಸಬಹುದು
ಯಾರಯಾರ
ಗುರುಪರಸಾದ
##ಕವಾಗದದು
ಒಬಬಳೕ
ಮನಸತಾಪ
ಅಗತಯವೂ
##ಾಯತಂದು
ಇವರೂಂದಗ
ಸದಧತಗಳನನು
ಶಕಷಣಕಕಾಗ
ಮುಗಸದರು
ಮುಗಬದದ
ಅಲೂೕಕ
ನರಮಾಣವಾದ
ಬಂಧಸಲಾಗತತು
ಕವಜ
##ುಲರ
ಹಂತಕರ
ಗಲುವನನು
ಬಣಣಗಳಲಲ
ಲೂೕಹತ
ಮಾರಗಗಳು
ರಾಷಟರಧವಜ
ನಲವನನು
ಮಾಡಕೂಳಳುತತದ
ಒದಗಸಲಾಗುತತದ
ಮೂಡುವುದು
ಒಳಗಾಗದದಾರ
ಸತಯಕಕ
ಕೂರತಯಲಲ
ಪರವೕಶಸದರು
ಬಳಯುತತಾ
ಎನನುತತದದ
ಕೖಗೂಳಳಲದ
ಫರಜ
ಫರಡ
ಶಕತಗೂಳಸುತತದ
ಸಪಷಟವಾಗದ
ಆಲೂರು
ಕಾವಯಾ
ಮರುಳ
ಸನೕಹದ
ನನಪಸುವ
ಓಡಸುವ
ಯಡಯೂರಪಪನವರು
ಪತತಯಾಗಲಲ
ತಡಯಾ
##eth
ಒಮಮತದ
ಗದದತತು
ಬೖಕಗಳ
2368
ಸಮೕಪವರುವ
ಶುಕರವಾರದಂದು
ಶನವಾರಸಂತ
ಸಂಸಕೃತಗಳ
ಇಟಟುಕೂಂಡದದ
ಅಪರಚತರ
ಬರಹಗಳ
##ದೕವತ
ನಾಡೂೕಜ
ಮಾಡುತತದದಾಗ
ಖುಷಯನನು
ಒತತಡದಲಲ
ಮಧವರಾಜ
ವಶವವದಯಾಲಯಗಳ
ವಶವವದಯಾಲಯಗಳಲಲ
ನಷೕಧಕಕ
ಖಾತಗಳ
ಬಾಕಸರ
ತೂೕರದದಾರ
ಇಳದದದಾರ
ದೂರಯುವಂತ
ಅಜಂಡಾ
ಟೕಕವಾಂಡ
ಸರವನಾಶ
ಗುಂಡಟಟು
ರಮೕಶಕುಮಾರ
ಪುಟಗಳಲಲ
cons
##ists
ಕಂಪನಯಂದ
ಜಾಲತಾಣಗಳನನು
ವಾಲಬಾಲ
ಪರಯೂೕಜನಗಳನನು
ಐಪಯಾಡ
ತಾಲೂಕುಗಳಲಲ
##avy
ಚೕಂಜ
ವಾರಷಕೂೕತಸವದ
ಆಗಮಸದದಾರ
ಆಕಸಸ
ಆಕಸಫರಡ
##ಶರೕಷಠ
ಬರುಸು
ಶಬರವನನು
ಕಾದಂಬರಗಳು
ಧೖರಯವಾಗ
ನಲಸನ
ಪರಸಾರವಾಗ
ಕೂಲಲುವ
ನಧನದಂದ
ಸಂದರಶನದ
ಪುಣಯಕಷೕತರ
php
ನಾಗರಕತಯ
ಮುನಸು
ಆಕಷೕಪಣ
ಪರಾಕಾ
ವೖಶಷಟಯತ
ಕುಡಯುವುದು
ರಾಮಚಂದರನ
ಆಶೕರವಚನ
ವೕಷಧಾರ
ನಾಪತತಯಾದ
ಆಭರಣಗಳು
ಶಷಯರು
ಸಮರಣೕಯ
ಟವಟಟರನಲಲ
ಪರವರತಸಲು
ಮಥು
ಧವಜವನನು
ಕಾಸರಗೂೕಡನ
ಸಇಟ
ಸೕಲಸ
team
ಸರಹದದನ
ಮುನರಾಜು
ಹೂರಹಾಕದದಾರ
ಹಣಣುಮಕಕಳಗ
ಭಕಷು
ನರಾಸಕತ
ಕೂೕಮುಗಲ
ತನಸುಗಳನನು
ತಲಲೕನ
ಕೃಪಗ
ಡಸಕಂಟ
ತಳದರಲಲಲ
ಅಂಗವಕಲರ
ನಲವತತ
devu
ಶವಾಜನಗರ
ಬಂದೂದಗ
ಕರುತರಯಲಲ
ಸಂಸಕರಣಾ
ಪರೂೕಗರಾಂ
ಉದುರುವ
ತಮಳನಲಲ
ಕಯಾಲಫೂೕರನಯಾದ
ಪುಟಟಣಣಯಯ
##ಐಸಐ
ಆಧುನಕತಯ
ಪಡಡಾಯ
ಗುತತೕದಾರ
ಜಕಾರತಾ
ಬೂಮಮಾಯ
ಆಯುಷಮಾನ
ಬರಳಣಕಯಷಟು
attack
ತುರುಕ
ತನನೂಳಗ
ಯಾದೃಚಛಕ
ಹಸತಮೖಥುನ
ಇಸಮಾಯಲ
fifa
ರಸಟೂರಂಟ
ಒಬಬರನನೂಬಬರು
pattar
ಶವರುದರ
des
fre
val
ಅಜರ
ಅಲಕಸ
ಆದಂತ
ಇದಯ
ಎ೦
ಕವದ
ಕಂಕಣ
ಚಂಗ
ಚಳಯ
ಚಾಳ
ಚೂಟ
ಜಂಗಮ
ಟೖಲ
ಡಯ
ನೖಲ
ನೂಟ
ಫೕಡ
ಬಕನ
ಮಂಗಲ
ಮನನೂಂದ
ವದು
ವಾದರ
ವಖಯಾತ
ಸೂರು
ಸಲದ
ಹಯಾಲ
##ತಾಲ
##ತಜಞ
##ವಾಯು
##ಾದದರಂದ
##ಕಂ
##ಮೕರದ
##ಯದಂದ
##ಬಡಸ
##t0
##ಸಧ
##ಸನನ
##ಓಎಸ
##ಇಇ
##ಾಗರುವುದು
##ೂೕನನತ
##ಂಡಯ
##ವರೂೕಧ
##ವಾಗುವಂತಹ
ಮುಫತ
ಮೂವರೂ
##ರಸೕಪುರ
ಕಲತರ
ಕಾರಕ
ಸಮಾಗ
ಕುಷಟಗ
ಅವರತ
ನೕಡುವುದನನು
ವರದಾನ
ಆರೂೕ
ಆರಜಡ
ಆಗುತತಾ
ಹಚಚತತು
##ಸಥತಯನನು
ಒಂದುಗೂಡ
ಮಹಂದ
ಚತರವದು
##ಕಾಳ
ಕೂಡುತತೕವ
ವಶವಾಸದಂದ
##ನೕನ
ಪುಂಜ
ಅರವಳಕ
ಕಾರಯಗಾರ
##ೕನದದರೂ
##ಚಾರಯರು
##ಸಯೂೕ
ಸವೕಕೃತ
ಅನುಚತವಾಗ
ನೂೕಡದದಾರ
ನೂೕಡಲೕ
ನೂೕಡತಾ
ಅನೕಶ
ಹೕಗರುತತ
ಕೖಬಟಟು
ಕೖತುಂಬ
##ಾನುಕೂಲ
ಹೂೕಗದಂತ
ಮತತದರ
##ಸಟೖಲ
ಎಂದಂದಗೂ
ಪರಶೂೕಧ
ದೕಶಗಳಂದ
##ದಂತಾಗುತತದ
ಮಾರದ
ಗರಮಮ
ಅಧಕಾರಯಾಗ
ಅಧಕಾರದಲಲರುವ
ಅಧಕಾರಗಳೕ
ಪಕಷಾಂತರ
ಹೂಸನಗರ
ಹೂಂದುವುದು
##ಜಯೂೕತ
ತೂಡಯ
ಸೂೕಜಗ
ಸೂೕಫಾ
ಸಂಬಂಧವೕ
ಸಪಾಯ
ಅಧಯಕಷರೂ
ಮಾತನಾಡದದ
ಸಟೕನ
ಸಟೂೕನ
ಕಷೕತರಗಳಲಲೂ
ಕಟಟಚಚರ
ಬಡಭಾಗ
ಅತಕರಮಣ
ದೂಡಡವರು
ಸೕರುವುದು
ಸೕಮಯ
##ಪಡುತತಾರ
ನಡಸಲಲ
ನಡಸಕೂಡ
ವದಯಾರಥಗ
ಸಾಧಸದದು
ಆರೂೕಪಸಲಾಗದ
ಸಗಣ
ಕಳದೂಂದು
ins
ಹರಯುತತರುವ
##ವಯವರ
ಪಾತರವೂ
ಪಾತರರಾಗ
ಮೂಲಗಳನನು
ಗೂೕಶಾಲ
ಮಂಗಳಮುಖಯ
ಕಾಯಬೕಕು
ಅವಕಾಶಗಳ
ಬಗಯಾದ
##ನರಮಾಣ
123
ಮುಗಯದ
ಮುಗದದದು
##icket
ಹಸರೂ
ಸಾಗಲು
115
ವವರಸಲು
ನಂಬಕಗ
ವಜಯಲಕಷಮ
ಹಂತದಲಲರುವ
##leg
ಮಾಡುತತಾಳ
ರಂಗು
ವಸತುನಷಠ
ಕೕರತಗ
ಮಾರಾಟವಾಗ
ಸದಯದಲಲಯೕ
ಕೂರಳಗ
ಸಮಮಲನ
ಸಂಗೕತಕಕ
ಸಂಗೕತಗಾರ
ಪರವೕಶದವಾರ
ಕಪಟ
ಬಳಯಬೕಕು
ಆಶಾದಾಯಕ
ತಲುಪತು
ತಲುಪಲದ
ನಡಸದವು
175
ಸಂದಗ
ಪರದರಶನಗಳು
ಕನಸನಲಲ
ತಳಯದೕ
##ನಾಗದದಾನ
ಬರಯಬಹುದು
##ಚುಸಟಸ
ವಸತಗೃಹ
ಪರಮಾದ
ಚನನಾಗಲಲ
ಲೂೕಕಪಾಲ
ಮುಂಬೖಯಲಲ
ತಡಹಡಯ
ರೕತಯಲಲೂ
2017ರಂದು
ವಹೕಲ
ರಕಷಸಲಾಗದ
ಹೕರಲಾಗದ
##ಕೂಳಳುವಲಲ
ಗದದಯಲಲ
ಸಂಚಾರದ
ಬಹುತೕಕರಗ
ವಡಯೂೕಗಳನನು
ಕೕಲು
ಬೂಟು
ಜತೕಂದರ
ತಂತರಜಞಾನದಲಲ
ಎಡವರಡ
ಸಂಗರಹವಾಗದ
ಜನಪರಯತಯನನು
##anda
ಉಗರವಾದ
pradesh
ವತರಸದರು
ಬನನಂಜ
ಒಡತನ
ನಮಮಲಲರುವ
ಎನಸಕೂಂಡದದಾರ
ಜಲಪರ
ಮಂಡಳಗಳ
ಎಚಚರಕಯನನು
ವನಯಾಸಗಳನನು
1993
ಕುಳತುಕೂಂಡು
##ವಕಾಸ
ಹುಡುಕುತತರುವ
ಮೂಡಸತತು
ಸಂಘಟನಯನನು
ಅಂಥವರ
ಅರಸರ
ಭಗವತ
ಅತಥಗಳು
ಸಕರಯಗಳ
ಸೕತುವಗಳು
ಸೂರಯನಗ
ಶಬದವನನು
ಅವಲೂೕಕ
##ಫಕೕಷನ
ಹೖಕೂೕರಟಗ
ಸೖನಕರಗ
ಸಲಲಸಲಾಗುವುದು
ಪರಾಧಕಾರಕಕ
ವಚತರವಾಗ
ಕಾರಯನರವಹಸುತತವ
ಕೂಪಪಳದಲಲ
ಹಡಯುವುದು
##hip
ನಯಾಯಮೂರತಗಳಾದ
ಅಚಚರಯಲಲ
ಕಟಟುಪಾಡು
##t15
ಬಳಸಕೂಳಳುತತದ
ಉಸಮಾನ
ಕೖಗಾರಕೂೕಧಯಮ
ರಾಯಚೂರನಲಲ
370
ಉಲಲಂಘಸದ
sub
ವಾಷಂಗ
ತುತತು
ಉಪಪಾರ
ರುದರಾಕಷ
ಧೂಳನ
ಮೂನನಯಷಟೕ
ಚಲಾಯಸದ
೧೮೯
ನೕಡಲಾಗುತತತತು
ಬಯಸುವವರು
ಪಕವ
ಐಸಐಸಐ
ಹಾಳುಮಾಡ
ಸಲಕಟ
ಧಾವಂತ
ಬಯಾರಮೂೕರ
##ouse
ಯುವಜನತ
ಪರತಯಕಷದರಶ
ಆಲೂೕಚಸ
ಪಂಪಸಟ
ಗುಬಬಣಣ
ಪಂಚಾಯತಯಲಲ
ಫೖಲಂಗ
ಹಾಸಗಯ
web
ದೕಗುಲಕಕ
flip
ಬುದದವಂತ
ದರೂೕಡಕೂೕರರು
ಸದೃಶ
ಜಂಬಾಬ
ಕವಯತರ
ಕಾಣಸಗುತತದ
ಸೕಮಎಣಣ
ಉದರೕಕ
ಉಬಬು
ಹುರುಪು
ಫರಾಂಚೖಸ
ರಾವಣನ
ಚಲಸುತತದ
ವದಯಾಲಯದ
ಗಟಪ
ಕೂಯಮತತ
ದಾರುಣವಾಗ
ಸಂಕಷಪತವಾಗ
##ೂೕಗರಾಫರ
ರಾಮಾಚಾರ
ಕರಮಾಂಕದಲಲ
ತುದಗಾಲಲಲ
ಜಾಹೕರಾತನಲಲ
ಡಫನಸ
ರೖಡರಸ
ಕಸುಬು
##¨ªಾರ
ವಸತೕರಣದಲಲ
ವರಮಹಾಲಕಷಮ
itskannada
ಶಂಕುಸಥಾಪನ
ಇಂಟರಸಟಂಗ
ತತಸಮಾನ
social
ಹಾಸನಾಂಬ
ಕರುಕುಳದ
channel
ಹತೖಷ
ನರಸಂಹಮೂರತ
ಹಾಪಕನಸ
but
ly
ಎವರಸಟ
ಓದಲ
ಗೕಣ
ಚಯಾಪ
ಚಂಡನ
ಟಯೂ
ನಾಸಕ
ಪದಾರ
ಪೖನ
ಫರಂಗ
ಬೂರ
ಭಾಳ
ಭಯದಲಲ
ಮಲವ
ಮಯಾಲ
ರಂಭ
ಲಪಯ
ವಪುಲ
ಸುತತದ
ಹೕಸ
##ಗರಾ
##ಮತತು
##ೕನಗ
##ಶೕಟ
##ಲಂದೕ
##ದಕಕೂ
##ಬಾಧ
##ci
##ಹೂರ
##ಚಂತ
##ಚಾದ
##ೂತರ
##pu
##ಖಾರ
##46
##ಾಗಬಾರದು
##ೂೕರಗ
ಪರಳಯ
ಮಾಣಕ
##ಕಕದ
##ಂಡದ
ಸಂಧನ
##ತಯನನ
##ತಯನನೕ
ಮುಂಡಗ
##ನಾಮಕ
ಕೂಹಲಯ
ಸಮತಯಂದ
ಹಾಗದದರೂ
##ಯಾಗದದವು
##ಯಾಗುತತದದಂತ
ಹೂತು
ನಮಮಪಪ
ಹೕಳುತತಲಲ
##ಸತಕಕದದು
ಹಚಚಸಕೂಳಳ
##ವೕತನ
ಗುಟಕಾ
##ಮಾನೂೕತಸವ
ಮೕಲೕರ
ಚತರವೂಂದು
ಇದರು
ಕೂಡಸಲು
ಬರಲವ
ಅರಪಣ
ಅರಚಕ
ದನಪತರ
ಕಾಲದಲಲೂ
ಪರತಕೃತ
##ಟನರ
ಕಡಲು
ನೂೕಡುತತರುವ
ನೂೕಡುತತೕವ
ನೂೕಡುವುದಾದರ
##ಾನುಸಾರ
ಹೂೕಗತಾ
ಜೂಡ
ಸೂಲಲ
ಕಾರಣಗಳ
ಕಾರಣಾಂತರ
ಬೕರುವುದು
##ದಂತರುವ
ವೖಭ
ವೖದೕಹ
ಹೂೕದದದು
ಮೕಣದ
ಪಕಷವೕ
ಬಳಕವೕ
ಮೖಯಲಲ
ಹೂಸಬರು
ದೂರವೕ
##ಜಯನ
ಬಾರಡರ
ತೂತು
ಸಂಗರಸ
ಮರಯಲಲ
ಮಾತನಾಡುವುದಲಲ
ಕಂಡವ
ಗರಾಮದಲಲರುವ
ನಟನಗ
ಕಟಟದರು
ಬಡಾರ
ಬಡತನದ
ವಚಾರವಾದ
##ini
ಹರಪರಸಾದ
ಹರಶಚಂದರ
ಆರಂಭವಾಗರುವ
ಶಾಸನಗಳು
##ತವಜಞಾನ
ಅಗಸಟ
10ರಷಟು
ಕಳಭಾಗದಲಲ
ಪರಯತಮ
ಸೕವಕರು
ವದಯಾರಥನಯರ
ತಪಪುತತದ
ಆಡಂಬರ
ಗುರುತರ
ಗುರುಗರಾಮ
##als
ವಯವಸಥಯೂ
ನಾಗಪುರದಲಲ
ಮಾತುಗಳಗ
ಸದದಪಡಸ
ಪರೕಕಷಸಲು
ಇಲಾಖಗಳಲಲ
ಇಲಾಖಗಳಗ
ಸಾಮಾನಯರು
ವರಗೕಕರಣ
ಅಗತಯವಾಗ
ಅಗತಯವೕ
ಜಾಗವಾರ
ಜಾಗರಣ
ಸುತತಲ
ಭಾವನಗ
##ನನಲಲರುವ
ಇಂಡೂೕನ
ಅಲೂೕ
ಅಲರಟ
ಆಯಕಯಾಗದ
ಇದಕಕಲಲಾ
##ories
ಕವಯಲಲ
ಪಾರಾಗಲು
ಏನಾಗದ
##ರನವಯ
ಬರುತತರುವುದು
ಇಂತಹದೂಂದು
ಸಪರಧಸರುವ
ಹೂೕರಾಟಗಳು
ಮಲತಾಯ
ಕಷಟವಾಗ
ರಂಗಕರಮ
ರೖತರೂಂದಗ
ಮಾಡಕೂಳಳಬಹುದಾಗದ
ರಚರ
##ಸುತತದದಾಳ
##ಾಪುರದಲಲ
ಎಲಜ
ಕೂರಸಕೂಂಡು
ಕಲಪಸುತತದ
ಹಂಚುವ
ತಲುಪದದಾರ
ತಲುಪದಾಗ
ದಾಳಗಳನನು
ಗಾಯಗಳಾಗ
ಎನನುತತವ
ಕೖಗೂಳಳಬೕಕಂದು
ಫರಶ
ಶಕತಗ
ಶಕತಗಳನನು
ಮಾಲಡ
ಅಂಕೂೕಲಾ
##asa
ಬಂಡೕಪುರ
ಸೂಕತವಾಗದ
215
ಉಳದವರಗ
ಬಾಯಾರಕ
ಮನುಷಯರನನು
ಪರಷರ
ಪೂರವಕಕ
ಅಮಮನನನು
ವಡಯೂೕಗಳು
ಜನಸಂಘ
ಗುರುತಸುವುದು
ನಟಟಗ
ಗಲಲುವುದು
ರಕತಹೕನ
ಬೖಪಾಸ
ತಾರಾಬ
##ದದೕಯಾ
ಇಟಟುಕೂಂಡದದಾರ
ಶರಮಸ
ಮಾಡುತತದದವು
ನರಮಸದದ
ವಯಕತಪಡಸುತತದದಾರ
ಬಚಚಗನ
26t20
ನರಧರಸುವ
ಒಡಶಾದ
ರಜಪ
ಕೖಗೂಂಡರು
ಕೖಗೂಂಡದದ
ಪಶಚಮದ
ಪರಸದಧವಾದ
ಪರಸದಧವಾಗದ
ನಾಯಕರೂ
1996
ಶರಣರ
ಆಚರಣಯನನು
##ಬೕಕಾಗರುವುದು
ನವಾರಸುತತದ
ದಾಟುವ
ಅಪರಾಧಗಳು
ಕರಣನ
ಶಕಷಕರಾಗ
ಪೕಠಕ
##ange
ಹಯಾಚ
ಸಾಹಸಮಯ
ಮುಳುಗದ
ಸೂರಯನನನು
ಧಯಾನಕಕ
ಕೂೕಪದಂದ
ಗರಹಗಳು
ನರವಹಸದದಾರ
ವಂಚಸದ
ಫೕಚರಸ
ಮಚಚದ
ಬರಾಹಮಣೕತರ
ಪಾರಟಯ
ಎಂಬಂತಾಗದ
ವರಣನ
ಮತರಪಕಷ
ಮಾಡತೕವ
ಬೂೕಧನಾ
ಕಳದುಕೂಳಳಲು
ಹಲಲುಗಳನನು
ಆಕರಷಸುವ
ಸಂದರಶನಕಕ
ಜಾವನು
ಆಂಡರಯೂ
ತುತತಾದ
ಅಧಯಕಷರಾಗರುವ
ಕಾರಣವಾಗುತತವ
ಶೂೕಧನ
##ವಾದದಂದ
ಆಕರಷಣೕಯ
ನೖಜೕರಯಾ
##ರಾಯರು
appl
ಚತರಮಂದರಕಕ
ನಾಣಯದ
ಸಾಹಸದ
ಉಳಳವರು
ಬಂಡಾಯದ
ಪದವೕಧರರು
ಪಥದಲಲ
ಮಹದೕವಪುರ
₹10
ವಷಾದಸದರು
ಪರಶರಮದಂದ
##ಪೂೕಸಟ
ಇರಾನನ
ತತತರಸರುವ
ಪಾರದರಶಕವಾಗ
upd
ವಧಯಾರಥ
ಕುಂಬಳಕಾಯ
ಹೂನನಾಳ
ತಲಕಡಸಕೂಳಳ
ರಭಸ
ಟಲಫೂೕನ
ಅನನುವುದನನು
ಪರಶನಯೂಂದಕಕ
ಶಷಟಾಚಾರ
ಉತತರಪರದೕಶದಲಲ
ರಜಸಟರಾರ
ಪೂೕರಚುಗ
##ಲಕುಮಾರ
central
##ಸಮರಣೕಯ
ಮೂಳಕಾಲಮೂರು
praj
2022ರ
ತತತರಸದ
ಆತಮಾಹುತ
ಮಹಾಮಸತಕಾಭಷೕಕ
ಅಭಲಾಷ
ಭೂಸವಾಧೕನ
ದೂೕಹಾ
ಚಲುವರಾಯಸವಾಮ
ವಂಬಲಡನ
ಎರಟಗಾ
ತಡಯಾಜಞ
5ರ
9ರಂದ
cau
ಅರಾ
ಎಡದ
ಕತಗ
ಖೖದ
ಚಾಯ
ಜಡಡ
ಜನಾಶೕರವಾದ
ಟಾರಕ
ಡೂೕನ
ಡೕಸ
ತೕಗ
ದೖನ
ಪೕಕ
ಫೕಕ
ಫರೂ
ಫೕಮ
ಬಟಲರ
ಬನನೕರು
ಮಣಯ
ರಟಟ
ಲಾಯ
ಹುತತ
ಹಂತಹ
##ುಸ
##ೕವರ
##ೕನಸ
##ಲೂರು
##ಬಂಗಳೂರು
##ಟೕಸ
##27
##ೂಲೂ
##ole
##ms
##೦ಚ
##43
##ಂದಲ
##ನನದ
ಮಾಡತಾನ
ಮಾಡಕೂಟಟರು
##ಕಷೕಮ
##ಕೂಲಲ
ರಾಠ
##ರಸದದಾರ
ಸಮಸಟರ
ಬಳಗಾರರಗ
##ಗಳಲಲದೕ
##ಲೕಷನ
##ಪರಧಾನ
ನಮಮಂತ
ನಮಮವರು
ಹೕಳತೕರ
##ದಧತ
ಇಲಲಲಲ
ಬರಬಾರದು
##ತಾಣ
ಅರಮ
ದನಪತರಕ
ಹುಮನಾ
##ದದರೂೕ
ಪರತೕಕಾರ
ಸವದ
ಸೕರೕಸ
rel
##ಳದಾರ
ಬಲತ
ಕೖಗಳಂದ
ಹೂೕಗಬಾರದು
ಹೂರತರ
ಹೂರಯನನು
ಮತತೂೕರವ
ಬಜಾಜ
ಕಾರಣವಲಲ
ಬೕರುತತ
ನಲಲುವುದಲಲ
##ಂಜು
ಮಾತನನ
ಗರಗಳು
ಹಾಕದದಾನ
ಮೖಲಾರ
ಹಲವರನನು
ಹೂಂದಕೂಳಳುವ
ಅಪಹಾಸ
ಬಾರಸಲ
##ರೂಬಬರ
ಪರೕಮಕ
ಮರಜ
ಮರಳನ
ಕಟಟಬೕಕು
ಕುರಗಳು
##ವೃಂದ
ಹಸುಗಳನನು
##ಯೂೕನ
ಅತಕರಮ
##ಬರನ
##ತವರುವ
ಸೕತಯ
ಅಸುರ
ಪಡಯದೕ
ವಧಾನಗಳ
ನಗಡ
ನರದೕಶಸರುವ
ಆರೂೕಪಯ
ಅತಯಮೂಲಯ
ಗೂೕಜಗ
ಕೂೕವ
ಕಾಯಲಗ
ಇದದಾಳ
ಮನಸಾರ
ಬಡುಗಡಗೂಂಡ
ಏಕಪಕಷೕಯ
ಜಡಜ
ಕುಟುಂಬಸಥ
ಒಳನುಗಗ
ಸದಧಪಡ
##ೕಶವರನ
ಅನುಭವಸದದಾರ
ಒಪಪಸದದಾರ
ಅನನೂೕದಕಕ
ಕವಾಲ
ವನತಾ
ಹಡುವ
ಕೂಟಟತು
ಪಾರವಾಳ
11ರ
30ರವರಗ
ಇಷಟಾರಥ
ಇಷಟವಾಗುತತದ
ವಜಯೂೕತಸವ
ಇವನನಲಲ
ಸೂಚಸತತು
ಆತಮದ
ಮಾರಗಗಳಲಲ
ಮಲನಾಡನಲಲ
ಪರಯಾಣದಲಲ
ಮೂಡಬಂದದ
ವಸತುಸಂಗರಹ
ಕಣಗಳ
ಕಣಮುಚಚ
ತಂತರಜಞರು
##ಕೂಡಬೕಕು
ಮನಗದದ
ಕರುಳು
ಕೂರಲು
ಆದೕಶಕಕ
ಪರಹಾರಗಳನನು
ಹಚಚಾಗಲು
ಮಾಡದದಳು
##ನಾಗುವ
ಬರಯುತತೕನ
##ಗಳಾದವು
ಲೖನಸ
ರಾಜಯದಲಲೂ
ವದವಾನ
ಅದರಲಲೕ
ಪರೕಮಗಳಗ
ಒಮಮಯೂ
ಒಮಮಯಾದರೂ
ಮನುಷಯನನನು
ಪಕಕದಲಲಯೕ
ಆಪಣ
ಬೂಗಳ
ಮಲಲಕ
ರೂೕಬೂೕಟ
ಶರೕರಕಕ
ಶನವಾರದ
ಬಾಲಕಗ
ನಯಂತರಕ
ಪರಭಾವಕಕ
ಸಹಜವೕ
ಗುಂಪಾಗ
ಬಚಚನಯ
ಸದಾಶ
ವಯವಹಾರಗಳನನು
ವಯವಹಾರಗಳಲಲ
ವತರಸಲಾಗದ
ಬನನನ
ಭಾನುವಾರದ
ಸಾಧಯವಾಗುತತರಲಲಲ
ಜಲಮೂಲ
ಶೖವಲ
ತಂಗಯ
ಪುನರುತ
1996ರಲಲ
ವರತನಯನನು
ಇದದುದು
ಪರತನಧಯಾಗ
ಉಲಲೕಖಸದ
ಅಲಪಾವಧ
ವಮರಶಯ
ಚಲನಚತರದ
ಶಕಷಕರಾದ
ಫೖನಲಗ
ಲೂೕಕಸಭಗ
ಮುಟಟಲು
ಕಂಬಾರ
ಕಾಣಸಕೂಳಳಬಹುದು
ಮೃದ
##avi
ತರಕಾರಗಳ
ಯುವಕನಗ
ಗರಂಥಗಳಲಲ
ಅಂಚಗ
ಸತರೕಯರ
ವಾರಡಗಳ
ಸೖನಕರನನು
dep
def
ಪೖಪಲೖನ
ಕವನಗಳು
ಮೂೕದಯವರಗ
ಅಹಂದ
ಪರವರತತ
ಉರಯಲಲ
ಹಡಯುತತದ
##opp
ಬಳದರುವ
ಯುವತಯೂಬಬ
ಕಳದುಕೂಳಳುತತದ
ಸರಬರಾಜ
ಮಾತನಂದ
ದಾಖಲಾಗದದಾರ
ತುರತುಪರಸಥ
ಸನಮಾನಸದರು
ಸಂರಕಷಣಗ
ಬರಹಮಚಾರ
ಕರೖಸಟ
ಇಂದರಾನಗರ
ಬಸಲಗ
ನೕಡಲಾಗರುವ
ಎದಯಲಲ
ಕರತೃ
ರಾಮಚಂದರಪಪ
ದಂತವೖದಯ
##deal
ಡೂಳಳು
ಧಾವಸದ
ಧಾರಾವಾಹಯಲಲ
ಬಯಾರಕ
ಬಾಂಧವರು
ಹನುಮಂತನ
ಜೕರಣೂೕದಧಾರ
ಹತಯಗೖದ
ಫಲಾನುಭವಗಳು
week
ದೕಗುಲದಲಲ
ಕಾಳುಮಣ
ಹಂಸಾಚಾರಕಕ
ರೕಟಂಗ
ಧಾನಯಗಳ
ಕಳಗಳಯ
ಬರದದದೕನ
ಶರೕರಂಗಪಟಟಣದ
ಫೂೕರಬಸ
##ಗಂಟಗ
ಖಾರವ
ದಯಮಾಡ
ಅವಲಲವೂ
ಎಡವಟಟು
ಸಾಹೕಬರು
ಕುತತಗಯ
ಯೂರೂೕಪನ
##ಯುಲನಸ
ರಸಪಾನಸ
ಅಯೂೕಧಯಯಲಲ
ಹೂೕಗಲಾಡಸಲು
ಅವಲಂಬಸರುತತದ
ಮಹಾವದಯಾಲಯದ
ಭಕತಾದಗಳು
ಕೖಕಂಬ
ರಫರಜ
ಮಲಬದಧತ
ಆಲಕೂೕಹಾಲ
ಸೂಬಗು
ಯಮುನಾ
ಮಯಾಥಯೂ
ಅಲಪಸಂಖಯಾತರು
director
south
birth
kodagu
pakistan
ಚಂತಾಜನಕ
ಹುಮನಾಬಾದ
2ರಂದ
bp
hist
kal
mu
ಏಷಯ
ಕಎಂಎಫ
ಖಗ
ಚೖನ
ಡಾಮ
ಡಯಾಮ
ತರುತತ
ದಯಾಮ
ಧಾ
ನಫಟ
ಪೕಲ
ಭುವ
ರಷಯನ
ಲಾಟ
೪೩
೪೮
೯೪
##ಂಕರಯ
##ವಜ
##ಶಂಗ
##ಬಾಟ
##net
##tr
##kart
##ಳದದ
##ೂಖ
##ಫೂರ
##ತತಂದರ
##ೂೕದರಂದ
##ೂೕದಕ
##ದದಲಲದ
ಪರಡ
##ುವೕಳ
##ುವಾಸ
##ಂತಾಗುತತದ
##ುತತರುವುದಕಕ
##ವರಾಗದದರು
##ತರಂದ
ಮಾಡಬೕಕಾದರ
ಮಾಡಫೖ
ಸಂಹಾರ
##ಕೂನ
##ಕೂಡದ
##ವಾಡಗ
##ಂಗಲಲ
ಮುತಸದದ
##ಮಮಟ
##ಷಟಲಲ
ಸಾವನನು
ಕಲಾಮ
ಸಮಂತಾ
ಸುಳಗ
ಸುಳದ
ಕುಗರಾಮ
ನೕಡದದರಂದ
##ದೕನಾ
ನರವಾಗುತತವ
ವರತುಲ
##ಪಪದ
##ಂಟಾಗದ
ನಮಮಂಥ
ಹೕಳುತತರುವ
##ಕೂಳಳುತತರುವ
ಜನಗಳ
##ಂಗಳದಲಲ
##ತನಂದ
ಅಭಯುದಯ
ಪುಡಯನನು
ವರಷಪೂರತ
##ಕುಲು
##ಕುಪಪ
##ಲಾದರ
ಪರತೕತ
##ಯೕನು
ತುಕಡ
ಸವಸಥ
ಜಲಲಯು
##ಾಮಲೖ
ಸೕರದಾಗ
ಅನರು
ಹೕಗಾದರ
##ರಲಲರೂ
##ಾನುಮತ
ಹೂರಣ
ತರಲಾಗುತತದ
ಮತತಗ
ಆಯಸಸು
ಮುಖಯರಸ
ನಲಲುವುದು
ಶರೕಪ
ಶರೕಯುತ
ಕಲಸಬೕಕು
ಕಲಸಟರ
ಕಲಸಗಾರ
ಎಸಎ
ಮೕಸಲಾಗ
ಹಾಕುತತದದರು
ದೕಪತ
##ಲಸಸ
ತಳಮಳ
ಹೂಂದರುವುದಲಲ
ಸಂಗಪುರ
ಭಾಗಯಾಗರುವ
ರೂಪಸದದ
ನಟಯಾಗ
ಕಟಟದದಾರ
ಕಟಟದದು
ದೂಳ
ದುಷಕ
ಬಡಡಯ
ಕಂಪಲ
ಮೂೕಸದ
ಮೂೕಸಟ
##erv
##ering
##ಯಾಸವಾಗ
ಆರಂಭಕಕ
ಆರಂಭಗೂಳಳಲದ
ಬಹುದನ
ಗಳವ
ಚನನಕಕ
ಪದವಯ
ಮತಯಾಚನ
ಬುಕಸ
ಬುಮರಾ
ಜೕವನವೕ
ವದಯಾರಥಗಳಗೂ
ಸಾಧನಾ
ಯಾವೂಬಬ
ಪಾಲಸಬೕಕು
##ಕಯನನೂ
ಪರಣತರು
ತಂದಯವರ
ನಾಮಾ
ಅಧಪತ
ಬಡುಗಡಗೂಳಸದ
ಅಗತಯಕಕಂತ
ಒಳಗೂಂಡು
ಒಳನೂೕಟ
ಶಕಷಣದಂದ
ಸುತತಲು
ಅನುಭವಗಳ
ಗಂಟವರಗ
ಅದೕಗ
ನರಮಾಣಗೂಂಡ
ಕವಕ
ಕೂಟಟವರು
ಮದುವಯಲಲ
ವಾಸಸುತತದದ
111
##ತವಾಗರುತತದ
ಪಾಷಾ
ಸವಲಪಮಟಟಗ
ತಂಗಳನ
ಸಣಣದೂಂದು
ವರೂೕಧಗಳ
ಕಂಪನಗಳನನು
ಆತಮಾವಲೂೕಕನ
ಆತಮಸಥೖರಯ
ಮಾರಗಗಳ
ರಂಗಸವಾಮ
ರೂಪಾಯಯನನು
ಇಲಲದವರು
ಎಲಲರಂತ
ಕೂರದು
ವಕೕಂದರ
ನಯೂಕಲಯ
ಅರಜದಾರರ
ಹಚಚಾಗವ
ಕೖಗೂಳಳುವುದು
ಮಾಡದದನನು
ಕನಸಗ
ಸೃಷಟಸುತತದ
ಅಭನಯಸುತತದದಾರ
ಹುಟಟಸ
ವದೕಶದ
ವದೕಶದಂದ
ಚತರದಲಲದ
ಚಲೂೕ
ಸೂರಗ
ಕಾನೂನುಬಾಹರ
ವೕರಯಾಣ
##rav
ವಯಾಪಾರಕಕ
ಪಂದಯವನನ
ರಕಷಸುತತದ
ಶಾಂತಯ
ರನಗಳಗ
##ಬಸವೕಶವರ
ಜಾಥ
ಲೕಖನಕಕ
ಕಳಗಡ
ಹೂಡದದದಾರ
ಸತಯಾಸ
ಬಾಲಕಯೂಬಬಳು
ಸಂಚಕಯಲಲ
ಪರತಯೕಕವಾದ
ಇಟಟುಕೂಂಡರುವ
ತಾಣಗಳನನು
ಶರಮಸಬೕಕು
ಮುಚಚಲು
ಬಚಚಡ
ನಗದಯಾಗದ
ನಾಗರಕತ
ತಾನಾಗ
ಅಳವಡಸರುವ
ಕಟುವಾಗ
ಕರಸತನ
ಕರಸಕೂಂಡು
ವಷಮ
##ಹರಸದ
ಆಚರಣಯಲಲ
ಮರಯದರ
ಸುಖದ
ಹೂೕಟಲಗ
stat
ತಾಳದ
ಮರಳುವ
ಸುವಾಸನ
ಕಾರಯಾಚರಣಯ
ದಶಕದಂದ
ನುಡದಂತ
ಕೂೕಲಾರದ
ಕಶಕ
ಅರಸನ
ಬಳಸುವಾಗ
ಅಳತಯ
ದಟಟವಾಗ
ರಾಜಧಾನಯ
ನೕಮಸದ
ಉಳಯುವುದಲಲ
android
ಗರಹಣದ
ರುಚಯನನು
ಇರುತತದದ
ಹೂಡಕಯ
ಕಂದಕ
ಪರಗಣಸುವ
ಕಾರಯನರವಹಣ
ಪಾರಟಯಲಲ
ತಟಟಯಲಲ
ಕಾನಪುರ
ಉದಘಾಟಸದ
ಉಂಟಾಗಲದ
##ರುವಂತಯೕ
ಹೂಳಲಕರ
ತಳದುಕೂಳಳಬಹುದು
ಯತನಸದದಾರ
ಪರಾರಯಾಗದದಾನ
ಮೂೕಟರ
ಆಕರಷತರಾಗ
ಕಡಮಯಾಗಲಲ
ಸಳದದದ
ಕಾಯಲಗಳಗ
ಈಡೕರಸಲು
ಹೂರಡಸಲಾಗದ
ಜಾಹೕರಾತುಗಳು
ಹೂಸತಲಲಲ
ಶರೕಲಂಕಾದ
ಕರತರುವ
ಪಣಕಕ
ಹೂಡಯುವುದು
ಇಲಗಳು
ಆಡಳತಗಾರ
ಮತಗಟಟಗಳಲಲ
ಸಾಮೂಹಕವಾಗ
ತಾಕತತು
ಇಟಾಲಯನ
ಸರಪಸುತತ
ಜಾನುವಾರುಗಳನನು
exam
ಕೂಂಡೂಯ
ಹಾವುಗಳು
ಕಯೂಬಾ
ಘಟಟದಲಲ
ಹಠಾ
ಸಇಓ
ಆಳವಕಯ
ತತಕಷಣ
ಅರಮನಯಲಲ
ಹಡತದಲಲ
ಆಂದೂೕಲನದ
ಯಥಾಸಥ
bharat
ಕುಕೕ
ದುಡಡನನು
ಕೂಂಡೂಯಯುವ
ಗೂೕರಖ
ಸಾವಗೕಡಾದ
ಅನುಪಮಾ
ತಲನೂೕವಾಗ
ಗಾಲಫ
##ಸಪರಶ
ತಡಯುವಲಲ
ಗೂೕಚರಸುತತದ
ಕೕಳಬಂದತತು
ಇಸವಯಲಲ
ಕಣತುಂಬಕೂಳಳಲು
aff
ಅನುಯಾಯಗಳು
ಕಾತರದಂದ
ಕೖಚಳಕ
ಓಲೖಕ
ಬೂೕಪಯಯ
ತರಪುರಾ
##ಸಪಯರ
ತಗಲುವ
ವಯಂಗಯವಾಡದರು
ಪರಾಸತಾವಕ
ಹಫೕಜ
ಡಮಯಾಂಡ
snap
ಜೂೕಡುಪಾಲ
ಅದೕಕೂೕ
ಗರಭಾವಸಥಯಲಲ
ಜದದಾಜದದ
ವದಯಾಸಂಸಥ
ಯುಟಯೂಬ
ತಪಟೂರು
ರೂೕಜರ
ಎಂಗೕಜ
ಥೖರಾಯಡ
flipkart
bc
dau
gh
hand
let
pay
pass
ಅವೕ
ಇಫ
ಇಗರ
ಋಗ
ಎಗಗ
ಏರುತತದ
ಐಂದರ
ಓವನ
ಗದ
ಗಢ
ಗಲೂ
ಗೖಡ
ಘೂ
ಚೂೕಕಸ
ಜಜಜ
ತಡಯೂ
ನವಾ
ನಾಸತ
ನಧಯಂದ
ಪಟಲ
ಬಯೂ
ರಪಪ
ಶರು
೫೬
##ಗಂದು
##ರದದರು
##ವಳಗ
##ವಯದ
##ವೖಸ
##ಪಾಸತ
##ನಾರ
##ಯಂಟ
##ದನನೂ
##ಬವ
##ಬಚಚ
##ಬಯಾಗ
##ty
##ಸಬೕಕಾದ
##ಡಾಯ
##ಡಗಳು
##rd
##ೂನು
##ಧಾಬ
##ಫೂೕಟ
##ಇನ
##mah
##ಘಲ
##bar
##ಂದಯ
##ಾಗಳನನು
##ೂೕಷಟಯಲಲ
ಪರಯಾರ
##ದುದನನು
##ಾನಲ
##ಾನೕಕ
##ವರತಯ
##ವರಣದ
##ತರಂಗ
##ಟಟಯ
ಮಾಡಸಬೕಕು
ಮುಸ
##ಮಮಂಗ
##ರಾಣು
ನೕಟ
ಸಾದ
ಸಮನಸ
ಬಳಮಾಡುವ
ಹಾಗೕನಾದರೂ
##ಲಾಗುತತಲಲ
ಸರಗಮ
ಸರಹಡ
ಸುಪುತರ
ಕರಣಾ
ಕುಬೕರ
ಅವರೕಗ
ಹೂಕಕು
##ಬೕಕದದರ
ಹೕಳಕೂಳಳಲು
ಆರಗನ
ಆಗರಾ
ಇಲಲದರುವುದರಂದ
##ಂಗಳಗ
##ಮಾನಕಕ
ಅವಯಕತ
ಎಲಲಯವರಗ
ಭಾರತಾ
ಪುಷಕರ
##ತಾಧಕಾರ
ಬಂದರುವುದರಂದ
ಹುಳಯ
##ಲಾಬ
ಕಾಲಾ
##ಲದಾರ
##ಾಮಂಡಲ
ಕಡೕ
ನೂೕಡಕೂಂಡ
ಬಲಷಟ
ಕೖಂಕರಯ
##ಷಯಂ
ಹೂರಟಟ
ಹೂರದೕಶ
##ೂೕಪಾದ
ಕಾರಣರಾದರು
ಮುಖಯವಲಲ
ವೖರು
ಕಲಸವೕ
ಕಲಸಗಾರರ
ಮಾರಲು
ಹೂೕಸಟ
ಗರವದ
##ವಾಸಕರ
ಕಷತರಯ
ಹೂಸಬ
ಹೂಂದಕೂಂಡಂತ
ಅಪಗರೕಡ
ದೂರತು
ದೂರಯಲ
ದೂರಸಂಪರಕ
ಸಲೖಡ
ಕೕಳುತತದ
ತೂಳಯುವ
ಸದಗುರು
ಬಯಾಡಗ
ದೕವತಗಳು
ಸಪಯಾಮ
ಶುಷಕ
ರೂಪಸುತತದ
ಬಡದೕ
ಕಂಪನಯನನು
ಹರಳ
ಆರಂಭಸಬೕಕು
ಸಾರಾಸಗ
ಮುಖೕನ
19ರ
ಅಸತತವದ
ವಾರಷಕವಾಗ
ಪದಕದ
ಸಾಧಕರ
ಶವಣಣನ
##ಸಕೂೕ
ಯುನಸ
ಬಹುವಾಗ
ಬಟಟರುವ
ಪಾಲಾಗದ
ಹಚಚನವರಗ
ಮಧಯಯೂ
ಮಧಯಭಾಗದಲಲ
ಭೂಪ
ಗೂೕಜ
ಗೂೕವಂದು
159
ಒಬಬನನನು
ಇದದದದೕ
##ಪಟಟರು
127
ಎನಎ
ಉತಪರೕಕಷ
ಆಯಕಯಾಗದದರು
ಮಳಯನನು
ಬಂಬಲದೂಂದಗ
##ities
##ಸವಾಮಯ
ಮನಯೂಂದರಲಲ
ಕೃಷಕರಗ
ನಜವೕ
ಚರಚಾ
ನಂಬರಗ
##ಗಳಾಗುವ
##ತವಾಗದದ
30ರಷಟು
ಬಯುರೂೕ
ಮಾಧಯಮದವರು
ಮಲಯಾ
ಮಾಡುತತತತು
ಕಷಟವಾಗದ
ನವಜ
ಇಂಗಲಷನ
145
ಕೂರಯುವ
ಅಂಶಗಳಲಲ
ತಲುಪತತು
ಪರಹಾರಕಕಾಗ
ಫೂೕನಗಳ
ಫೂೕನಗಳನನು
ವೃತತಗ
17ರ
ಪೕದಯ
ಪೕಣಯ
ಫರಡಜ
ಸಂಪರಕಗಳನನು
##ಬಡುತತೕವ
ಹುಟಟಕೂಂಡ
ಹುಟಟದಾಗ
ಬದುಕಲಲ
ಪರಮೕಶ
ಉಳದವರ
ಹತತರಕಕ
ದಾಖಲಸರುವ
ಅದರಲಲದದ
ಸಹಕಾರಯಾಗಲದ
ವಹಸುವಂತ
ಏರಕಯನನು
##elf
##ಸಂಖಯ
ದೕವಾಲಯಗಳಗ
ನವಾಸಗಳಗ
ಸಲಭಯವದ
ಗಳಸತತು
ಲಂಗವನನು
ಬೖಬಲ
ತೂೕಟಗಳ
ತೂೕಟಗಳು
ಬರಹಗಾರರ
ಸವೕಕರಸಲದದಾರ
ಮಂಗಳವಾರದಂದು
ವಶವವದಯಾಲಯಕಕ
ಯೂೕಜನಯಡಯಲಲ
ಕಚಚದ
ಸುಧಾರಸ
ಎನಸುವ
ಜೕಸಸ
ಸಾಂಸಥಕ
ಸಫಾರ
ಸಂಗತಗಳ
ಜವಾಬದಾರಗಳನನು
ಪತರಕರತನ
ಅಬಸರ
##apr
ಸಹೂೕದರಯರು
ಪರತನಧಗಳೂಂದಗ
ಕತಗಳನನು
ಗಂಡನನನು
ಆಸತಪಾಸತ
ಧವನಮುದರ
ರಚನಯಾದ
ದಲಲಯ
ಮೂದಲಾದವರ
ಗಾಯಗೂಂಡದದರು
ಪುರಾಣದಲಲ
ಕರೕಡಗಳಲಲ
ತಂತರಾಂಶಗಳು
ಲೂಸ
ಅಣಣಾವರ
ಕೂೕಪವನನು
ಆಗಮಸುತತಾರ
ಅದರಂದಾಗ
ತುಳುನಾಡ
ಕಂದಮಮ
ಕಾದಂಬರಯನನು
ಪರಸತಾಪಸ
ನರವಹಣಯನನು
ನರಾಕರಸದರು
ವಾಯುಪಡ
ಧೖರಯದಂದ
##ograph
ಸಂಕೕತವಾಗದ
ಪುರೂೕಹ
ನಾಟಕಕಕ
ಸುರಯತು
ಕಾರಮಕರನನು
ಸೕನಾಪಡ
##ution
ವರಗದವರ
ಎಮಪ
ಪಾಲುದಾರರ
ಜಾತರಯಲಲ
ಗುಡಬಂಡ
ನೕಮಕಾತಗ
ಶುರುವಾಗತತು
ವಯಕತತವಕಕ
##ಷಪಥ
ಸದಧಾಂತವನನು
arrest
ಕಎಸಸ
ಸೕಟನಲಲ
ರಹಸಯವಾಗ
ಮೖಕರೂ
ನಾಪತತಯಾಗದದಾರ
ವಂದನಗಳು
##ಕಕೂಳಗಾಗದದ
ಇಷಟಪಡುವುದಲಲ
ಓಟಕಕ
ಹೖಕಮಾಂಡಗ
ಕಲಾಪದಲಲ
ಬಾಣಲಯಲಲ
ಎಸಗದದಾರ
ಹೂೕಲುತತದ
ಅಬಬರಕಕ
##ಮಹಾದೕವ
ಬಲರಗಳು
ನರಾಶರತ
ವೖಟಫೕಲಡ
ಸಂಗಾತಗ
ಸಂಡಕೕಟ
import
ಜಸಪರೕತ
ಮೕಲುಸತುವಾರ
ಕರೕಡಾಪಟುಗಳಗ
ವಕತಾರರು
ವನಯಜೕವಗಳ
ದುಡಡನ
ಹದಗಟಟದ
ಕಲೕನರ
ಲೕಪನ
##ರಷಟನನು
ಅವಭಜತ
ಆಮಷವೂಡಡ
ದುರುಪಯೂೕಗಪಡಸ
ತರಂಗಾಂತರ
ಮರುಪಾವ
ಪಾಳಯದಲಲ
ನವರಾತರಯ
ತುಣುಕುಗಳು
ಶರೕಯಾಂಕದ
ಕಾರಪೂೕರೕಷನ
##ಮುರಳ
ಚಾವಲಾ
woman
accident
ಜೕಬನಲಲ
ಭಗವದಗೕತ
ದನಗಣನ
ಸಾಮಾಗರಗಳು
ಚಂಪಾ
terror
ವಜಯದಶಮ
visit
##anje
ಕಮಸಟರ
ಮಸಾಚುಸಟಸ
ಪದೕಪದೕ
ಟಾಯಲಟ
ಧನಸಹಾಯ
ಏತನಮಧಯ
chikk
ಬಯೂೕಮಟರಕ
ತಾರಾಬಳಗ
ಸತಯಾಸತಯ
3ಜ
b3
bal
sil
ಆಳು
ಇ೦
ಐಜ
ಒಬಾಮಾ
ಕಸಯ
ಕಐಎ
ಚಚಚ
ಚೂಡ
ಜವಲ
ಝರ
ಟರೕಟ
ಡಎನಎ
ದಕುನ
ಪೂೕಣ
ಪಪಎಫ
ಭೕಷ
ವನನ
ವೃತ
ವಪರೕ
ಶಾಯ
ಸಾಯಸ
ಹರಾ
೩೩
##ಂಕಷ
##ತಾಕ
##cle
##ಣಯದ
##ಧನದ
##iya
##66
##೭ರ
##но
##ст
##ೂೕಸಸ
ಪರೖಮ
ಪರಮಾತ
ಪರಭುತವದ
##ವುದರಂದ
##ಾಯಣದಲಲ
ಸಂಪಡಸ
##ಕೂಂದು
##ಂಗಡಯ
ಮುದದಾಗ
ಮುಜರ
##ರುವಂತಹ
ರಾಫಲ
ಸಾಟ
ಕೂಗದ
ಕಲಯುಗ
ಕಾರಜೂೕಳ
##ರೕಡ
##ರೕಣ
ಬಳದದದಾರ
ಬಳಸದಾಗ
ಸುನೕ
ಕರಗತ
ಕುಂಜ
##ಬೕಕದದು
ನರೕಶ
ನಮಮೂರನ
ಆಗದದಾನ
ಆಗದದವು
ಹಚಚುತತವ
##ಸುವಂಥ
ಅವಸಮರಣೕಯ
ವಯಥ
ಮಹಾಪು
ಎಲಲವು
ಚತರೂೕತಸವ
ಇದಕಕೂಂದು
##ಂಧು
ಪುನೕ
ಅರಹತಯ
ಅರವತತು
ಸಹಸುವುದಲಲ
ದನವನನಾಗ
ವರಷವನನು
ವರಷಗಳಗ
ಮನಮಾತ
##ಕುಟುಂಬ
ಅದಾಗಯೂ
##ರಯಯ
##anc
ಈಗಲಲ
ಈಗಲಾದರೂ
reality
ಜೂಹ
ಸೂಂಯ
ಕಾರಣವೕ
ಬೕವು
##ದಾರರನನು
ವೖರಾಣು
ಅಪಚಾರ
ದೂರವನನು
##ತಸವದ
ಹಚಚುಕಡಮ
ತೂಂಡ
ದೕವತಗಳ
ನೕರಲಲದ
ಸಟಯಾಂಡ
##ಗುಚಛ
ಕಷೕತರವು
##ಧಾರಾ
ಬಡಲ
ಬಡಡಯನನು
ಬಸಯಾದ
ಹರಭ
ಹರಳು
##ಭಾಷಕ
ಗಳಗೂ
ಶಾಸಕನಾಗ
##ಬರಾಯ
ಸಂಪದ
ವಶವಬಯಾಂಕ
ದೂಡಡಣಣ
ಅಗಲಕ
ಕುಮಾರವಯಾಸ
ನಡಸದದೕವ
ಅಸಡಡ
##ಾಂತಯ
ಮತೕಯ
ಸೕವಗಳಗ
ಬೕಕಂತ
##ದನಂತ
ವದಯಾರಥಗಳಾದ
ತಪಪದದಲಲ
ಎಂಎಂ
##ಮೂಲದ
ಯುಜಸ
ಗುರುಮಠ
ಸದಸಯರಂದ
ಹರಯುತತದದು
ಪಾತರರಾದರು
ತಳಸದದ
ತಂದಾಗ
ಫಲೖಟ
ಅವಕಾಶಗಳವ
ಕಯಾತ
2018ನೕ
ಇವರೂ
ನರಮಾಣವಾಗುತತದ
ಎನನುವಷಟು
ಸಾಗರೂೕ
ಆಸಪತರಗಳಗ
ರಾತರಯೕ
ಅಡಗಳಷಟು
ಪರಕಟಗೂಂಡ
ಸಪರಧಸಲದದಾರ
ಮಾರಗವಾಗದ
ನಲದಂದ
25ರ
ಪುಸತಕಗಳಲಲ
ಒದಗದ
##ಕಕಂತೂ
ವಸತುಗಳಲಲ
##ಡಾಫ
ಸದದರಾಮಯಯನ
ಪರೕತಸುತತದದ
ಕಚೕರಗಳನನು
ಸಮಮತಸ
ಪರಚುರ
ಚಂತಕರ
ಪರವೕಶದ
ಪೂರಣಪರಮಾಣ
ಬಳಯುತತಾರ
##urn
##uri
ಪರಹಾರವಾಗ
ಖರೕದಯಲಲ
ಅವನೂ
ಮಾಲತ
ಮಾದರಯಾಗದ
ಬೕಳಗ
ರಾಯಲಸ
ಬದುಕಬೕಕು
ಸಂಕೕರ
ನಾವೕನು
ಮುಕತಗೂಳಸ
ಮುಂದುವರಕ
ಪತಾಕ
##ely
ಹೂಡಲು
ಸಮೕಪದಲಲರುವ
ಬೂಟಟು
ನವಾಸಯಾದ
ತಂತರಜಞಾನಗಳನನು
ಕಷಣವೂ
ಜೂೕಡಸುವ
ಬಾಲಕಯರು
ಕೃತಗಳಲಲ
ಚಟುವಟಕಯ
##ಯೂಂದೕ
ಪರಕಾಶಮಾನ
ಮಳಗಗಳು
ವಯಕತಪಡಸಲು
ಅಂದುಕೂಂಡು
ಕಸಬಾ
ಮಂಜುಳ
ಕಣಣುಗಳಲಲ
ಅಡಡಗಟಟ
ಮೂತತದಲಲ
their
##ಾಂಗಣದಲಲ
ರಜಾದನ
##ನೂೕವು
ಪರಸತುತಪಡಸ
ತಂತಮಮ
ಬೕಜವನನು
ಜೕವಾಳ
ಹಂಡತಯನನು
ಸರವಸವ
ಶಂಕರಪಪ
ವೕಕಷಕರಗ
ಚತರಕಕದ
ಕಾಪಾಡುವುದು
ಯಕಷಗಾನದಲಲ
ಚಕರವಯೂಹ
ಪರಶನಸುತತಾರ
ವಬಸೖ
ಕಂಬನ
80ರ
ವಶಷಟವಾಗ
ತರಸಕೃತ
ಸಕರಟ
ಶಬದಗಳ
ಉಪನಷ
ಚೕಫ
ಮುಂದಾಗವ
ಚಂಡೕಗ
ಪಾಲಗೂಂಡದದಾರ
೨೦೧೩
ಹದವಾಗ
ಇಂಟರನಟನಲಲ
ಗುಡಡಗಾಡು
ಸಮಾಧಾನಕರ
ಸವರೂಪದಲಲ
ನೂೕಂದಣಗ
ಗುರುತನನು
ಕಾನಫ
ಪರಾರಥಸ
ಸಮಾವೕಶವನನು
ಬಬಎಂಪಯ
ಉತಸವವನನು
ಟರಾವಲ
ಕೂಠಡಯ
ವಾಗಮ
ಪರಜಞಯ
ಜಲಲಾಡಳತಕಕ
90ರಷಟು
##ವರಷದ
ವಸಟಇಂಡ
ದುರಗಮ
ಕೂದಲಳ
ಚತುಷಪಥ
ತಾಜಮಹಲ
೧೮೮
##ವನಸತು
ಸಟರೂೕಕ
ನಗಮವು
##ವೂಂದೕ
##ಲಾರಂಭಸತು
ಗಾಯಕವಾಡ
ದವಾರಕ
ನಕಷತರಗಳು
ಒಗಗಟಟಾಗ
ಕವಾರಕ
ಸಮಾರಕಗಳು
ಶತರುಗಳು
ಉತಕಟ
ಪರಕಲಪನಯ
here
ವಸತಾರವಾಗ
ಬಡುವಲಲದ
ಸಂಸತನಲಲ
##ಧರಮದ
ಮೕಘಾಲಯ
ನರಲಕಷಯದಂದ
ಹುಡುಗರನನು
ಪರತರೂಪ
ವದಯಮಾನಗಳು
ಮಕಯಾನ
ಮಹಾಕಾವಯ
ಚಲಾವಣಗ
ಅಳವಡಸದ
ಚಟಟಾಣ
ಎಬಬಸದ
ಹಟಟನನು
ವಶವದಲಲಡ
ದಯಪಾಲ
ವರಚಸಸು
##ollow
ಆಪಾದನ
##ದೕವರಾಯ
ಹೂರತಗದು
##ulture
ಮಾಧವನ
ಸಆರಪಎಫ
ಎಲಲದರಲಲೂ
ಸುಬರಮಣಯನ
##ೂೕರಾಫೂೕ
ಸಧಯಕಕ
ಸೂರಯಾಸತದ
ಪನಸಲ
express
ಪರತಯೂಂದೂ
ಕುಲದೕವ
ಜಂಜಾಟ
ಗರಭಣಯರಗ
ಹಳಗನನಡ
ಮಾಮೂಲು
ಮಲಟಪಲಕಸ
##ಹಗಲೕ
ದಬಬಾಳಕ
ಕಯಾಬನಟ
ಸಮೃದಧಯ
ಗಲಾಮರ
ಬಬಲೕಶವರ
ಹೂನಲು
ಮಾರಮಕವಾಗ
ಮುತುವರಜ
ತಬಲಾ
ಯಥೕಚಛ
ಮಾಸಟರಸ
ಇಡುಕಕ
ಕೂೕಮುಗಲಭ
ರಜಪೂತ
ರಫರಜರೕಟರ
snapdeal
5ಕಕ
gm
nor
ticket
ಉಬರ
ಎಳಯುವ
ಏಕಸ
ಓಡಸಲು
ಕವೕ
ಕದದೂ
ಖೕರ
ಗಸ
ಗಹನ
ಚಪಪು
ಟೕಲ
ಥರಲ
ದಸರ
ದಯೂೕ
ದಯುತ
ನವನ
ಫಯೂ
ಬಣದ
ಭತವಜಞಾನ
ಯಳ
ರಾಗದ
ರಂಡರ
ಶೕವ
ಹಾರು
೦೬
##ರವಾಗ
##ವಮ
##ಾಶಕತ
##ನೕರ
##ಜೕನ
##ಯಕ
##ಯಂಬ
##ಬೕಟ
##tra
##ಸುವುದರಲಲ
##ೂಂಕ
##ಫಸ
##ware
##mm
##ville
##೮ರಲಲ
##▬▬
##ಲಲಲೕ
##ಗಳಯ
ಪರವಾ
ಪರಾಸಕ
ಪರಹರಸುವ
ಮಾಫ
ಮಾಸಾ
##ವುಡಗ
ಸಂಜಞ
ಸಂಚರ
##ತಯವರ
##ತಯರಗ
##ವಾಕರಷಣ
##ಲುಗಳು
ಮುಸಸ
ಮೂಂತ
ಸಾವಂತ
ಕೂಳದ
ಕೂಳಕ
ಕೂಂಬು
ಕಲಾರ
ಬಳುಕ
##ಯಾಗುತತದದ
ಹೂಟಲ
ನೕಡರುವುದರಂದ
ನೕಡುತತಾನ
##ಬೕಕಾಗದದು
##ಮಾನನ
##ಗರದ
##ಕತನ
##ಪರಯರ
##ಪರಂಪರ
ಹೕಳದದನನು
##ಸತಂಭ
ಹಚಚೕನೂ
ಜನದ
ಗುಹಾ
##ನಗೕ
ಮೕಲಛ
ಮೕಲದಂಡ
206
ಎಲಲರಗಂತ
ಕೂಡಸುವುದಾಗ
ಬರಯೂೕ
ವಶಷಠ
ಅರವನನು
ಮುಂದಾದಾಗ
ರೂಳಗ
##ೕತೕ
##any
ಅನುಬಂಧ
ಅನಷಟ
ಅನಯಾಯದ
ಕೖಗಳಲಲ
ಕೖಪಡ
##ರಲಲಯೂ
ಜೂಕೂ
ಉತತರಸಲು
ಹಂದಂದ
ಬಜಜ
##ನಂದೂ
ಕಲಸವು
ಗರಯನನು
ಹಾಕಸ
ಕಷೕಮಾ
##ಹಸನ
##ಸಸನಲಲ
ಯೂೕನಯ
ತಳಹ
##ಗಾರನ
ಸಲೕವ
ತೂಳದ
ಆಸಟನ
##ating
ಭಾಗಯಾದ
ಸಟುವರ
ಸಟೕಶನ
##ಗುಂಟ
ಗರಾಮದಂದ
ದುರಾ
ಮೂೕಜನ
##ೖಕಲ
ಹರಾಲಡ
ತುಂಬುತತದ
ಆರಂಭಸತು
ದಾಖಲಗ
ಪತರೕಜಯ
##ೂೕನಕ
ನನಗಲಲ
ಸಂಘಟಸ
ಅಗೂೕರಾಫೂೕ
ಕಳಸುವ
ವಾರಯರಸ
##ಡಕಲ
##ಸುಫ
ಉತತರಗಳನನು
ನಗುವನ
ಯಾರಂದು
ಆಡಟ
ಆಡುವುದು
ಆಟಗಳ
ಗುರುಕರಣ
ಯಾವಲಲಾ
ಎದುರುಗ
ಮಕಕಳದದಾರ
ಶೕಟರ
ಕಾಯದುಕೂಳಳಲು
ಸದದಲಲದೕ
##ಾಯತೕ
ಅನೕಕಾನೕಕ
ಒಳನಾಡನಲಲ
ಸಂತಯಲಲ
ಭಾವಸುತತಾರ
ಭಾವಗೕತ
ಅರಥಹೕನ
ಅರಥವಯವಸಥ
ಹಸರದ
ಮೂೕದಕ
##ಕಲಮ
ಸಾಗದರ
ನೂೕಬಲ
##ದರಶಕ
ವವರಗಳ
18ರಂದ
ಅಡರಸ
##ಲವೂೕ
ಪರಕಟವಾಗುವ
##ೖಸೕಶನ
ಎನನಸುತತದ
ವಧವಾದ
ವಧವಧಾನ
ಮೂಡತು
##ಗಡರು
ಕಚೕರಗಳಗ
ಕರುಳ
ಗಾಂಧೕ
ದೕಹದಲಲರುವ
ಬಳಯದದ
ಮಸಂಜರ
##ಕಗಂತ
ಎಚಚರವ
135
ಚಂದರನನನು
ರಕಷಣಯನನು
ಟವಲ
ಸಮತೂೕಲ
ಯೂೕಗಕಷೕಮ
ದನಗಳಲಲೕ
ವೃತತಯನನು
ನರೕಕಷಯನನು
ಮನುಗ
178
ವಭಾಗವು
ಅಪಪಾ
ಸುಲಭವಾಗುತತದ
ವಹಸಲದದಾರ
ಉದಯೂೕಗವನನು
ನರೕಂದರಮ
##ದದಾಗರುತತದ
##ಂಪರತ
ಅಭಪರಾಯಕಕ
ಮುಂಬೖನಂದ
ಒಮಮತ
ವಹಸುತತವ
ರಕಷಸದದಾರ
ಪರತಕರಯಗಳು
ವಲಯದಂದ
ಹೕರಕ
##ನೂಡನ
ಬಹುತೕಕರ
ಸವೕಡ
ಕಾಡುತತವ
ನರಮಸದರು
ಮುಂತಾಗ
ಸತಯಾಂಶ
ಘೂೕಷಸದದು
ಕೃತಗ
ತಾರಾಗ
ದೃಶಯಗಳ
ತಾಣಕಕ
ಮಳಗಯಲಲ
ನೖಪಾಲ
ಫಲತಾಂಶದಲಲ
ಮುಚಚಳ
ಸವೕಕರಸುತತಾರ
ಉಪಯೂೕಗಸುತತಾರ
ಸತತವರ
ಲೕಬಲ
ಸೕತಾರಾಂ
ಸಾಧಯವಾಗರಲಲಲ
ಅರಧಗಂಟ
ತೕರಮಾನಸದದಾರ
ಸುಧಾರಸುತತದ
##ಲಂಗಪಪ
ಟೕಕಸದ
ಕಾರಡಗಳನನು
ಗರಭಗುಡ
ತರುಮ
ತರುಳು
ಮರಯುವ
ಸುಖವಾಗ
ಒಂದರಂತ
ಆಸತಗಳ
##ಬಾಂಧ
ವವಾಹಕಕ
ನರೂಪಣಯ
##ಸದಂತದ
ಸಂವಧಾನದಲಲ
##ತಪಾದಕ
ಕಲಲುಗಳ
ಅಣಣಾಮಲೖ
ಪಂಞ
ನಾಶವಾಗದ
ಸೕತುವಯನನು
ಸವಾಮೕಜಗಳ
ಐಟಐ
ಸಂಕಷಟದಲಲರುವ
ಒಪಪಂದವನನು
ಪಾವಗಡ
ಆದಯತಯ
ಗೂೕಡಗಳು
ಸೕನಯಲಲ
ಪರಗಣಸಬೕಕು
ಎಕರಯಲಲ
ಎದುರಾಗುತತವ
ಮುಂಜಾನಯ
ಅಮಾನುಷ
ಬೕಟಾ
ಪರಾಂತೕಯ
ರಫೕಕ
ಒಳಗಾಗುತತಾರ
ಭೕಮನ
sud
ಪುತತೂರನಲಲ
ಹೂಡದಾಟ
ಪಯಾಲೕಸ
ಕೂೕರಸಗಳ
ಆಕರಮತ
ಒಣಗಲು
ಉದಯಾನದಲಲ
##ಮಂಗಲದ
ಕೂೕಟಯಷಟು
ಆದರಶಗಳನನು
ವಗರಹಗಳನನು
ಮಹಾಸಂ
ತಪಾಸಣಾ
##ಕೂೕಶದ
##eshw
ಎರಡನಯದಾಗ
##ights
ಇಲವನ
ಲಯಾಂಪ
ಧೂೕರಣಯನನು
ನಭಾಯಸುವ
ಹಾಳುಗಡ
ಸಚವಾಲಯವು
##ಪೕಠದ
ಪರವೃತತಯನನು
ಅನಯಾಯವಾಗದ
ಉಚಚಾರ
pres
ಅರಪಸದರು
ವಂಡೕಸ
ನಕಕರು
##ounc
ಹಾಕಕೂಂಡದ
ನೕಮಸಲಾಗದ
ಆರಟಐ
ಡನಮಾರಕ
ಅಗಲವಾದ
ಮರುದನವೕ
ಫಾಂಟು
ಹೕಗರುವಾಗಲೕ
ರಂಗಭೂಮಯಲಲ
ಹೂಸದನನು
ಮುನಸೂಚ
ನಮಗಲಲರಗೂ
ಹರದವಾರ
editor
ಕಾಣಸಗುತತವ
ಕುರಚಯಲಲ
ಮೖಕಟಟು
ಉನನತಾಧಕಾರ
ಬದಗಟಟು
ಮುಸುಕು
ಮಳಯಾಗುತತದದು
ಸವಾಧೕನಪಡಸ
ಫಕಸಂಗ
ಮನೂೕರಂಜ
ಪಾದರಕಷ
ಕಯಾಥೂೕಲಕ
shiva
ನಕಾಪಡ
ಗೕರಬಾಕಸ
ಲೕಲಾವತ
ಮಂತಯ
ಹರಹಾಯದರು
ಮೕಸಲಾತಯನನು
ಕರಯೕಟವ
ಬಾಳಗಾ
ದುರದೃಷಟವಶಾತ
ಗಗನಸ
ವಜಾಗೂಳ
ತಂಗುದಾಣ
ಬೖಲಹೂ
ಚರತಯೂಂದು
ವಧವಶರಾಗದದಾರ
ಕಾರಬೂೕಹೖಡ
ಮರಮಾಚ
ಕಂಗಡಮ
ಹೖನುಗಾರಕ
ganesh
ದರಗಾ
ಪಯಲಂ
ಪಾರಲಮಂಟ
ರುಕಮಣ
febru
document
ಸಾಕಷಯಾಧಾರ
ಸಾಂದರಭಕ
ಪುತಥಳ
ನೕಲಕಂಠ
udup
ಹೂಳನರಸೕಪುರ
ಎಎಫಪ
ಅನರುದಧ
ತಡಯೂಡಡ
ಮುಜರಾಯ
ಸಟುವರಟ
dar
ees
low
nic
pic
pers
publ
so
san
sabha
v4
ಅಲನ
ಈಕಗ
ಉಹದ
ಎದದದ
ಐವ
ಕಯೂೕ
ಕಂಸ
ಗಡಯನನು
ಡಸಸ
ತತಕಾಲ
ದೂಂದಗ
ದಯಾಳ
ಧೃತ
ನಸತ
ನಫಾ
ಪಜಜಾ
ಫಡಲ
ಭೂೕವ
ಮಯನ
ರಂ
ಲಲಲ
ವಕಾರ
೬೨
##ಂಞ
##ಪಡಯನನು
##ಶಾಲಯ
##ನಸದ
##ಜನಸ
##uct
##ಡಬ
##ಚಹ
##ೖಸರ
##pp
##14
##೦ಧ
##೦ತರ
##ಾಗಸ
##ತತುವ
##ತತದದಾರ
##ೂೕನನ
##ಾನಸಸ
##ಾಲನಲಲ
##ೂರೕಟ
##ಲುಬ
ಮುಮಮ
ಮುಲಾಯ
ನೕನೂ
##ಕಾರರಗ
##ೕಳುವ
##ಗೂಡನ
ನಡಸುತತಾ
ನಡಸುತತರುವುದು
ಕಲಾಸಗ
ಸುದಧ
ಕರಶ
ಕರವೕ
##ಯಾಗಲದದು
ಹೂರುವ
ಹೂಲಯ
ಕಾಬೂಲ
ನೕಡದದರ
##ದೕಕರಣ
ವರಕಟ
##ಗಳಲಲೂಂದ
##ಗರಫ
ನಮಮನ
ಹೕಳತ
ಹೕಳಲಾಗದು
ಆಗತತ
ಹಚಚದಂತ
ಹಚಚಸುತತವ
ಇಲಲವಾಗದ
ಮಹರ
ಮಹಾನು
ಮಹಡಯಲಲ
ಚತರವೕ
ಚತರಹಂಸ
ಇದೂಂದೕ
ಕೂಡುತತಾನ
ಬರಸದ
##ಲಯರಸ
ಸಹಸ
ಸಹಾನು
##ಜನಕದ
ವರಷಗಳನನು
ಭಾರತದಲಲರುವ
##ಕುಲರ
ಅದಯಾವ
ತುಂಗಾ
ಸವಗರಾಮ
ಅನುಸಥಾಪ
ಸೕರತು
ಕಡಲಕಾಯ
ಅನಾಲ
ಅನಾಲಟ
ಬಲಾಸಟರ
ಹೂೕಗುತತರುವಾಗ
ಹೂರನಡ
ಅಂತಲಲಾ
##ೂೕಪಚಾರ
ಸೂಗಡ
ಬೕರುವುದಲಲ
ವೖರಾಗ
ಮಾರನ
ಮಾರಪಾಡ
ಉಪಕರಮ
ಗರಜಾ
ತಳದದದು
ಹೂಂದದದೕವ
ಚುನಾವಣಗಳನನು
ದೂರಸವಾಮ
##arn
ಕೕಳುತತ
##ಸಲರ
ಸೂೕಲೂ
##ature
ಮರದಂದ
ಸಟಯ
ತಂಡಗಳಲಲ
ಕಂಡರು
ಕಟಟಯ
ಕುರತೂ
ವಚಾರಸದ
ದರಗಳನನು
ನಮಗದ
ಶಾಲನ
ಬೕರೂರ
ಕೂೕಟಗಟಟಲ
ಆರಂಭಕಕೂ
ಆರಂಭಗೂಂಡು
ಅವರಗಲಲ
ಸೕರುತತವ
ಸೕಮಂತ
ಚನನಕೕಶ
ವಷಯವಲಲ
ಭಾವಾ
##ರಾಗಬೕಕು
ಬಳಸಕೂಂಡದದಾರ
ಪಟಟದದಾರ
ಸಾಧಕರಗ
ಸಾಧಸತತು
ಸಗಲು
ಸಗುತತರಲಲಲ
##ತತರದ
ಇರತ
ಬಟಟಗುಡಡ
ಸುದದಯಲಲದದಾರ
ಬದಲಾದಂತ
ಉದಯಾನದ
ನಾಂ
##ಕತಯು
ಕಾಯುತತ
ಕಾಯುತತಾ
ಬಾಲಯವ
ಜಾರಗೂಳಸುವ
ಜೂತಗೂ
ಸಾವರದಂದ
ಉದಗಾರ
ವೃದಧಯ
ಭಾವಸದದ
ಎನಎಸಎಸ
ಅಲಯೂ
ಆರೂೕಗಯವಾಗ
ನರಮಾಣವಾಗುತತರುವ
##ರಾದವರು
ಬಂಧಸಲು
ಬಂಧಸರುವ
ಅನನದಾನ
ಪಾರಾಯಣ
ಮಹಳಯರೂ
ಸಾಗತತು
ಸಾಗಬೕಕು
ಸಾಗಾಣ
ಮದುವಯನನು
ವಾಸವ
##ಾರಾಧಯ
##ವನನೂೕ
ಪರಕಟಸದದು
ಪರಕಟಸತತು
ಇಂತಹದದೕ
ಬಣಣದಂದ
ದಕಷಣಕಕ
ಅಮೂರತ
ಎನನಲಾಗತದ
ಮೂಡತತು
ಎಲಮ
ದೕಹದಲಲನ
ಕಲಪಸುವುದು
ತಲುಪಸ
ಮುನನೂರು
ಪರಾಣಯ
ಪರಾಣಗಳಗ
ನರೕಕಷಗಳನನು
ಶಕತಗಳ
ಪರದರಶನಗಳನನು
ಆಲಸದ
##ನಾಗುತತಾನ
ಬರಯುವಾಗ
ಸಮಯದಲಲೂ
ಇನಮೕಲ
ಪತರಕಗಳನನು
ಬದುಕುವುದು
ಹತತರವರುವ
ವಹರಸ
ರಕಷಸದ
ಕೂೕರಲಾಗದ
ಹೂತತೂಯಯ
ಜನಸಂದ
ಸಮೕಪದಲಲೕ
ದೃಷಟಯನನು
ಲಂಗದ
ಜೂೕಡಯಾಗ
ಚಟುವಟಕಯಂದ
ಸಹಜವಾದ
ಮಳಗಗಳನನು
##ಗಳಗೂಂದು
ಬರಹಮರ
prop
priy
ಎನನುವುದೂ
ಹಳಯದಾದ
ನಷೕಧವನನು
ವವಾದಗಳು
ಸಬೂ
ಸುಧಾರಣಯ
ನಂಬಕಯದ
ಹೂರಟದದರು
ಅಜೕರಣ
ಇಂಟಲ
ಟೕಕಗಳು
ಆನಂದವನನು
ಮಂಡಳಯಲಲ
ಕಾಶಮೕರಕಕ
ಗರಭಧಾರಣ
ವನಯಾಸಗಳು
ದಂಡವನನು
ನೂೕಡದವು
ಕಾಣಸಕೂಂಡರ
ಮಲಗರುವ
ಹಂಗು
ಚರಮದಲಲ
ಕಳದುಕೂಂಡರು
ಮಂಚಂಚ
ಧರಸುವುದು
ಅಳಸುವ
ಅನನೂೕದೕ
ಸಂವಧಾನಕಕ
ಯಾತರಾ
ಚತರೕಕರಣಕಕ
ಅಖೕಲ
ಉಪಾಧಯಕಷರಾಗ
ಅಪಾರವಾದ
ಗರಂಥಗಳನನು
ಬಎಸಸ
ಪರೂೕತಸಾಹಧನ
ವಹವಾಟನನು
ಇದಕಕಾಗಯೕ
ಸಯಾಂಡಲವುಡನ
ಯೂಸುಫ
ಕುರುಬರ
ಧನವಂತರ
ಕೖಯಲಲದದ
ಬೂೕವ
ಕಾನವಂಟ
ಪರಾರಥನಾ
2006ರ
ಪುರಂ
ಯುವತಯರಗ
ಹುಲಗಳ
ದೃಢಪಡಸ
ದೃಢಪಟಟದ
ಚಲಲುವ
ಗೂೕವಂದರಾಜ
ಜನತಾದಳ
ಬಹುಮಾನವನನು
ಸಂಪನಮೂಲಗಳ
ಟೂರನಗ
ಸಥಗತಗೂಳಸಲಾಗದ
ಗೕತಗಳನನು
ನದಯು
ಸಂಬಳವನನು
ಕರೖಸತರ
ಚತುರದ
bec
ಸೕಟುಗಳು
contr
ಪರತಪಾದಸುವ
ಗಜಾಲ
ಕಾರಖಾನಯಲಲ
ನರಸಂಹರಾಜ
ವರಸಾ
ವರಸಾಂ
##ರೂಪದಲಲ
ಪಾವತಸಬೕಕು
ತಲಯತತ
ಟರೂೕಫಯ
ಸಾಬೕತುಪಡಸ
ದಡದಲಲ
ಜಾಣತನ
ಪರಾಂಶುಪಾಲರಾದ
ಎಟಎಂಗಳಲಲ
ನಾಸರ
ಘಂಟಗ
ಯೕಸುವನ
ದಢೕರನ
ಜಯನಗರದ
##ಸತೂಡಗದರು
ಮಟಟಲುಗಳನನು
ಮುರಳೕಧರ
ಮತಾಂಧ
education
ಮಣಪಾಲದ
ಗುಡುಗದದಾರ
ಸವಾಮೕಜಯವರು
awards
##rent
ಬಸಯುವ
ರಲೕಫ
ಸೕಡಂ
ವಂಗಡಣ
indust
ಬೃಹದಾ
ಕವಂಟಾಲ
jpeg
ಸಂಘಟಕರು
ತಲಬುರು
ಮನಕಲಕ
singh
##ಬಹದು
kannadiga
ಹಪಪುಗಟಟ
ಅಸಡಟ
ಫಾತಮಾ
ಲೂೕಗೂೕ
ಬಾಲಸುಬರಹಮಣಯ
ಡಫರಂಟ
ಪುನಸಕಾರ
ಶಾಂಪೂ
ಭೕಮಸೕನ
ವೖಪರೕತಯ
ಜಂಬಾಬವ
ಚಂಡೕಗಢ
eesanje
ಅನಾಲಟಕಾ
550
ast
cand
cab
foot
gra
jo
like
sol
ಆಂಜನ
ಉಯ
ಉದಗ
ಉಡಾಫ
ಎವರ
ಗರು
ಗವಾಲ
ಚಳಕ
ಜವಾನ
ಜಎಸಎಸ
ಟರೂ
ಟನನಸ
ಡೖಲ
ತತವದ
ದವರ
ಧಾನ
ನಂಟರ
ನದಯನನು
ನೃಪ
ಪಯಾಲ
ಮಂಗಳು
ಲಯೂ
ಲಕಸ
ವಂದು
ವೂರ
ಶತಾ
ಸರಾಜ
ಹಳತ
ಹ೦ದ
##ತಹಳಳ
##ವಮರ
##ಾಧಯಕಷ
##ಾಖಲ
##ಶೕ
##ಬಎಸ
##ಬಲನ
##lc
##ಳಾಗದದ
##ಡನಲಲ
##ಹಕಕ
##ಟಂ
##ಟತ
##ೂನಯ
##ಧರನ
##hu
##mb
##x7
##ಝರ
ಪರೂೕಪ
ಪರವರಗ
ಮಾಣಕಯ
##ುತತು
##ೕಕಾ
##ಷಟಯ
##ನಾತ
##ವನನುವ
ನಡದರು
ನಡಸಲಾದ
ಕಲಯು
##ದದುರು
##ಯಾಗುತತದದು
ಹೂಂಚು
ನೕಡುವುದರಂದ
ನೕಡಲಾದ
ನರನಾಮ
##ಗರಲಲ
ಹೕಳುವುದನನು
ಹಚಚಸಕೂಳಳಲು
ಇಲಲದದದಲಲ
ಮಹಡಯ
ಎಲಲಡಯೂ
ಇದಾಗ
ಅಭಮತ
ಅರವಾಗುತತದ
ಕಾರಯಚಟುವಟಕ
ಸಹಸಕೂಳಳ
ಸಹತಂಡ
ಬಂದದದೕ
##ದದರಬಹುದು
ಅದಾಲತ
##ಸರಾಯ
##ೕತದ
##ರಯುವ
ರಾಜಯಗಳಂದ
ರಾಜಯಸರಕಾರ
ಸೕರಸಬೕಕು
ಸೕರಸದರ
ನೂೕಡರುತತೕರ
ಬಲಾಸಟ
ಕೖಗಳಗ
ಹೂೕಗುತತೕವ
ಹೂರನಾಡು
ಅಂತಸತ
ಸೂಲ
ಎಂದಾಗದ
ಕಾರಣವಾಗದದ
ಬೕರುತತವ
ಶರೕಮುರಳ
##ದಂತಾಗ
##ದಂತಾಯತು
ವೖಷ
ಮಾರನಯ
ಉಪಕು
ಹಾಕತತು
ನಂತರವಷಟೕ
ಮೖನ
ಚುನಾವಣಗಳ
ಮಕಕು
ಕೕಳುವಂತ
ಕೕಳುತತಾ
ಅದರದೕ
ಸೂೕಡಯಂ
ಭಾಗಮಂಡಲ
ಮಾತನಾಡದದರು
ಸಟೕವನ
ರೂಪಸದದು
ಮಾಡದನು
ಕಟಟಕೂಳಳ
ರೕಖಯ
ಬಸಾಕ
ಹರದದ
ತುಂಬದದಾರ
ಸಾಲಡ
106
ನಡಸಲಾಗದದು
ವಾರಸು
ಪಡಯನನು
ಪಡಯಲದ
ಸೕವಸಬಹುದು
##ಗೂಳಳಲದದು
ಉತತರದಲಲ
ಸಮಸಯಯು
ಶರವ
ಯಾವೂಂದು
ಸಕಕದದ
##ುವುದೂಂದೕ
ಬದಲಸದ
ಮಟಟವು
ಫಲಾಪ
ಜನರದದಾರ
158
ಕಾಯುತತದ
ಜೂತಗದದ
ಸಾಮಾನಯರಗ
ಅಗತಯಗಳಗ
##ಪುಂಜ
ಅನುಭವದಂದ
ಅರಥವೕ
ಅಭವೃದಧಪಡಸದ
ನರಮಾಣವಾಗರುವ
ಬಂಬಸ
ಕವಯೂೕಲ
##itha
ಕರೕಡಗ
ಜಯಮಾಲ
ಮುಂಬಯಯ
ಕರಯುತತದದರು
ಗಡಮರ
ಗಡಪಾರು
ಇಷಟಪಟಟು
ಪಾದದ
##ಜಾಂಶ
ಪರಕಟವಾಗಲದ
ಬಣಣಸದರು
ದಕಷಣಕನನಡ
ಚಾಲುಕ
ರಾಷಟರಪತಯ
ಪರಯತನದಂದ
ಮಾಡಕೂಳಳಲಾಗುತತದ
ವಸತುಗಳಂದ
ಪೂಜಸುತತಾರ
ನೕಡುವರು
ಕನಕರ
ಪರಗತಯಲಲ
ಮನಗಾಣ
ಪರಶಸತಗಳ
ತನಮಯ
ಪೂರಣಗೂಳಳುವ
ಮಸಕಾಂ
ಕಲಪನಗಳು
##ility
ಹಚಚಾಗುತತವ
ಯೂೕಗವನನು
ನರೕಕಷಸಬಹುದು
ಹಾಡರುವ
ಮಾಡದದಾಗ
ತಳಯುತತಲಲ
50ರ
ಬೕಳದ
ಗುರಯಾಗದದ
ಸಥಾಪತ
ಬರಯುತತದದ
ಯಾಕೂ
ಬದಲಾವಣಗಳ
ಅಭನಯಸದದರು
ತೂಂದರಯ
ತೂಂದರಯನನು
ಆಮಚ
ಕತತಲಲಲ
ವಯಸಸಾಗತತು
ಸಹಕಾರಯಾಗುತತದ
ಜನರಗಾಗ
ಬಾಯಯಲಲ
ಲೂೕಕಸಭಯ
ಲೂೕಕಸೕವಾ
ಪೂರವಕವಾಗ
ಜಾಫರ
ಸವೕಪ
##ಯೂಬಬರಗ
ಬೂದು
ಗುರುತಸಕೂಳಳ
ಮಲಲಪಪ
ಸಂಚರಸಲು
ತೂೕಟಗಳಲಲ
ನಾಡಹಬಬ
ನಾಡಪರಭು
ಯಾವಾಗಲು
ಕಸಾಯ
ಹಳಯದು
ವಯವಹಾರವನನು
ಎಷಟಲಲಾ
##ಪಪನವರಗ
ಕುಟುಂಬದೂಂದಗ
ಹಾಜರಾತ
ಅಳವಡಸಕೂಂಡು
ಮಣಸದ
ಪರಯೂೕಗವನನು
ಗಂಗೂ
ಎಫಸ
ವಶವದಾಖಲ
ವನಯಾಸಕಕ
ವಷದ
ಇಸಪೕಟ
1997
1994ರಲಲ
##ಬಳಕಯ
ವರತಸುವ
stf
ಸವಚಛಗೂಳಸಲು
ಭಾಷಣಕಕ
ಸಂಪಾದಕರು
ಅಂಥದದೕ
ಶರೕನವಾಸನ
ಶರೕನವಾಸಪುರ
ಹಬಬದಂದು
ಕರೕಡಗಳು
##ular
##ults
ದೕವೕಗಡರಗ
ತೖಲವನನು
ಚಂತನಗಳನನು
ನಾಳನ
ಮಹಾಶಯ
ಕರತವಯದ
ಹಸತಪರ
ತಳದಾಗ
ನರವಹಸಬೕಕು
ಹೂಡಕಗ
ಅನುಸರಸುತತದ
ಅನುಷಠಾನಗೂಳಸ
ಅಡಗರುವ
ಪರಸತಾಪವನನು
ಗುರುತವಾಕರಷಣ
ವರಗಾವಣಗ
ಸೖಟಗಳು
ನಶಚಲ
ಅಮಾನತತು
ಸೂೕಲನುಭವ
ರಾಜಯಪಾಲರನನು
ಚಾಲಕನನನು
ಡವಲಯರಸ
ವಲಸಗರು
ಬಳಸಕೂಳಳಲಾಗುತತದ
ಚಪಪರ
ರಾಯಚೂರನ
ಜಾವಲನ
##ಲಯಾಕಸ
ಸುಪರೕಂಕೂೕರಟಗ
ಗೂೕಲುಗಳ
ಯುರೂೕ
##ಯಾವಕಾಶ
##ನೂಬಬನ
ತಣಣೕರು
ಮಥಾಲ
ಜಾನುವಾರುಗಳು
ವದಯಾಭಯಾಸಕಕ
ಸುಪರದಗ
ಆತಮವಶವಾಸದಂದ
ಆರಟಇ
ಸಾಮಾನುಗಳನನು
ಗುರಯಾಗಸಕೂಂಡು
ಮಾನವೕಯತಯ
ಪೂೕಲಂಡ
ಕರೕಡಾಪಟುಗಳ
ಸರೂೕವರದ
ಕರದೂಯಯುವ
ಪೂೕಷಕಾಂಶಗಳ
ಹಂಬಾಲಸ
ಸಎನಸ
ಬುದಧವಂತಕ
ಶಸತರಾಸತರಗಳನನು
ನಲುಕ
ಯಲಬುರಗ
ಚುನಾವಣಾಧಕಾರಗಳು
ಕಂಗಾಲಾಗ
ವದಯಾರಣಯ
ಕಾಂಕರಟ
ಮುಂಚೂಣಯಲಲರುವ
ಕಯಾಶಬಯಾಕ
ಅಚಯುತ
ಹೂರಬೕಳಲದ
ತರೖಮಾಸಕದಲಲ
ಅನುಕಂಪದ
ನೕತಾಜ
ಧಾರಾಳವಾಗ
ಆರಕಟಕ
ನಾಲಕೂವರ
ದಾದಾ
ಧರಮಾಧಕಾರ
##ಕುಂಜೕಶವರ
ಕಾಲೂೕನಯಲಲ
ಫಲಾಶ
ಲಂಗಾಯತರ
ಗುಣಲಕಷಣಗಳನನು
ಅಸಮರಪಕ
release
ಜನುಗ
ಖಳನಾಯಕ
ಮಹಬೂಬ
help
ಮಾಲಾಶರೕ
ಮಯಾರೕಜ
ಚಳುವಳಯ
ಕೂೕಲಾಹಲ
bandh
ಬೂಮಮನಹಳಳ
ಪರಜಾಸತತಾತಮಕ
ತಾಂಡವವಾಡ
ರಾಣಬನನೂರು
ಮಾಂಗಲಯ
ಮರುಪರಶೕಲ
ಹತಯಾಕಾಂಡ
ಶಲೕಂಧರ
mobile
langu
ಟೕಕವಾಂಡೂೕ
ಸದಾಶವನಗರ
ಸಾಗರೂೕತತರ
ಸಬೂಬು
ಚಾಲುಕಯರ
camp
gold
ha
kap
pal
ಆಸಯಂದ
ಇಂಬು
ಇರುವುದಾಗ
ಒ೦ದ
ಕರುವ
ಖೂೕ
ಖಂಯ
ಗವಾಸಕರ
ಘತ
ಚಯೂ
ಚಗುರು
ಡಚ
ಡನಸ
ತಡದ
ಥಂಯ
ದಾಕ
ಧಡ
ಧೂಪ
ನಬಬ
ಫೂೕಸ
ಬೕನ
ಬರುವುದನನು
ಬಚಾ
ಯಾಹ
ರಯಾದ
ರಲಯಾಕಸ
ವನನರ
ಸಗಳ
ಹದದನ
೪೧
೫೮
##ತೃ
##ಪಾಕ
##ಪತಯಾಗ
##ಶೕಷ
##ದನನ
##ದಳು
##ಬತ
##ಬಜ
##ಬಯಾಂಡ
##ll
##co
##ಡಗಳ
##ಡದು
##ಟಗಳು
##98
##28
##her
##38
##ಾರಹತ
##ಾಗಳಲಲ
##ಗಳಷಟೕ
##ೂೕತತ
ಪರಧ
##ಯಾಜಯ
ಮಾಡಲಂಗ
ಮಾಡಲೕಬೕಕು
##ಕರಷಕ
##ಕೂಟರ
##ಂಬೂ
ಮುರುಳ
ರಾಣಾ
ಕೂಳಯ
ಎಂದುಕೂಂಡದದ
ಕಲಾಲ
ಬಳಸದೕ
ಬಳಸುವಂತಲಲ
##ದದುದು
ಸುಮತ
ಸುಕುಮಾರ
ಹೂಟ
ಹೂಡಸ
ನೕಡುತತಲೕ
ನೕಡಬೕಕಾಗದ
##ಕೂಂಡದದಾಳ
##ಬಬನ
##ಲೕಕರ
ರಾಜನು
##ಪರೖಸ
##ಪರಸದಧ
ಹೕಳಲಲಲ
ಹೕಳೂೕದು
ಹೕಳುತತದದೕನ
ಆಗದದರಂದ
ಮಹಡಯಂದ
ಕೂಡರುತತದ
ಕೂಡುತತದದಾರ
ಬರಷ
ಸಥೖರಯ
##ಲಯೂೕ
ಪುಳ
ಅರಶಣ
ಬಗಗು
##ೕನರ
ಭಾರತೕ
ಮುಂದವ
ನನನಯ
##ants
ಪೂಣ
ಪೂಲಸ
ಅನುಷಟ
ನೂೕಡುವುದಲಲ
ನೂೕಡುತತೕನ
##ಳದರುವ
mot
ಕೖಲಾ
ಹೂೕಗದದಾಳ
ತರದರ
ಕಾರಣವಂದು
ಆಯಕಟ
##ಗೂಂಡನಹಳಳ
ಪರಶಂ
ಹೂೕಳಗ
ಉಪಶ
ಗರಗರ
ಅಧಕಾರಕಕಾಗ
ಪಕಷಯ
ಪಕಷಕಕೂ
ಮೖಂಡ
ಮೖಯನನು
ಹೂಸದು
ಹೂಂದುವಂತ
ಜೕವಗಳನನು
##ಜಯಂತ
ಸಲಭ
ಕೕಳಯೕ
ಕೕಳದರೂ
ಕೕಳಸತು
ಅದರದದೕ
ಭಾಗವಾದ
ಮಾತನಾಡಲಲ
ತಂಡಗಳಗ
##ಯಾನಾ
ಹರಜನ
ತುಂಬಸಲು
ಸಾಲುಗಳ
ಬಹುದನಗಳ
ಸೕನಯನನು
ಸೕಕರಟ
107
1920
ವಾರಯರ
##ೂಬಬರನನು
ಜೕವನವು
ನಗಯ
ನಗಪಾಟ
ಶವಗಳನನು
ಸಮಸಯಯಂದಾಗ
ಆಟೂೕರ
ಅತಯವಶಯಕ
ಬಹಷಕಾರ
ವಶೕಷತಗಳನನು
ಸಲಲಸುತತರುವ
ಬದಲಾಯತು
ತಾಚಯಾ
ತಂದತು
ಕಾಯುತತದದರು
ಕಯಾನನ
ಮನಸಗ
ಅಗತಯತ
ಇವರಡರ
ಒಳಗೂ
ಒಳಭಾಗದಲಲ
ಒತತಾಸ
ಭಾವಸದ
ಚಕಕು
ಚಕಕನಾಯಕನಹಳಳ
ಅರಥಗಳನನು
ರಸಪರಶನ
ಅನನವನನು
ಎನನುವಂತಹ
ಹಬಬತತು
ಸಾಗುತತರುವ
ನಂಬಲು
ಗಮನಕಕೂ
ರಾತರಯಂದ
ಏರಪಟಟದ
ಸವಲಪವೕ
ತಂಗಳೂ
ಬರುವವರಗೂ
ತಾಯಂದರು
ತೕರು
ಉದದೕಶಪೂರವಕ
##let
ಮಲಾನಾ
##ಚತರಗಳು
ರಾಷಟರಗಳಗ
25ರಷಟು
ಪರಯಾಣಸ
ಕಣಣನನು
ಅರಜದಾರರು
ತಮಟ
ತಮಗೂ
ಹಚಚಾಗುತತದದು
ಪರಾಣವನನು
ಕೖಗೂಳಳುತತಾರ
ವಭಾಗಗಳು
ಪರಾರಂಭಸತು
ಸಕಚ
thr
##ಬಡಬಹುದು
ಗುರಯಾಗದದಾರ
ಮರುಕಷಣ
ತರಳದದು
##ಆರಐ
ಬದುಕರುವ
ಪರಮೂೕ
ಉಳದವು
ನೂಣ
ನಷಪಕಷಪಾತ
100ರಷಟು
ಹೂಡದದದು
ಉಡುಪಗ
ಸಮೕಪಸುತತರುವ
ಉತಪಾದಸ
ದೕವಾಲಯವದ
##ಾಗುವಷಟು
ರೂೕಶನ
ಲಂಗರಾಜ
ಶುಕರವಾರದ
ಎಡಜ
ಚಟುವಟಕಯನನು
ಸಂಘಟನಯಲಲ
ಸಂಘಟನಗಳನನು
ನಗರದಲಲನ
ಹಾನಗಲ
ಹಾನಗೂಳಗಾದ
ಬಾಕಯ
ಎನಸಕೂಂಡರುವ
ಅಳವಡಸಕೂಳಳಬೕಕು
ಆತಂಕವನನು
ಅಂಗಡಗಳಗ
ನಕರರನನು
ಟೕಕಸುವ
ಪರಯೂೕಗದ
ಬಾಳಹೂ
ಎಕಸಕ
ಜಮಾಲ
ಕೂಳಳುವುದು
ವರತೂರು
ವರತನಯಂದ
##ಬೕಕಾಗಬಹುದು
ಶಾಸತರಜಞ
359
story
ಲಾರಡಸ
ರಚನಗಳು
ಪರಯತನಸುತತದದಾರ
ದಲಲಯಲಲ
ಮೕನುಗಳು
ಅಪರಾಧಗಳನನು
ತಕಕಮಟಟಗ
ಮಂದರವು
ಅಣಣಪಪ
ಬಲಲವರ
ಕನನಗ
ದುಬಾರಯಾಗ
ಆಗಮಸಲದದಾರ
ಕಾಸಟ
##ploy
ಹೂಡಕದಾರರ
ವಚತರವಾದ
ಕಾರಯನರವಹಸಲು
ಸಮಾವೕಶಕಕ
ಸಮಾರಟಫೂೕನಗಳು
ಸಂಕೕತಗಳನನು
ನರಲಕಷಸ
ನಯಾಯಾಧಕರಣ
ಸಫೂೕಟದ
ಪರಸಂಗದ
ಹರಡುತತದ
ಬೕದರನ
90ರ
ತರವುಗೂಳಸುವ
300ಕಕೂ
ಜಲಪಾತಗಳು
ಕೂಚಚಕೂಂಡು
ರವಾನಸದದಾರ
ತಗಗಸುವ
ವಶಪಡಸಕೂಂಡ
ಅಭಪರಾಯಪಟಟದ
ಆಫೕಸನ
ಕೂೕಚಂಗ
ಸೕಟುಗಳ
##aint
ಪರವಾಸೂೕದಯಮದ
ನಷಠುರ
ದವಾರದ
ನಕಷತರಗಳ
ಉಚಚರಸ
##ಸಾರವ
ವಸಂತಕಕ
ಖರಚನನು
ಯುವಜನರು
ಪರತಷಠಾಪಸ
ಗೖಡಸ
ವೖಭವವನನು
ಅಧಯಾಪಕರ
ಮೕಸಲಟಟ
ಸುಚೕತಾಳ
ಆಟವಾಡುತತದದ
ಫಾಲೂೕವರ
ಧುರೕಣ
ಮನಸಥತಯನನು
hyper
##erest
ಅನುಪಸಥತಯಲಲ
ಸುಂಕವನನು
ಉಮಾಶರೕ
ಗೂಂಡಾಗರ
ಸಾಮರಸಯದ
ಅಧವೕಶನದ
ಮೃಗಾಲಯ
ವವಾದದಲಲ
ತುಂಡಾಗ
ರಾಮಮೂರತ
ಮೃದುವಾದ
ಕಾಂಬನೕಷನ
ನಸುಕನ
ಪುಸತಕಕಕ
ತಳುಕು
ಛಂದಸಸು
ಹತೂೕಟಗ
ಸತುತ
ಮಠಾಧೕಶರು
ಮೂೕನಕಾ
ವಯಂಗಯವಾಡದದಾರ
ಗರಭಗುಡಯ
##ೂೕರೂಂ
ಸೂಪಪನನು
ಚರಪರಚತ
ಇಸತರೕ
ಬಎಂಆರಸ
ಡಾಂಬರೕಕರಣ
ಆಪರೕಶನ
ಮುಖಯವಾಹನಗ
ಅಟಲಾಂಟಕ
ಮಂಥನ
ಪೖಸಯಷಟು
ಸೂಬಗನನು
ಶಂಕರಮೂರತ
ಹಕಕೂತತಾಯ
ಚನನರಾಯಪಟಟಣ
ರಚರಡಸ
ಹಂತಹಂತವಾಗ
february
udupi
ak
cir
ka
kashm
less
our
power
rap
samp
ver
vot
ಅಯೂೕಗ
ಉರುಗ
ಏಯ
ಐಪಾಡ
ಐಓಎಸ
ಒಡಸ
ಕೕಡ
ಖಲ
ಗಾವ
ಗರಮ
ಘಡ
ಘಾತ
ಜಡಯ
ಟಪ
ಟುಡ
ಟಂಬಲ
ತರುತತವ
ಥಟಟನ
ದಾಯ
ದಂಗಲ
ದಕಷತ
ಬಯಯ
ಬಆರ
ಭಾಟ
ಯಾತ
ಯಹೂೕ
ಲಕೂೕಟ
ಶಂಧ
ಸದದರ
ಸಬರ
ಸಕಾಟ
ಸಕಟಸ
ಹಹ
ಹವಳ
ಹಜರತ
##ಗತಯಲಲ
##ಾಕಾರದ
##ಮೃಗ
##ಪಟಲ
##ಶತರು
##ಲವಯ
##ಸೂೕ
##ಸಾಲು
##ಚಕಯ
##ಧಧ
##ಆಆ
##my
##ಘೂೕಷ
##ನನಾದ
##ೂೕತಪಾದ
##ದದದೕನ
##ತರಕವಾಗ
##ತರೂೕದು
##ಟಟಾ
##ವಾಚಕ
ಮುಷ
##ಮಮನಗ
ರಾಸ
##ಕಾರರನನು
ಸಾಣ
ಕೂಪನ
ಕಲಂಟನ
ಬಳುವಳ
ಕಾಂಚನ
ನೕಡಬಲಲ
ನೕಡಬೕಕದ
##ಕೂಂಡಳು
ವರಣಸ
##ಪಪುರ
##ಮಾಕ
ಹಚಚುತತಾ
ಅವವೕಕ
##ady
